{
  "token_to_id": {
    "<pad>": 0,
    "<s>": 1,
    "</s>": 2,
    "<unk>": 3,
    "<sep>": 4,
    "<mask>": 5,
    "<Q>": 6,
    "<A>": 7,
    "<USER>": 8,
    "<BOT>": 9,
    "<think>": 10,
    "</think>": 11,
    "\u0000": 12,
    "\u0001": 13,
    "\u0002": 14,
    "\u0003": 15,
    "\u0004": 16,
    "\u0005": 17,
    "\u0006": 18,
    "\u0007": 19,
    "\b": 20,
    "\t": 21,
    "\n": 22,
    "\u000b": 23,
    "\f": 24,
    "\r": 25,
    "\u000e": 26,
    "\u000f": 27,
    "\u0010": 28,
    "\u0011": 29,
    "\u0012": 30,
    "\u0013": 31,
    "\u0014": 32,
    "\u0015": 33,
    "\u0016": 34,
    "\u0017": 35,
    "\u0018": 36,
    "\u0019": 37,
    "\u001a": 38,
    "\u001b": 39,
    "\u001c": 40,
    "\u001d": 41,
    "\u001e": 42,
    "\u001f": 43,
    " ": 44,
    "!": 45,
    "\"": 46,
    "#": 47,
    "$": 48,
    "%": 49,
    "&": 50,
    "'": 51,
    "(": 52,
    ")": 53,
    "*": 54,
    "+": 55,
    ",": 56,
    "-": 57,
    ".": 58,
    "/": 59,
    "0": 60,
    "1": 61,
    "2": 62,
    "3": 63,
    "4": 64,
    "5": 65,
    "6": 66,
    "7": 67,
    "8": 68,
    "9": 69,
    ":": 70,
    ";": 71,
    "<": 72,
    "=": 73,
    ">": 74,
    "?": 75,
    "@": 76,
    "A": 77,
    "B": 78,
    "C": 79,
    "D": 80,
    "E": 81,
    "F": 82,
    "G": 83,
    "H": 84,
    "I": 85,
    "J": 86,
    "K": 87,
    "L": 88,
    "M": 89,
    "N": 90,
    "O": 91,
    "P": 92,
    "Q": 93,
    "R": 94,
    "S": 95,
    "T": 96,
    "U": 97,
    "V": 98,
    "W": 99,
    "X": 100,
    "Y": 101,
    "Z": 102,
    "[": 103,
    "\\": 104,
    "]": 105,
    "^": 106,
    "_": 107,
    "`": 108,
    "a": 109,
    "b": 110,
    "c": 111,
    "d": 112,
    "e": 113,
    "f": 114,
    "g": 115,
    "h": 116,
    "i": 117,
    "j": 118,
    "k": 119,
    "l": 120,
    "m": 121,
    "n": 122,
    "o": 123,
    "p": 124,
    "q": 125,
    "r": 126,
    "s": 127,
    "t": 128,
    "u": 129,
    "v": 130,
    "w": 131,
    "x": 132,
    "y": 133,
    "z": 134,
    "{": 135,
    "|": 136,
    "}": 137,
    "~": 138,
    "": 139,
    "": 140,
    "": 141,
    "": 142,
    "": 143,
    "": 144,
    "": 145,
    "": 146,
    "": 147,
    "": 148,
    "": 149,
    "": 150,
    "": 151,
    "": 152,
    "": 153,
    "": 154,
    "": 155,
    "": 156,
    "": 157,
    "": 158,
    "": 159,
    "": 160,
    "": 161,
    "": 162,
    "": 163,
    "": 164,
    "": 165,
    "": 166,
    "": 167,
    "": 168,
    "": 169,
    "": 170,
    "": 171,
    " ": 172,
    "¡": 173,
    "¢": 174,
    "£": 175,
    "¤": 176,
    "¥": 177,
    "¦": 178,
    "§": 179,
    "¨": 180,
    "©": 181,
    "ª": 182,
    "«": 183,
    "¬": 184,
    "­": 185,
    "®": 186,
    "¯": 187,
    "°": 188,
    "±": 189,
    "²": 190,
    "³": 191,
    "´": 192,
    "µ": 193,
    "¶": 194,
    "·": 195,
    "¸": 196,
    "¹": 197,
    "º": 198,
    "»": 199,
    "¼": 200,
    "½": 201,
    "¾": 202,
    "¿": 203,
    "À": 204,
    "Á": 205,
    "Â": 206,
    "Ã": 207,
    "Ä": 208,
    "Å": 209,
    "Æ": 210,
    "Ç": 211,
    "È": 212,
    "É": 213,
    "Ê": 214,
    "Ë": 215,
    "Ì": 216,
    "Í": 217,
    "Î": 218,
    "Ï": 219,
    "Ð": 220,
    "Ñ": 221,
    "Ò": 222,
    "Ó": 223,
    "Ô": 224,
    "Õ": 225,
    "Ö": 226,
    "×": 227,
    "Ø": 228,
    "Ù": 229,
    "Ú": 230,
    "Û": 231,
    "Ü": 232,
    "Ý": 233,
    "Þ": 234,
    "ß": 235,
    "à": 236,
    "á": 237,
    "â": 238,
    "ã": 239,
    "ä": 240,
    "å": 241,
    "æ": 242,
    "ç": 243,
    "è": 244,
    "é": 245,
    "ê": 246,
    "ë": 247,
    "ì": 248,
    "í": 249,
    "î": 250,
    "ï": 251,
    "ð": 252,
    "ñ": 253,
    "ò": 254,
    "ó": 255,
    "ô": 256,
    "õ": 257,
    "ö": 258,
    "÷": 259,
    "ø": 260,
    "ù": 261,
    "ú": 262,
    "û": 263,
    "ü": 264,
    "ý": 265,
    "þ": 266,
    "ÿ": 267,
    "</w>": 268,
    "s</w>": 269,
    "e</w>": 270,
    "in": 271,
    "an": 272,
    "d</w>": 273,
    "on": 274,
    "ti": 275,
    "th": 276,
    "er": 277,
    ",</w>": 278,
    ".</w>": 279,
    "en": 280,
    "es</w>": 281,
    "or": 282,
    "al": 283,
    "y</w>": 284,
    "t</w>": 285,
    "ro": 286,
    "tion": 287,
    "and</w>": 288,
    "ar": 289,
    "g</w>": 290,
    "ing</w>": 291,
    "re": 292,
    "ic": 293,
    "at": 294,
    "al</w>": 295,
    "ed</w>": 296,
    "the</w>": 297,
    "st": 298,
    "of": 299,
    "tion</w>": 300,
    "of</w>": 301,
    "em": 302,
    "to": 303,
    "ec": 304,
    "el": 305,
    "ac": 306,
    "li": 307,
    "om": 308,
    "tr": 309,
    "to</w>": 310,
    "ol": 311,
    "ur": 312,
    "pro": 313,
    "a</w>": 314,
    "di": 315,
    "for": 316,
    "ts</w>": 317,
    "un": 318,
    "er</w>": 319,
    "as": 320,
    "es": 321,
    "in</w>": 322,
    "m</w>": 323,
    "ation</w>": 324,
    "ab": 325,
    "pl": 326,
    "vi": 327,
    "[</w>": 328,
    "]</w>": 329,
    "an</w>": 330,
    "==": 331,
    "ch": 332,
    "ex": 333,
    "ent</w>": 334,
    "ri": 335,
    "tions</w>": 336,
    "con": 337,
    "tic": 338,
    "le</w>": 339,
    "Th": 340,
    "si": 341,
    "gh": 342,
    "ve</w>": 343,
    "ag": 344,
    "ap": 345,
    "on</w>": 346,
    "The</w>": 347,
    "ers</w>": 348,
    "qu": 349,
    "ty</w>": 350,
    "de": 351,
    "ow": 352,
    "uc": 353,
    "oc": 354,
    "us": 355,
    "th</w>": 356,
    "ul": 357,
    "at</w>": 358,
    "et": 359,
    "sp": 360,
    "com": 361,
    "ic</w>": 362,
    "op": 363,
    "um": 364,
    "hi": 365,
    "ter": 366,
    "ad": 367,
    "am": 368,
    "enc": 369,
    "sy": 370,
    "ir": 371,
    "ly</w>": 372,
    "rou": 373,
    "od": 374,
    "are</w>": 375,
    "by</w>": 376,
    "per": 377,
    "ent": 378,
    "ou": 379,
    "wi": 380,
    "-</w>": 381,
    "ates</w>": 382,
    "the": 383,
    "as</w>": 384,
    "ations</w>": 385,
    "duc": 386,
    "en</w>": 387,
    "is": 388,
    "ical</w>": 389,
    "le": 390,
    "ra": 391,
    "that</w>": 392,
    "ver": 393,
    "====": 394,
    "fro": 395,
    "from</w>": 396,
    "ang": 397,
    "form": 398,
    "or</w>": 399,
    "su": 400,
    "og": 401,
    "os": 402,
    "ate</w>": 403,
    "for</w>": 404,
    "iz": 405,
    "rough": 406,
    "stem": 407,
    "wor": 408,
    "se": 409,
    "im": 410,
    "ke</w>": 411,
    "me": 412,
    "through": 413,
    "tive</w>": 414,
    "vid": 415,
    "h</w>": 416,
    "la": 417,
    "system": 418,
    "tran": 419,
    "with</w>": 420,
    "il": 421,
    "is</w>": 422,
    "ne": 423,
    "ph": 424,
    "sh": 425,
    "through</w>": 426,
    "tic</w>": 427,
    "und": 428,
    "w</w>": 429,
    "pu": 430,
    "als</w>": 431,
    "ar</w>": 432,
    "ity</w>": 433,
    "inc": 434,
    "vel": 435,
    "ory</w>": 436,
    "able</w>": 437,
    "ces": 438,
    "elec": 439,
    "ies</w>": 440,
    "k</w>": 441,
    "les</w>": 442,
    "ment</w>": 443,
    "str": 444,
    "wh": 445,
    "ence</w>": 446,
    "ated</w>": 447,
    "ce</w>": 448,
    "ener": 449,
    "ents</w>": 450,
    "lu": 451,
    "like</w>": 452,
    "ons</w>": 453,
    "trans": 454,
    "vol": 455,
    "ain": 456,
    "ds</w>": 457,
    "equ": 458,
    "it": 459,
    "inter": 460,
    "ob": 461,
    "pre": 462,
    "tur": 463,
    "we": 464,
    "1</w>": 465,
    "cel": 466,
    "electr": 467,
    "gr": 468,
    "inf": 469,
    "ke": 470,
    "ks</w>": 471,
    "ting</w>": 472,
    "all": 473,
    "ary</w>": 474,
    "co": 475,
    "ha": 476,
    "n</w>": 477,
    "o</w>": 478,
    "po": 479,
    "produc": 480,
    "stor": 481,
    "tim": 482,
    "velop": 483,
    "2</w>": 484,
    "4</w>": 485,
    "5</w>": 486,
    "ci": 487,
    "olog": 488,
    "bu": 489,
    "can</w>": 490,
    "enti": 491,
    "ff": 492,
    "ili": 493,
    "its</w>": 494,
    "ine</w>": 495,
    "ls</w>": 496,
    "ow</w>": 497,
    "p</w>": 498,
    "ser": 499,
    "systems</w>": 500,
    "ta": 501,
    "ties</w>": 502,
    "3</w>": 503,
    "6</w>": 504,
    "========": 505,
    "9</w>": 506,
    "age</w>": 507,
    "ater</w>": 508,
    "be": 509,
    "bo": 510,
    "develop": 511,
    "expl": 512,
    "ght</w>": 513,
    "ial</w>": 514,
    "ir</w>": 515,
    "provid": 516,
    "ses</w>": 517,
    "ves</w>": 518,
    "0</w>": 519,
    "ics</w>": 520,
    "ter</w>": 521,
    "'s</w>": 522,
    "bet": 523,
    "chang": 524,
    "ement</w>": 525,
    "ental</w>": 526,
    "ere</w>": 527,
    "etwor": 528,
    "form</w>": 529,
    "mo": 530,
    "mod": 531,
    "networ": 532,
    "ning</w>": 533,
    "our": 534,
    "one</w>": 535,
    "par": 536,
    "sical</w>": 537,
    "te": 538,
    "unc": 539,
    "P</w>": 540,
    "ally</w>": 541,
    "betwe": 542,
    "between</w>": 543,
    "col": 544,
    "compu": 545,
    "de</w>": 546,
    "ding</w>": 547,
    "go": 548,
    "hum": 549,
    "hile</w>": 550,
    "man": 551,
    "mar": 552,
    "mor": 553,
    "proces": 554,
    "spec": 555,
    "ther</w>": 556,
    "their</w>": 557,
    "val": 558,
    "7</w>": 559,
    "8</w>": 560,
    "atur": 561,
    "ach": 562,
    "ade</w>": 563,
    "and": 564,
    "ch</w>": 565,
    "fi": 566,
    "fl": 567,
    "gan": 568,
    "ication</w>": 569,
    "ility</w>": 570,
    "ma": 571,
    "natur": 572,
    "phy": 573,
    "prop": 574,
    "rec": 575,
    "row": 576,
    "ted</w>": 577,
    "tional</w>": 578,
    "while</w>": 579,
    "yp": 580,
    "ology</w>": 581,
    "In": 582,
    "ability</w>": 583,
    "ages</w>": 584,
    "ance</w>": 585,
    "arg": 586,
    "be</w>": 587,
    "bi": 588,
    "ces</w>": 589,
    "cells</w>": 590,
    "comm": 591,
    "dat": 592,
    "dem": 593,
    "energ": 594,
    "energy</w>": 595,
    "esc": 596,
    "fac": 597,
    "func": 598,
    "ge": 599,
    "ices</w>": 600,
    "ine": 601,
    "ines</w>": 602,
    "into</w>": 603,
    "ni": 604,
    "ocial</w>": 605,
    "organ": 606,
    "ous</w>": 607,
    "out</w>": 608,
    "pr": 609,
    "pri": 610,
    "physical</w>": 611,
    "ree</w>": 612,
    "shi": 613,
    "ss</w>": 614,
    "sion</w>": 615,
    "states</w>": 616,
    "struc": 617,
    "tu": 618,
    "transform": 619,
    "us</w>": 620,
    "using</w>": 621,
    "water</w>": 622,
    "19": 623,
    "ach</w>": 624,
    "ari": 625,
    "ases</w>": 626,
    "atom": 627,
    "cul": 628,
    "cur": 629,
    "change</w>": 630,
    "cont": 631,
    "dg": 632,
    "dist": 633,
    "econ": 634,
    "enab": 635,
    "ens": 636,
    "explor": 637,
    "gener": 638,
    "human</w>": 639,
    "inte": 640,
    "inclu": 641,
    "kn": 642,
    "lear": 643,
    "mem": 644,
    "no": 645,
    "od</w>": 646,
    "pow": 647,
    "prob": 648,
    "tec": 649,
    "tes</w>": 650,
    "tain</w>": 651,
    "tern": 652,
    "thes": 653,
    "theory</w>": 654,
    "trade</w>": 655,
    "uses</w>": 656,
    "ving</w>": 657,
    "wa": 658,
    "where</w>": 659,
    "ys</w>": 660,
    "tics</w>": 661,
    "A</w>": 662,
    "anti": 663,
    "ating</w>": 664,
    "ble</w>": 665,
    "compl": 666,
    "dies</w>": 667,
    "direc": 668,
    "divid": 669,
    "dividu": 670,
    "etr": 671,
    "ev": 672,
    "ential</w>": 673,
    "equations</w>": 674,
    "how</w>": 675,
    "hy": 676,
    "havi": 677,
    "individu": 678,
    "inv": 679,
    "invol": 680,
    "know": 681,
    "l</w>": 682,
    "mental</w>": 683,
    "marke": 684,
    "model": 685,
    "networks</w>": 686,
    "other</w>": 687,
    "oft": 688,
    "ors</w>": 689,
    "pa": 690,
    "ryp": 691,
    "se</w>": 692,
    "sol": 693,
    "st</w>": 694,
    "time</w>": 695,
    "umb": 696,
    "ld</w>": 697,
    "them": 698,
    "Con": 699,
    "ace</w>": 700,
    "acro": 701,
    "act</w>": 702,
    "angu": 703,
    "ass": 704,
    "ce": 705,
    "cl": 706,
    "cre": 707,
    "chem": 708,
    "conn": 709,
    "connec": 710,
    "dom": 711,
    "development</w>": 712,
    "each</w>": 713,
    "est": 714,
    "et</w>": 715,
    "ements</w>": 716,
    "entr": 717,
    "ering</w>": 718,
    "ess</w>": 719,
    "exam": 720,
    "exper": 721,
    "fo": 722,
    "ffer": 723,
    "formation</w>": 724,
    "ghts</w>": 725,
    "gover": 726,
    "govern": 727,
    "grap": 728,
    "ig": 729,
    "it</w>": 730,
    "information</w>": 731,
    "ism</w>": 732,
    "ize</w>": 733,
    "ized</w>": 734,
    "langu": 735,
    "lo": 736,
    "law</w>": 737,
    "mat": 738,
    "min": 739,
    "ms</w>": 740,
    "numb": 741,
    "ode</w>": 742,
    "ods</w>": 743,
    "off": 744,
    "ometr": 745,
    "ppl": 746,
    "pres": 747,
    "provides</w>": 748,
    "rates</w>": 749,
    "red</w>": 750,
    "rela": 751,
    "reli": 752,
    "requ": 753,
    "sour": 754,
    "sum": 755,
    "serv": 756,
    "speci": 757,
    "sting</w>": 758,
    "sts</w>": 759,
    "sub": 760,
    "tical</w>": 761,
    "tures</w>": 762,
    "ures</w>": 763,
    "use</w>": 764,
    "ware</w>": 765,
    "x</w>": 766,
    "================": 767,
    "10</w>": 768,
    "los": 769,
    "Ch": 770,
    "Col": 771,
    "ad</w>": 772,
    "ational</w>": 773,
    "au": 774,
    "acces": 775,
    "actions</w>": 776,
    "across</w>": 777,
    "ains</w>": 778,
    "aly": 779,
    "all</w>": 780,
    "analy": 781,
    "ans</w>": 782,
    "ant</w>": 783,
    "app": 784,
    "ase</w>": 785,
    "behavi": 786,
    "behavior</w>": 787,
    "cal": 788,
    "cap": 789,
    "char": 790,
    "commun": 791,
    "condi": 792,
    "dec": 793,
    "data</w>": 794,
    "dge</w>": 795,
    "differ": 796,
    "eli": 797,
    "em</w>": 798,
    "eng": 799,
    "enabl": 800,
    "est</w>": 801,
    "escri": 802,
    "examines</w>": 803,
    "fund": 804,
    "gl": 805,
    "gra": 806,
    "gre": 807,
    "id</w>": 808,
    "ici": 809,
    "inear</w>": 810,
    "influ": 811,
    "ite</w>": 812,
    "ization</w>": 813,
    "king</w>": 814,
    "lab": 815,
    "late</w>": 816,
    "log": 817,
    "learning</w>": 818,
    "light</w>": 819,
    "met": 820,
    "meas": 821,
    "memory</w>": 822,
    "natural</w>": 823,
    "ot": 824,
    "ous": 825,
    "occur": 826,
    "ong</w>": 827,
    "opul": 828,
    "ori": 829,
    "popul": 830,
    "ple</w>": 831,
    "posi": 832,
    "pply</w>": 833,
    "processes</w>": 834,
    "propos": 835,
    "quanti": 836,
    "ran": 837,
    "reas": 838,
    "relation": 839,
    "relationshi": 840,
    "rop": 841,
    "ryption</w>": 842,
    "sam": 843,
    "social</w>": 844,
    "sequ": 845,
    "shap": 846,
    "sis</w>": 847,
    "stu": 848,
    "tal</w>": 849,
    "tation</w>": 850,
    "ten": 851,
    "than</w>": 852,
    "tivi": 853,
    "tra": 854,
    "up": 855,
    "ution</w>": 856,
    "ules</w>": 857,
    "ver</w>": 858,
    "vers</w>": 859,
    "valu": 860,
    "11</w>": 861,
    "12</w>": 862,
    "13</w>": 863,
    "14</w>": 864,
    "15</w>": 865,
    "16</w>": 866,
    "hy</w>": 867,
    "sych": 868,
    ":</w>": 869,
    "Al": 870,
    "De": 871,
    "Pro": 872,
    "Un": 873,
    "ative</w>": 874,
    "abli": 875,
    "ablish": 876,
    "ablished</w>": 877,
    "access</w>": 878,
    "achine</w>": 879,
    "alg": 880,
    "ality</w>": 881,
    "allow": 882,
    "amental</w>": 883,
    "another</w>": 884,
    "ant": 885,
    "arch": 886,
    "arch</w>": 887,
    "ard": 888,
    "ber": 889,
    "bes</w>": 890,
    "bon": 891,
    "but</w>": 892,
    "car": 893,
    "cent": 894,
    "code</w>": 895,
    "cor": 896,
    "centur": 897,
    "charac": 898,
    "chemical</w>": 899,
    "coun": 900,
    "computer</w>": 901,
    "descri": 902,
    "dur": 903,
    "dis": 904,
    "eff": 905,
    "evol": 906,
    "ects</w>": 907,
    "econom": 908,
    "ely</w>": 909,
    "ene": 910,
    "enabling</w>": 911,
    "ency</w>": 912,
    "ern</w>": 913,
    "established</w>": 914,
    "fic</w>": 915,
    "function</w>": 916,
    "functions</w>": 917,
    "gi": 918,
    "grow": 919,
    "geometr": 920,
    "growth</w>": 921,
    "have</w>": 922,
    "id": 923,
    "il</w>": 924,
    "inite</w>": 925,
    "inci": 926,
    "integr": 927,
    "involve</w>": 928,
    "ited</w>": 929,
    "jus": 930,
    "key</w>": 931,
    "knowle": 932,
    "knowledge</w>": 933,
    "linear</w>": 934,
    "language</w>": 935,
    "lif": 936,
    "litical</w>": 937,
    "mag": 938,
    "me</w>": 939,
    "ming</w>": 940,
    "markets</w>": 941,
    "measures</w>": 942,
    "more</w>": 943,
    "net</w>": 944,
    "neur": 945,
    "nitive</w>": 946,
    "not</w>": 947,
    "over</w>": 948,
    "obj": 949,
    "oftware</w>": 950,
    "ognitive</w>": 951,
    "orith": 952,
    "por": 953,
    "ps</w>": 954,
    "psych": 955,
    "partic": 956,
    "perform": 957,
    "ples</w>": 958,
    "power</w>": 959,
    "proper": 960,
    "provide</w>": 961,
    "rea": 962,
    "resp": 963,
    "reliable</w>": 964,
    "respon": 965,
    "roup</w>": 966,
    "routes</w>": 967,
    "sa": 968,
    "sec": 969,
    "sens": 970,
    "search</w>": 971,
    "space</w>": 972,
    "studies</w>": 973,
    "supply</w>": 974,
    "syn": 975,
    "system</w>": 976,
    "ters</w>": 977,
    "theor": 978,
    "they</w>": 979,
    "these</w>": 980,
    "tivity</w>": 981,
    "ture</w>": 982,
    "um</w>": 983,
    "und</w>": 984,
    "ve": 985,
    "ved</w>": 986,
    "with": 987,
    "Wor": 988,
    "ech": 989,
    "hilos": 990,
    "hilosop": 991,
    "thema": 992,
    "DN": 993,
    "Ear": 994,
    "Ne": 995,
    "Qu": 996,
    "War</w>": 997,
    "aro": 998,
    "ables</w>": 999,
    "about</w>": 1000,
    "ack</w>": 1001,
    "action</w>": 1002,
    "add": 1003,
    "ading</w>": 1004,
    "ads</w>": 1005,
    "algorith": 1006,
    "anning</w>": 1007,
    "ants</w>": 1008,
    "analysis</w>": 1009,
    "appl": 1010,
    "aries</w>": 1011,
    "argum": 1012,
    "around</w>": 1013,
    "asks</w>": 1014,
    "ass</w>": 1015,
    "ast</w>": 1016,
    "attern": 1017,
    "atomic</w>": 1018,
    "atterns</w>": 1019,
    "b</w>": 1020,
    "bas": 1021,
    "bound": 1022,
    "bonds</w>": 1023,
    "boundaries</w>": 1024,
    "buil": 1025,
    "can": 1026,
    "centr": 1027,
    "century</w>": 1028,
    "coll": 1029,
    "comp": 1030,
    "communication</w>": 1031,
    "complex": 1032,
    "const": 1033,
    "consum": 1034,
    "conver": 1035,
    "contro": 1036,
    "der": 1037,
    "dic": 1038,
    "doc": 1039,
    "dou": 1040,
    "du": 1041,
    "democ": 1042,
    "describes</w>": 1043,
    "developed</w>": 1044,
    "distri": 1045,
    "distribu": 1046,
    "domes": 1047,
    "ear": 1048,
    "ep</w>": 1049,
    "ect": 1050,
    "ecules</w>": 1051,
    "echan": 1052,
    "economic</w>": 1053,
    "effici": 1054,
    "electron</w>": 1055,
    "ena</w>": 1056,
    "end": 1057,
    "enom": 1058,
    "ens</w>": 1059,
    "envi": 1060,
    "enced</w>": 1061,
    "encryption</w>": 1062,
    "enomena</w>": 1063,
    "ented</w>": 1064,
    "envir": 1065,
    "environ": 1066,
    "erv": 1067,
    "esp": 1068,
    "esti": 1069,
    "evolution</w>": 1070,
    "exchange</w>": 1071,
    "experi": 1072,
    "fer": 1073,
    "fir": 1074,
    "fact": 1075,
    "found": 1076,
    "fundamental</w>": 1077,
    "gram</w>": 1078,
    "graph</w>": 1079,
    "he": 1080,
    "high": 1081,
    "ide": 1082,
    "ions</w>": 1083,
    "ities</w>": 1084,
    "ice</w>": 1085,
    "ich</w>": 1086,
    "inn": 1087,
    "inpu": 1088,
    "inu": 1089,
    "including</w>": 1090,
    "individual</w>": 1091,
    "individuals</w>": 1092,
    "integ": 1093,
    "interv": 1094,
    "ire</w>": 1095,
    "ked</w>": 1096,
    "less</w>": 1097,
    "lim": 1098,
    "machine</w>": 1099,
    "mechan": 1100,
    "ments</w>": 1101,
    "mol": 1102,
    "mon": 1103,
    "mul": 1104,
    "mathema": 1105,
    "mater": 1106,
    "metals</w>": 1107,
    "molecules</w>": 1108,
    "new</w>": 1109,
    "numbers</w>": 1110,
    "over": 1111,
    "observ": 1112,
    "oce": 1113,
    "oci": 1114,
    "oper": 1115,
    "ority</w>": 1116,
    "ose</w>": 1117,
    "out": 1118,
    "patterns</w>": 1119,
    "pol": 1120,
    "phenomena</w>": 1121,
    "prices</w>": 1122,
    "princi": 1123,
    "protec": 1124,
    "probability</w>": 1125,
    "probl": 1126,
    "process</w>": 1127,
    "producers</w>": 1128,
    "propag": 1129,
    "properties</w>": 1130,
    "proposed</w>": 1131,
    "psychology</w>": 1132,
    "rays</w>": 1133,
    "reduc": 1134,
    "repres": 1135,
    "relationships</w>": 1136,
    "responses</w>": 1137,
    "scal": 1138,
    "sci": 1139,
    "secon": 1140,
    "sed</w>": 1141,
    "sem": 1142,
    "sing</w>": 1143,
    "software</w>": 1144,
    "son</w>": 1145,
    "sur": 1146,
    "same</w>": 1147,
    "set</w>": 1148,
    "sions</w>": 1149,
    "sources</w>": 1150,
    "sph": 1151,
    "specific</w>": 1152,
    "stors</w>": 1153,
    "strand</w>": 1154,
    "structures</w>": 1155,
    "such</w>": 1156,
    "sym": 1157,
    "tasks</w>": 1158,
    "tech": 1159,
    "ther": 1160,
    "three</w>": 1161,
    "ths</w>": 1162,
    "tif": 1163,
    "tives</w>": 1164,
    "tice</w>": 1165,
    "tri": 1166,
    "transformations</w>": 1167,
    "ut": 1168,
    "uni": 1169,
    "used</w>": 1170,
    "vari": 1171,
    "very</w>": 1172,
    "was</w>": 1173,
    "when</w>": 1174,
    "which</w>": 1175,
    "wide</w>": 1176,
    "without</w>": 1177,
    "worl": 1178,
    "hilosophy</w>": 1179,
    "'</w>": 1180,
    "14": 1181,
    "18": 1182,
    "Ar": 1183,
    "Be": 1184,
    "Bri": 1185,
    "Britain</w>": 1186,
    "CP</w>": 1187,
    "Cal": 1188,
    "Cold</w>": 1189,
    "DP</w>": 1190,
    "Dec": 1191,
    "DNA</w>": 1192,
    "Eu": 1193,
    "Ex": 1194,
    "Earth</w>": 1195,
    "Europ": 1196,
    "Gre": 1197,
    "I</w>": 1198,
    "IP</w>": 1199,
    "Mod": 1200,
    "O</w>": 1201,
    "Oper": 1202,
    "Ra": 1203,
    "Revolution</w>": 1204,
    "Rom": 1205,
    "Roman</w>": 1206,
    "So": 1207,
    "Soc": 1208,
    "Social</w>": 1209,
    "St": 1210,
    "Sovi": 1211,
    "Socrates</w>": 1212,
    "Soviet</w>": 1213,
    "TCP</w>": 1214,
    "TP</w>": 1215,
    "Tran": 1216,
    "Uni": 1217,
    "United</w>": 1218,
    "Union</w>": 1219,
    "ain</w>": 1220,
    "ati": 1221,
    "atic": 1222,
    "av": 1223,
    "abases</w>": 1224,
    "activity</w>": 1225,
    "ached</w>": 1226,
    "addre": 1227,
    "agement</w>": 1228,
    "aining</w>": 1229,
    "ali": 1230,
    "alism</w>": 1231,
    "allows</w>": 1232,
    "ams</w>": 1233,
    "ances</w>": 1234,
    "aning</w>": 1235,
    "antu": 1236,
    "andar": 1237,
    "andard</w>": 1238,
    "antum</w>": 1239,
    "appro": 1240,
    "apping</w>": 1241,
    "appli": 1242,
    "aris": 1243,
    "arra": 1244,
    "arge</w>": 1245,
    "ash</w>": 1246,
    "assical</w>": 1247,
    "atically</w>": 1248,
    "auth": 1249,
    "authority</w>": 1250,
    "ban": 1251,
    "bar": 1252,
    "bl": 1253,
    "bol": 1254,
    "bor": 1255,
    "bodies</w>": 1256,
    "bolic</w>": 1257,
    "cer": 1258,
    "cle</w>": 1259,
    "clu": 1260,
    "cognitive</w>": 1261,
    "cannot</w>": 1262,
    "cep": 1263,
    "central</w>": 1264,
    "computing</w>": 1265,
    "conduc": 1266,
    "consi": 1267,
    "contain</w>": 1268,
    "condition": 1269,
    "conditions</w>": 1270,
    "connected</w>": 1271,
    "continu": 1272,
    "created</w>": 1273,
    "creating</w>": 1274,
    "culus</w>": 1275,
    "del": 1276,
    "din": 1277,
    "dr": 1278,
    "dri": 1279,
    "dwide</w>": 1280,
    "databases</w>": 1281,
    "def": 1282,
    "dep": 1283,
    "destruc": 1284,
    "deter": 1285,
    "demand</w>": 1286,
    "divi": 1287,
    "different</w>": 1288,
    "differential</w>": 1289,
    "direct": 1290,
    "direction</w>": 1291,
    "directly</w>": 1292,
    "distribution</w>": 1293,
    "docum": 1294,
    "domestic</w>": 1295,
    "double</w>": 1296,
    "dust": 1297,
    "during</w>": 1298,
    "dustri": 1299,
    "eed</w>": 1300,
    "eig": 1301,
    "every</w>": 1302,
    "ey</w>": 1303,
    "ect</w>": 1304,
    "el</w>": 1305,
    "electric</w>": 1306,
    "electron": 1307,
    "electrons</w>": 1308,
    "emo": 1309,
    "emph": 1310,
    "ems</w>": 1311,
    "emphas": 1312,
    "ention</w>": 1313,
    "enables</w>": 1314,
    "engine": 1315,
    "engineering</w>": 1316,
    "environment</w>": 1317,
    "equals</w>": 1318,
    "erarch": 1319,
    "ese</w>": 1320,
    "eting</w>": 1321,
    "event</w>": 1322,
    "exp": 1323,
    "expres": 1324,
    "experience</w>": 1325,
    "explains</w>": 1326,
    "f</w>": 1327,
    "foc": 1328,
    "five</w>": 1329,
    "first</w>": 1330,
    "flow": 1331,
    "food</w>": 1332,
    "forc": 1333,
    "gence</w>": 1334,
    "group</w>": 1335,
    "generate</w>": 1336,
    "glob": 1337,
    "goods</w>": 1338,
    "government</w>": 1339,
    "greater</w>": 1340,
    "hand": 1341,
    "has</w>": 1342,
    "heli": 1343,
    "ho": 1344,
    "hierarch": 1345,
    "ight</w>": 1346,
    "ights</w>": 1347,
    "ily</w>": 1348,
    "ications</w>": 1349,
    "icity</w>": 1350,
    "icon": 1351,
    "icy</w>": 1352,
    "identi": 1353,
    "ilit": 1354,
    "imm": 1355,
    "immun": 1356,
    "ind</w>": 1357,
    "ined</w>": 1358,
    "int": 1359,
    "include</w>": 1360,
    "infinite</w>": 1361,
    "influence</w>": 1362,
    "influenced</w>": 1363,
    "intern": 1364,
    "intervention</w>": 1365,
    "isms</w>": 1366,
    "isol": 1367,
    "ju": 1368,
    "justice</w>": 1369,
    "kes</w>": 1370,
    "lor": 1371,
    "lasting</w>": 1372,
    "leading</w>": 1373,
    "liz": 1374,
    "life</w>": 1375,
    "love</w>": 1376,
    "logic</w>": 1377,
    "mal</w>": 1378,
    "mer": 1379,
    "mi": 1380,
    "mil": 1381,
    "my": 1382,
    "magne": 1383,
    "magnetic</w>": 1384,
    "management</w>": 1385,
    "many</w>": 1386,
    "market</w>": 1387,
    "meaning</w>": 1388,
    "medi": 1389,
    "meth": 1390,
    "methods</w>": 1391,
    "mind</w>": 1392,
    "motion</w>": 1393,
    "mov": 1394,
    "modern</w>": 1395,
    "model</w>": 1396,
    "models</w>": 1397,
    "moral</w>": 1398,
    "multi": 1399,
    "multiple</w>": 1400,
    "nod": 1401,
    "ns</w>": 1402,
    "nuc": 1403,
    "nature</w>": 1404,
    "network</w>": 1405,
    "nodes</w>": 1406,
    "nucle": 1407,
    "number</w>": 1408,
    "oy": 1409,
    "objects</w>": 1410,
    "occurs</w>": 1411,
    "often</w>": 1412,
    "ols</w>": 1413,
    "ological</w>": 1414,
    "oning</w>": 1415,
    "only</w>": 1416,
    "oration</w>": 1417,
    "oring</w>": 1418,
    "organiz": 1419,
    "our</w>": 1420,
    "outpu": 1421,
    "pli": 1422,
    "particles</w>": 1423,
    "peri": 1424,
    "perspec": 1425,
    "performance</w>": 1426,
    "plates</w>": 1427,
    "political</w>": 1428,
    "policy</w>": 1429,
    "population</w>": 1430,
    "powers</w>": 1431,
    "prime</w>": 1432,
    "principles</w>": 1433,
    "program</w>": 1434,
    "produce</w>": 1435,
    "producing</w>": 1436,
    "product</w>": 1437,
    "quantities</w>": 1438,
    "rang": 1439,
    "radi": 1440,
    "rain</w>": 1441,
    "ratic</w>": 1442,
    "reached</w>": 1443,
    "rel": 1444,
    "research</w>": 1445,
    "reve": 1446,
    "reasoning</w>": 1447,
    "riers</w>": 1448,
    "right</w>": 1449,
    "rist": 1450,
    "roughly</w>": 1451,
    "sel": 1452,
    "so</w>": 1453,
    "sors</w>": 1454,
    "sti": 1455,
    "stics</w>": 1456,
    "stim": 1457,
    "science</w>": 1458,
    "secur": 1459,
    "second</w>": 1460,
    "serve</w>": 1461,
    "share</w>": 1462,
    "show": 1463,
    "shape</w>": 1464,
    "sible</w>": 1465,
    "sistors</w>": 1466,
    "siz": 1467,
    "solving</w>": 1468,
    "source</w>": 1469,
    "spanning</w>": 1470,
    "sphere</w>": 1471,
    "standard</w>": 1472,
    "ster</w>": 1473,
    "stimul": 1474,
    "storage</w>": 1475,
    "stores</w>": 1476,
    "surfac": 1477,
    "synthes": 1478,
    "tari": 1479,
    "tem": 1480,
    "tw": 1481,
    "typ": 1482,
    "testing</w>": 1483,
    "techn": 1484,
    "ternal</w>": 1485,
    "thics</w>": 1486,
    "thology</w>": 1487,
    "theorem</w>": 1488,
    "tiz": 1489,
    "timization</w>": 1490,
    "total</w>": 1491,
    "traits</w>": 1492,
    "transm": 1493,
    "transformed</w>": 1494,
    "tural</w>": 1495,
    "two</w>": 1496,
    "uld</w>": 1497,
    "ust</w>": 1498,
    "vap": 1499,
    "ven</w>": 1500,
    "vel</w>": 1501,
    "verse</w>": 1502,
    "waves</w>": 1503,
    "whe": 1504,
    "world</w>": 1505,
    "worldwide</w>": 1506,
    "xim": 1507,
    "ycle</w>": 1508,
    "ying</w>": 1509,
    "================================": 1510,
    "Com": 1511,
    "World</w>": 1512,
    "ences</w>": 1513,
    "(</w>": 1514,
    ")</w>": 1515,
    "/</w>": 1516,
    "0s</w>": 1517,
    "15": 1518,
    "17": 1519,
    "18th</w>": 1520,
    "194": 1521,
    "198": 1522,
    "199": 1523,
    "1991</w>": 1524,
    "AI</w>": 1525,
    "Amer": 1526,
    "Arist": 1527,
    "Americ": 1528,
    "Americas</w>": 1529,
    "Aristot": 1530,
    "Aristotle</w>": 1531,
    "BC": 1532,
    "BCE": 1533,
    "BCE</w>": 1534,
    "Behavi": 1535,
    "Behavior": 1536,
    "Behavioral</w>": 1537,
    "Cognitive</w>": 1538,
    "Calculus</w>": 1539,
    "Colum": 1540,
    "Dat": 1541,
    "Desc": 1542,
    "Di": 1543,
    "Develop": 1544,
    "Descar": 1545,
    "Descartes</w>": 1546,
    "Each</w>": 1547,
    "El": 1548,
    "Eri": 1549,
    "Euc": 1550,
    "Eucli": 1551,
    "Euclide": 1552,
    "Euclidean</w>": 1553,
    "Europe</w>": 1554,
    "For": 1555,
    "Free</w>": 1556,
    "GDP</w>": 1557,
    "Ge": 1558,
    "Group</w>": 1559,
    "Gree": 1560,
    "Greek</w>": 1561,
    "Hash</w>": 1562,
    "He": 1563,
    "Hum": 1564,
    "Industri": 1565,
    "Inter": 1566,
    "Industrial</w>": 1567,
    "Internet</w>": 1568,
    "Jap": 1569,
    "Kant</w>": 1570,
    "L</w>": 1571,
    "Le": 1572,
    "Loc": 1573,
    "Locke</w>": 1574,
    "Modern</w>": 1575,
    "Neur": 1576,
    "Or": 1577,
    "Po": 1578,
    "Pri": 1579,
    "QL</w>": 1580,
    "Quantum</w>": 1581,
    "Ro": 1582,
    "Road</w>": 1583,
    "S</w>": 1584,
    "SQL</w>": 1585,
    "Sha": 1586,
    "Sil": 1587,
    "Su": 1588,
    "Sy": 1589,
    "Shak": 1590,
    "Shakesp": 1591,
    "Shakespe": 1592,
    "Shakespeare</w>": 1593,
    "Silk</w>": 1594,
    "States</w>": 1595,
    "T</w>": 1596,
    "Trans": 1597,
    "Vir": 1598,
    "Virtu": 1599,
    "Wat": 1600,
    "Wh": 1601,
    "When</w>": 1602,
    "X</w>": 1603,
    "af": 1604,
    "ail": 1605,
    "aster</w>": 1606,
    "atic</w>": 1607,
    "avi": 1608,
    "ably</w>": 1609,
    "acc": 1610,
    "accel": 1611,
    "achi": 1612,
    "active</w>": 1613,
    "acy</w>": 1614,
    "accum": 1615,
    "acceler": 1616,
    "accumul": 1617,
    "accumulation</w>": 1618,
    "achiev": 1619,
    "achievements</w>": 1620,
    "adap": 1621,
    "ader</w>": 1622,
    "adratic</w>": 1623,
    "adv": 1624,
    "address</w>": 1625,
    "advant": 1626,
    "aging</w>": 1627,
    "agre": 1628,
    "ailable</w>": 1629,
    "ained</w>": 1630,
    "ainting</w>": 1631,
    "ainty</w>": 1632,
    "aling</w>": 1633,
    "alized</w>": 1634,
    "along</w>": 1635,
    "also</w>": 1636,
    "alwa": 1637,
    "algorithm</w>": 1638,
    "algorithms</w>": 1639,
    "allow</w>": 1640,
    "always</w>": 1641,
    "amatically</w>": 1642,
    "ames</w>": 1643,
    "amet": 1644,
    "amics</w>": 1645,
    "among</w>": 1646,
    "anc": 1647,
    "ane": 1648,
    "anim": 1649,
    "anity</w>": 1650,
    "antic</w>": 1651,
    "any</w>": 1652,
    "analyz": 1653,
    "ancy</w>": 1654,
    "anded</w>": 1655,
    "angles</w>": 1656,
    "appar": 1657,
    "application</w>": 1658,
    "applications</w>": 1659,
    "applies</w>": 1660,
    "approxim": 1661,
    "ared</w>": 1662,
    "arming</w>": 1663,
    "arr": 1664,
    "ary": 1665,
    "ardless</w>": 1666,
    "ardware</w>": 1667,
    "argu": 1668,
    "arguments</w>": 1669,
    "arith": 1670,
    "arithme": 1671,
    "arithmetic</w>": 1672,
    "arration</w>": 1673,
    "aryo": 1674,
    "aryotic</w>": 1675,
    "asing</w>": 1676,
    "asser": 1677,
    "asses</w>": 1678,
    "associ": 1679,
    "atistics</w>": 1680,
    "atoms</w>": 1681,
    "available</w>": 1682,
    "avig": 1683,
    "back</w>": 1684,
    "bec": 1685,
    "bod": 1686,
    "bon</w>": 1687,
    "br": 1688,
    "brain</w>": 1689,
    "bran": 1690,
    "brea": 1691,
    "bro": 1692,
    "brow": 1693,
    "bs</w>": 1694,
    "banks</w>": 1695,
    "barriers</w>": 1696,
    "based</w>": 1697,
    "basis</w>": 1698,
    "beg": 1699,
    "being</w>": 1700,
    "berg</w>": 1701,
    "bias</w>": 1702,
    "biological</w>": 1703,
    "both</w>": 1704,
    "bots</w>": 1705,
    "body</w>": 1706,
    "borrow": 1707,
    "bra</w>": 1708,
    "brane</w>": 1709,
    "broader</w>": 1710,
    "building</w>": 1711,
    "ca": 1712,
    "cir": 1713,
    "cos": 1714,
    "cu": 1715,
    "cycle</w>": 1716,
    "capture</w>": 1717,
    "carbon</w>": 1718,
    "cee": 1719,
    "ceeds</w>": 1720,
    "celesti": 1721,
    "cell</w>": 1722,
    "celestial</w>": 1723,
    "certain</w>": 1724,
    "chlor": 1725,
    "changes</w>": 1726,
    "changing</w>": 1727,
    "character</w>": 1728,
    "characters</w>": 1729,
    "chemas</w>": 1730,
    "cient</w>": 1731,
    "civi": 1732,
    "circu": 1733,
    "circuits</w>": 1734,
    "civiliz": 1735,
    "civilizations</w>": 1736,
    "classical</w>": 1737,
    "clou": 1738,
    "clusions</w>": 1739,
    "cour": 1740,
    "collec": 1741,
    "comb": 1742,
    "commer": 1743,
    "commerce</w>": 1744,
    "communities</w>": 1745,
    "complex</w>": 1746,
    "complexity</w>": 1747,
    "concep": 1748,
    "conclusions</w>": 1749,
    "conditioning</w>": 1750,
    "constant</w>": 1751,
    "consumers</w>": 1752,
    "continuous</w>": 1753,
    "control</w>": 1754,
    "corpor": 1755,
    "count": 1756,
    "countr": 1757,
    "countably</w>": 1758,
    "cultural</w>": 1759,
    "cultures</w>": 1760,
    "dd": 1761,
    "des": 1762,
    "des</w>": 1763,
    "dex": 1764,
    "dy</w>": 1765,
    "deals</w>": 1766,
    "deb": 1767,
    "depl": 1768,
    "dev": 1769,
    "deci": 1770,
    "decryption</w>": 1771,
    "demon": 1772,
    "democr": 1773,
    "democracy</w>": 1774,
    "demonstr": 1775,
    "demonstrated</w>": 1776,
    "depend": 1777,
    "dered</w>": 1778,
    "deri": 1779,
    "deriv": 1780,
    "derivative</w>": 1781,
    "destruction</w>": 1782,
    "determ": 1783,
    "dex</w>": 1784,
    "dges</w>": 1785,
    "dily</w>": 1786,
    "dise": 1787,
    "ditional</w>": 1788,
    "div": 1789,
    "dinary</w>": 1790,
    "disco": 1791,
    "diseases</w>": 1792,
    "distances</w>": 1793,
    "distinc": 1794,
    "distinct</w>": 1795,
    "divine</w>": 1796,
    "division</w>": 1797,
    "dramatically</w>": 1798,
    "duct": 1799,
    "ductive</w>": 1800,
    "ductor</w>": 1801,
    "ean</w>": 1802,
    "edi": 1803,
    "educ": 1804,
    "ef": 1805,
    "ethics</w>": 1806,
    "evalu": 1807,
    "evid": 1808,
    "ew</w>": 1809,
    "ears</w>": 1810,
    "ectors</w>": 1811,
    "efficient</w>": 1812,
    "eled</w>": 1813,
    "elements</w>": 1814,
    "elic": 1815,
    "ell</w>": 1816,
    "elli": 1817,
    "election</w>": 1818,
    "electrical</w>": 1819,
    "electricity</w>": 1820,
    "electronics</w>": 1821,
    "elligence</w>": 1822,
    "emb": 1823,
    "ement": 1824,
    "emer": 1825,
    "emp": 1826,
    "emotion</w>": 1827,
    "enable</w>": 1828,
    "ensi": 1829,
    "encour": 1830,
    "enetic</w>": 1831,
    "enew": 1832,
    "enewable</w>": 1833,
    "engths</w>": 1834,
    "ently</w>": 1835,
    "entrop": 1836,
    "entropy</w>": 1837,
    "equality</w>": 1838,
    "equation</w>": 1839,
    "ern": 1840,
    "ero</w>": 1841,
    "ert": 1842,
    "ertainty</w>": 1843,
    "ervous</w>": 1844,
    "estions</w>": 1845,
    "estment</w>": 1846,
    "estig": 1847,
    "estigates</w>": 1848,
    "ett": 1849,
    "evidence</w>": 1850,
    "exceeds</w>": 1851,
    "exi": 1852,
    "exical</w>": 1853,
    "ext</w>": 1854,
    "exten": 1855,
    "external</w>": 1856,
    "experim": 1857,
    "exploration</w>": 1858,
    "explores</w>": 1859,
    "exploring</w>": 1860,
    "expressed</w>": 1861,
    "farming</w>": 1862,
    "faster</w>": 1863,
    "fication</w>": 1864,
    "fies</w>": 1865,
    "fin": 1866,
    "fol": 1867,
    "four</w>": 1868,
    "fr": 1869,
    "fre": 1870,
    "frequ": 1871,
    "facilit": 1872,
    "fig": 1873,
    "figur": 1874,
    "flexi": 1875,
    "flows</w>": 1876,
    "focuses</w>": 1877,
    "force</w>": 1878,
    "forces</w>": 1879,
    "fore</w>": 1880,
    "forcement</w>": 1881,
    "formal</w>": 1882,
    "forms</w>": 1883,
    "frequency</w>": 1884,
    "gardless</w>": 1885,
    "gent</w>": 1886,
    "gn": 1887,
    "gro": 1888,
    "gu": 1889,
    "gebra</w>": 1890,
    "generations</w>": 1891,
    "geometric</w>": 1892,
    "geometry</w>": 1893,
    "global</w>": 1894,
    "gnals</w>": 1895,
    "good</w>": 1896,
    "governance</w>": 1897,
    "graphy</w>": 1898,
    "hardware</w>": 1899,
    "her": 1900,
    "hol": 1901,
    "hor": 1902,
    "handles</w>": 1903,
    "helix</w>": 1904,
    "his": 1905,
    "hierarchical</w>": 1906,
    "high</w>": 1907,
    "holds</w>": 1908,
    "horiz": 1909,
    "horizon": 1910,
    "humans</w>": 1911,
    "hyper": 1912,
    "hys": 1913,
    "ials</w>": 1914,
    "ide</w>": 1915,
    "ip": 1916,
    "ire": 1917,
    "istem": 1918,
    "ically</w>": 1919,
    "icial</w>": 1920,
    "ict</w>": 1921,
    "iconductor</w>": 1922,
    "ideas</w>": 1923,
    "impl": 1924,
    "impro": 1925,
    "immunity</w>": 1926,
    "improve</w>": 1927,
    "inforcement</w>": 1928,
    "ing": 1929,
    "ink</w>": 1930,
    "inked</w>": 1931,
    "inning</w>": 1932,
    "inser": 1933,
    "inst": 1934,
    "incre": 1935,
    "increas": 1936,
    "increases</w>": 1937,
    "increasing</w>": 1938,
    "infancy</w>": 1939,
    "infec": 1940,
    "infr": 1941,
    "infrared</w>": 1942,
    "innate</w>": 1943,
    "inner</w>": 1944,
    "input</w>": 1945,
    "inputs</w>": 1946,
    "insertions</w>": 1947,
    "intelligence</w>": 1948,
    "integers</w>": 1949,
    "integral</w>": 1950,
    "interest</w>": 1951,
    "internal</w>": 1952,
    "invented</w>": 1953,
    "investigates</w>": 1954,
    "investment</w>": 1955,
    "irable</w>": 1956,
    "ird</w>": 1957,
    "irs</w>": 1958,
    "irements</w>": 1959,
    "ish": 1960,
    "issu": 1961,
    "ist</w>": 1962,
    "isolation</w>": 1963,
    "istemology</w>": 1964,
    "izing</w>": 1965,
    "karyotic</w>": 1966,
    "kens</w>": 1967,
    "ku": 1968,
    "ket</w>": 1969,
    "known</w>": 1970,
    "large</w>": 1971,
    "lat": 1972,
    "led</w>": 1973,
    "loc": 1974,
    "low</w>": 1975,
    "lay": 1976,
    "labeled</w>": 1977,
    "labor</w>": 1978,
    "languages</w>": 1979,
    "layers</w>": 1980,
    "leasing</w>": 1981,
    "learn</w>": 1982,
    "lik": 1983,
    "lit</w>": 1984,
    "living</w>": 1985,
    "limits</w>": 1986,
    "ma</w>": 1987,
    "made</w>": 1988,
    "main": 1989,
    "mapping</w>": 1990,
    "mary</w>": 1991,
    "mom": 1992,
    "mp": 1993,
    "make</w>": 1994,
    "marily</w>": 1995,
    "matter</w>": 1996,
    "material</w>": 1997,
    "materials</w>": 1998,
    "mathematical</w>": 1999,
    "mathematics</w>": 2000,
    "metr": 2001,
    "mechanics</w>": 2002,
    "membrane</w>": 2003,
    "metric</w>": 2004,
    "mito": 2005,
    "modeling</w>": 2006,
    "money</w>": 2007,
    "mortal</w>": 2008,
    "movement</w>": 2009,
    "mythology</w>": 2010,
    "narration</w>": 2011,
    "navig": 2012,
    "nervous</w>": 2013,
    "ness</w>": 2014,
    "no</w>": 2015,
    "nor": 2016,
    "naturally</w>": 2017,
    "nets</w>": 2018,
    "neu": 2019,
    "neural</w>": 2020,
    "neurons</w>": 2021,
    "notation</w>": 2022,
    "novel</w>": 2023,
    "oes</w>": 2024,
    "opl": 2025,
    "osphere</w>": 2026,
    "ould</w>": 2027,
    "ox": 2028,
    "observable</w>": 2029,
    "observed</w>": 2030,
    "occur</w>": 2031,
    "oceans</w>": 2032,
    "ocie": 2033,
    "offer</w>": 2034,
    "offering</w>": 2035,
    "offers</w>": 2036,
    "ologies</w>": 2037,
    "ome</w>": 2038,
    "ometry</w>": 2039,
    "ond</w>": 2040,
    "ones</w>": 2041,
    "onnets</w>": 2042,
    "onom": 2043,
    "opposi": 2044,
    "optimization</w>": 2045,
    "operations</w>": 2046,
    "opposit": 2047,
    "ories</w>": 2048,
    "organisms</w>": 2049,
    "organize</w>": 2050,
    "organizes</w>": 2051,
    "oughts</w>": 2052,
    "ously</w>": 2053,
    "output</w>": 2054,
    "painting</w>": 2055,
    "pass": 2056,
    "passes</w>": 2057,
    "pe": 2058,
    "philosophy</w>": 2059,
    "pistemology</w>": 2060,
    "pos": 2061,
    "ppli": 2062,
    "pairs</w>": 2063,
    "parsing</w>": 2064,
    "person</w>": 2065,
    "pervi": 2066,
    "performing</w>": 2067,
    "period</w>": 2068,
    "perspective</w>": 2069,
    "pervised</w>": 2070,
    "plants</w>": 2071,
    "plication</w>": 2072,
    "plus</w>": 2073,
    "pot": 2074,
    "position</w>": 2075,
    "positive</w>": 2076,
    "preci": 2077,
    "predic": 2078,
    "primarily</w>": 2079,
    "progr": 2080,
    "problem</w>": 2081,
    "problems</w>": 2082,
    "processors</w>": 2083,
    "production</w>": 2084,
    "propagation</w>": 2085,
    "proposing</w>": 2086,
    "protects</w>": 2087,
    "questions</w>": 2088,
    "quantity</w>": 2089,
    "rap": 2090,
    "rhy": 2091,
    "ring</w>": 2092,
    "rules</w>": 2093,
    "run": 2094,
    "ry</w>": 2095,
    "rather</w>": 2096,
    "raw</w>": 2097,
    "radio</w>": 2098,
    "ranges</w>": 2099,
    "reactive</w>": 2100,
    "refl": 2101,
    "regardless</w>": 2102,
    "relate</w>": 2103,
    "releasing</w>": 2104,
    "replication</w>": 2105,
    "res": 2106,
    "resources</w>": 2107,
    "revol": 2108,
    "ream</w>": 2109,
    "reduce</w>": 2110,
    "relationship</w>": 2111,
    "represent": 2112,
    "represent</w>": 2113,
    "require</w>": 2114,
    "requirements</w>": 2115,
    "resul": 2116,
    "revealing</w>": 2117,
    "rights</w>": 2118,
    "rivers</w>": 2119,
    "roads</w>": 2120,
    "robots</w>": 2121,
    "romagnetic</w>": 2122,
    "roman": 2123,
    "roy": 2124,
    "rypto": 2125,
    "ryptography</w>": 2126,
    "schemas</w>": 2127,
    "selection</w>": 2128,
    "sett": 2129,
    "socie": 2130,
    "sor": 2131,
    "sw": 2132,
    "saw</w>": 2133,
    "sets</w>": 2134,
    "seven</w>": 2135,
    "semantic</w>": 2136,
    "sensory</w>": 2137,
    "sequent</w>": 2138,
    "services</w>": 2139,
    "shar": 2140,
    "shapes</w>": 2141,
    "ship</w>": 2142,
    "showed</w>": 2143,
    "signals</w>": 2144,
    "sil": 2145,
    "sizes</w>": 2146,
    "solar</w>": 2147,
    "solved</w>": 2148,
    "speed</w>": 2149,
    "spor": 2150,
    "special": 2151,
    "stages</w>": 2152,
    "statistics</w>": 2153,
    "step</w>": 2154,
    "stitu": 2155,
    "stimulus</w>": 2156,
    "stories</w>": 2157,
    "sug": 2158,
    "suppli": 2159,
    "subsequent</w>": 2160,
    "surfaces</w>": 2161,
    "syl": 2162,
    "symbolic</w>": 2163,
    "synthesized</w>": 2164,
    "systematic</w>": 2165,
    "tables</w>": 2166,
    "tary</w>": 2167,
    "text</w>": 2168,
    "ton</w>": 2169,
    "tree</w>": 2170,
    "tational</w>": 2171,
    "technologies</w>": 2172,
    "then": 2173,
    "then</w>": 2174,
    "this</w>": 2175,
    "those</w>": 2176,
    "thoughts</w>": 2177,
    "theories</w>": 2178,
    "throughout</w>": 2179,
    "tices</w>": 2180,
    "tificial</w>": 2181,
    "tocol": 2182,
    "tools</w>": 2183,
    "tract</w>": 2184,
    "trains</w>": 2185,
    "transistors</w>": 2186,
    "transpor": 2187,
    "transfer": 2188,
    "translate</w>": 2189,
    "transforming</w>": 2190,
    "typically</w>": 2191,
    "ular</w>": 2192,
    "untary</w>": 2193,
    "uncertainty</w>": 2194,
    "under</w>": 2195,
    "upd": 2196,
    "upon</w>": 2197,
    "vast</w>": 2198,
    "valid</w>": 2199,
    "value</w>": 2200,
    "values</w>": 2201,
    "vapor</w>": 2202,
    "variable</w>": 2203,
    "variables</w>": 2204,
    "vergent</w>": 2205,
    "vertices</w>": 2206,
    "via</w>": 2207,
    "war": 2208,
    "we</w>": 2209,
    "would</w>": 2210,
    "ws</w>": 2211,
    "wave</w>": 2212,
    "weights</w>": 2213,
    "whether</w>": 2214,
    "work": 2215,
    "years</w>": 2216,
    "zero</w>": 2217,
    "18</w>": 2218,
    "39</w>": 2219,
    "40</w>": 2220,
    "69</w>": 2221,
    "--": 2222,
    "---</w>": 2223,
    "Sci": 2224,
    "====</w>": 2225,
    "============</w>": 2226,
    "============================</w>": 2227,
    "============================================================</w>": 2228,
    "Compu": 2229,
    "Computer</w>": 2230,
    "Li": 2231,
    "Philosophy</w>": 2232,
    "story</w>": 2233,
    "00": 2234,
    "000</w>": 2235,
    "16": 2236,
    "1440</w>": 2237,
    "149": 2238,
    "14th</w>": 2239,
    "1492</w>": 2240,
    "154</w>": 2241,
    "15th</w>": 2242,
    "16th</w>": 2243,
    "178": 2244,
    "17th</w>": 2245,
    "1789</w>": 2246,
    "180</w>": 2247,
    "1939</w>": 2248,
    "1969</w>": 2249,
    "197": 2250,
    "1945</w>": 2251,
    "1947</w>": 2252,
    "1970s</w>": 2253,
    "1980s</w>": 2254,
    "1989</w>": 2255,
    "5th</w>": 2256,
    "AC": 2257,
    "AD": 2258,
    "AE": 2259,
    "AM": 2260,
    "AN": 2261,
    "AR": 2262,
    "ATP</w>": 2263,
    "Ad": 2264,
    "Afr": 2265,
    "Ag": 2266,
    "Agr": 2267,
    "Ain": 2268,
    "An": 2269,
    "An</w>": 2270,
    "Appl": 2271,
    "As": 2272,
    "Asi": 2273,
    "Asym": 2274,
    "At": 2275,
    "At</w>": 2276,
    "Athen": 2277,
    "Au": 2278,
    "Aut": 2279,
    "Ax": 2280,
    "ACI": 2281,
    "ACID": 2282,
    "ACID</w>": 2283,
    "ADP": 2284,
    "ADPH": 2285,
    "ADPH</w>": 2286,
    "AES</w>": 2287,
    "AM</w>": 2288,
    "ANE": 2289,
    "ANET</w>": 2290,
    "ARP": 2291,
    "ARPANET</w>": 2292,
    "Adap": 2293,
    "Adaptive</w>": 2294,
    "Afric": 2295,
    "Africa</w>": 2296,
    "Age</w>": 2297,
    "Agric": 2298,
    "Agricul": 2299,
    "Agricultural</w>": 2300,
    "Ains": 2301,
    "Ainswor": 2302,
    "Ainsworth</w>": 2303,
    "Alg": 2304,
    "Algebra</w>": 2305,
    "All</w>": 2306,
    "Alli": 2307,
    "Altern": 2308,
    "Algorith": 2309,
    "Algorithm</w>": 2310,
    "Allied</w>": 2311,
    "Alternative</w>": 2312,
    "Ancient</w>": 2313,
    "Applications</w>": 2314,
    "Arrays</w>": 2315,
    "Arti": 2316,
    "Artificial</w>": 2317,
    "Artists</w>": 2318,
    "Asch</w>": 2319,
    "Asia</w>": 2320,
    "Asymmetric</w>": 2321,
    "Att": 2322,
    "Atheni": 2323,
    "Athenian</w>": 2324,
    "Attach": 2325,
    "Attachment</w>": 2326,
    "Aust": 2327,
    "Austen</w>": 2328,
    "Autonom": 2329,
    "Autonomous</w>": 2330,
    "Axis</w>": 2331,
    "B</w>": 2332,
    "Ba": 2333,
    "Bac": 2334,
    "Bas": 2335,
    "Bat": 2336,
    "Bern": 2337,
    "Bi": 2338,
    "Bo": 2339,
    "Bond</w>": 2340,
    "Bow": 2341,
    "Bu": 2342,
    "Bay": 2343,
    "Back": 2344,
    "Backpropagation</w>": 2345,
    "Basti": 2346,
    "Bastil": 2347,
    "Bastille</w>": 2348,
    "Batter": 2349,
    "Battery</w>": 2350,
    "Bayes</w>": 2351,
    "Bey": 2352,
    "Berners</w>": 2353,
    "Beyond</w>": 2354,
    "Big</w>": 2355,
    "Both</w>": 2356,
    "Bowl": 2357,
    "Bowlby</w>": 2358,
    "Budd": 2359,
    "Buddhis": 2360,
    "Buddhism</w>": 2361,
    "Cant": 2362,
    "Cap": 2363,
    "Cell</w>": 2364,
    "Centr": 2365,
    "Cerv": 2366,
    "Ci": 2367,
    "Cl": 2368,
    "Co": 2369,
    "Coper": 2370,
    "Cre": 2371,
    "Cryptography</w>": 2372,
    "Calv": 2373,
    "Calvin</w>": 2374,
    "Cantor</w>": 2375,
    "Cape</w>": 2376,
    "Central</w>": 2377,
    "Cervan": 2378,
    "Cervantes</w>": 2379,
    "Char": 2380,
    "Chem": 2381,
    "Chin": 2382,
    "Cho": 2383,
    "Chri": 2384,
    "Christ": 2385,
    "Charles</w>": 2386,
    "Chemical</w>": 2387,
    "China</w>": 2388,
    "Choos": 2389,
    "Choosing</w>": 2390,
    "Christi": 2391,
    "Christop": 2392,
    "Christianity</w>": 2393,
    "Christoph": 2394,
    "Christopher</w>": 2395,
    "Citiz": 2396,
    "Citizen</w>": 2397,
    "Classical</w>": 2398,
    "Coval": 2399,
    "Colos": 2400,
    "Colosse": 2401,
    "Colosseum</w>": 2402,
    "Columbi": 2403,
    "Columbu": 2404,
    "Columbian</w>": 2405,
    "Columbus</w>": 2406,
    "Comp": 2407,
    "Compil": 2408,
    "Compilers</w>": 2409,
    "Cond": 2410,
    "Conditional</w>": 2411,
    "Conform": 2412,
    "Consequ": 2413,
    "Cont": 2414,
    "Contem": 2415,
    "Convergent</w>": 2416,
    "Condens": 2417,
    "Condensation</w>": 2418,
    "Conformity</w>": 2419,
    "Consequenti": 2420,
    "Consequential": 2421,
    "Consequentialist</w>": 2422,
    "Continu": 2423,
    "Contempor": 2424,
    "Contemporary</w>": 2425,
    "Continuous</w>": 2426,
    "Copern": 2427,
    "Copernic": 2428,
    "Copernicus</w>": 2429,
    "Covalent</w>": 2430,
    "Creation</w>": 2431,
    "Dan": 2432,
    "Dar": 2433,
    "Descri": 2434,
    "Dic": 2435,
    "Don</w>": 2436,
    "Dream</w>": 2437,
    "Du": 2438,
    "DNS</w>": 2439,
    "Danis": 2440,
    "Danish</w>": 2441,
    "Darw": 2442,
    "Darwin</w>": 2443,
    "Data</w>": 2444,
    "Datab": 2445,
    "Database</w>": 2446,
    "Deductive</w>": 2447,
    "Deep</w>": 2448,
    "Deon": 2449,
    "Decemb": 2450,
    "Decl": 2451,
    "Decom": 2452,
    "December</w>": 2453,
    "Declar": 2454,
    "Declaration</w>": 2455,
    "Decompos": 2456,
    "Decomposers</w>": 2457,
    "Deonto": 2458,
    "Deontolog": 2459,
    "Deontological</w>": 2460,
    "Descrip": 2461,
    "Descriptive</w>": 2462,
    "Development</w>": 2463,
    "Developmental</w>": 2464,
    "Differ": 2465,
    "Divergent</w>": 2466,
    "Dickens</w>": 2467,
    "Differential</w>": 2468,
    "Dualism</w>": 2469,
    "Eco": 2470,
    "Eff": 2471,
    "Eig": 2472,
    "Emp": 2473,
    "En": 2474,
    "Epistemology</w>": 2475,
    "Ethics</w>": 2476,
    "Evap": 2477,
    "Early</w>": 2478,
    "Ecosystems</w>": 2479,
    "Effici": 2480,
    "Efficient</w>": 2481,
    "Eigen": 2482,
    "Eigenvalues</w>": 2483,
    "Elect": 2484,
    "Elements</w>": 2485,
    "Electromagnetic</w>": 2486,
    "Empire</w>": 2487,
    "Engl": 2488,
    "England</w>": 2489,
    "Erik": 2490,
    "Erik</w>": 2491,
    "Erikson</w>": 2492,
    "European</w>": 2493,
    "Evaporation</w>": 2494,
    "Exchange</w>": 2495,
    "Expl": 2496,
    "External</w>": 2497,
    "Exploration</w>": 2498,
    "F</w>": 2499,
    "Fam": 2500,
    "Fin": 2501,
    "Fir": 2502,
    "Fr": 2503,
    "Func": 2504,
    "Fund": 2505,
    "Famous</w>": 2506,
    "Finan": 2507,
    "Financi": 2508,
    "Financial</w>": 2509,
    "First</w>": 2510,
    "Foreig": 2511,
    "Formal</w>": 2512,
    "Foreign</w>": 2513,
    "Fren": 2514,
    "French</w>": 2515,
    "Function": 2516,
    "Functionalism</w>": 2517,
    "Fundamental</w>": 2518,
    "Gali": 2519,
    "Genetic</w>": 2520,
    "Ger": 2521,
    "Git</w>": 2522,
    "Go": 2523,
    "Gol": 2524,
    "Grap": 2525,
    "Gro": 2526,
    "Gu": 2527,
    "Galile": 2528,
    "Galileo</w>": 2529,
    "Geometry</w>": 2530,
    "Geor": 2531,
    "Georg</w>": 2532,
    "Germany</w>": 2533,
    "Good</w>": 2534,
    "Golgi": 2535,
    "Golgi</w>": 2536,
    "Graph</w>": 2537,
    "Greec": 2538,
    "Greece</w>": 2539,
    "Gross</w>": 2540,
    "Guten": 2541,
    "Gutenberg</w>": 2542,
    "HT": 2543,
    "Ha": 2544,
    "Ham": 2545,
    "Helic": 2546,
    "Hob": 2547,
    "Hol": 2548,
    "Hop": 2549,
    "How": 2550,
    "Hy": 2551,
    "HTTP</w>": 2552,
    "Hai": 2553,
    "Haiku": 2554,
    "Haiku</w>": 2555,
    "Hamle": 2556,
    "Hamlet</w>": 2557,
    "Heat</w>": 2558,
    "Heis": 2559,
    "Heisen": 2560,
    "Heisenberg</w>": 2561,
    "Helicase</w>": 2562,
    "Hobbes</w>": 2563,
    "Holoc": 2564,
    "Holoca": 2565,
    "Holocaust</w>": 2566,
    "Hope</w>": 2567,
    "Howev": 2568,
    "However</w>": 2569,
    "Human</w>": 2570,
    "Hume</w>": 2571,
    "Hyd": 2572,
    "Hydro": 2573,
    "Hydroelectric</w>": 2574,
    "II</w>": 2575,
    "In</w>": 2576,
    "Ion": 2577,
    "Is": 2578,
    "It": 2579,
    "It</w>": 2580,
    "Its</w>": 2581,
    "Index</w>": 2582,
    "Indi": 2583,
    "Inductive</w>": 2584,
    "Infer": 2585,
    "Inn": 2586,
    "Intern": 2587,
    "India</w>": 2588,
    "Inferential</w>": 2589,
    "Innate</w>": 2590,
    "International</w>": 2591,
    "Ionic</w>": 2592,
    "Isla": 2593,
    "Islam</w>": 2594,
    "Ital": 2595,
    "Italy</w>": 2596,
    "James</w>": 2597,
    "Joy": 2598,
    "Japan": 2599,
    "Japan</w>": 2600,
    "Japanese</w>": 2601,
    "Joyce</w>": 2602,
    "Key</w>": 2603,
    "La": 2604,
    "Large</w>": 2605,
    "Lexical</w>": 2606,
    "Linear</w>": 2607,
    "Linked</w>": 2608,
    "Log": 2609,
    "Long</w>": 2610,
    "Low": 2611,
    "Law</w>": 2612,
    "Lee</w>": 2613,
    "Leon": 2614,
    "Leonard": 2615,
    "Leonardo</w>": 2616,
    "Liber": 2617,
    "Libertari": 2618,
    "Libertarians</w>": 2619,
    "Logic</w>": 2620,
    "Lowering</w>": 2621,
    "MTP</w>": 2622,
    "Mac": 2623,
    "Machine</w>": 2624,
    "Man</w>": 2625,
    "Many</w>": 2626,
    "Mar": 2627,
    "Mat": 2628,
    "Medi": 2629,
    "Mem": 2630,
    "Mer": 2631,
    "Mes": 2632,
    "Met": 2633,
    "Mic": 2634,
    "Mid": 2635,
    "Mil": 2636,
    "Mo": 2637,
    "Mon": 2638,
    "My": 2639,
    "Macbe": 2640,
    "Macbeth</w>": 2641,
    "Market</w>": 2642,
    "Matr": 2643,
    "Matrices</w>": 2644,
    "Mediter": 2645,
    "Mediterran": 2646,
    "Mediterranean</w>": 2647,
    "Memory</w>": 2648,
    "Merch": 2649,
    "Merchants</w>": 2650,
    "Mesop": 2651,
    "Mesopot": 2652,
    "Mesopotam": 2653,
    "Mesopotami": 2654,
    "Mesopotamia</w>": 2655,
    "Metall": 2656,
    "Metallic</w>": 2657,
    "Mich": 2658,
    "Michel": 2659,
    "Michelang": 2660,
    "Michelangel": 2661,
    "Michelangelo</w>": 2662,
    "Midsum": 2663,
    "Midsumm": 2664,
    "Midsummer</w>": 2665,
    "Milgram</w>": 2666,
    "Moor": 2667,
    "Modular</w>": 2668,
    "Monet": 2669,
    "Monetary</w>": 2670,
    "Moore</w>": 2671,
    "Mythology</w>": 2672,
    "NADPH</w>": 2673,
    "Narra": 2674,
    "Nations</w>": 2675,
    "Night</w>": 2676,
    "No": 2677,
    "Nob": 2678,
    "Non</w>": 2679,
    "Nor": 2680,
    "Numb": 2681,
    "Narrative</w>": 2682,
    "New": 2683,
    "New</w>": 2684,
    "Neural</w>": 2685,
    "Neurons</w>": 2686,
    "Newton</w>": 2687,
    "NoSQL</w>": 2688,
    "Noble</w>": 2689,
    "Norse</w>": 2690,
    "Number</w>": 2691,
    "Ok": 2692,
    "Old</w>": 2693,
    "Op": 2694,
    "Over</w>": 2695,
    "Oka": 2696,
    "Okaz": 2697,
    "Okaza": 2698,
    "Okazak": 2699,
    "Okazaki": 2700,
    "Okazaki</w>": 2701,
    "Optimization</w>": 2702,
    "Operant</w>": 2703,
    "Operating</w>": 2704,
    "Operations</w>": 2705,
    "Ordinary</w>": 2706,
    "Organ": 2707,
    "Organisms</w>": 2708,
    "Pan": 2709,
    "Pav": 2710,
    "Philosop": 2711,
    "Pho": 2712,
    "Phys": 2713,
    "Pi": 2714,
    "Plat": 2715,
    "Plate</w>": 2716,
    "Por": 2717,
    "Pre": 2718,
    "Panthe": 2719,
    "Pantheon</w>": 2720,
    "Pavlo": 2721,
    "Pavlov": 2722,
    "Pavlov</w>": 2723,
    "Philosoph": 2724,
    "Philosophers</w>": 2725,
    "Photo": 2726,
    "Photosynthes": 2727,
    "Photosynthesis</w>": 2728,
    "Physic": 2729,
    "Physicalism</w>": 2730,
    "Piag": 2731,
    "Piaget</w>": 2732,
    "Plato</w>": 2733,
    "Poetr": 2734,
    "Political</w>": 2735,
    "Poetry</w>": 2736,
    "Portu": 2737,
    "Portugu": 2738,
    "Portuguese</w>": 2739,
    "Preci": 2740,
    "Precip": 2741,
    "Precipit": 2742,
    "Precipitation</w>": 2743,
    "Primary</w>": 2744,
    "Prime</w>": 2745,
    "Prob": 2746,
    "Proces": 2747,
    "Produc": 2748,
    "Prokaryotic</w>": 2749,
    "Protocol": 2750,
    "Probability</w>": 2751,
    "Process</w>": 2752,
    "Producers</w>": 2753,
    "Protocol</w>": 2754,
    "Quadratic</w>": 2755,
    "Qui": 2756,
    "Quix": 2757,
    "Quixot": 2758,
    "Quixote</w>": 2759,
    "RAM</w>": 2760,
    "Re": 2761,
    "Rel": 2762,
    "Ren": 2763,
    "Renewable</w>": 2764,
    "Rights</w>": 2765,
    "Rob": 2766,
    "Rous": 2767,
    "Rais": 2768,
    "Ration": 2769,
    "Raw": 2770,
    "Raising</w>": 2771,
    "Rationali": 2772,
    "Rationalists</w>": 2773,
    "Rawls</w>": 2774,
    "Reinforcement</w>": 2775,
    "Relational</w>": 2776,
    "Rena": 2777,
    "Renais": 2778,
    "Renaiss": 2779,
    "Renaissance</w>": 2780,
    "Robo": 2781,
    "Robotics</w>": 2782,
    "Rousse": 2783,
    "Rousseau": 2784,
    "Rousseau</w>": 2785,
    "SMTP</w>": 2786,
    "Sem": 2787,
    "Serv": 2788,
    "Set</w>": 2789,
    "Sk": 2790,
    "Software</w>": 2791,
    "Sol": 2792,
    "Sonnets</w>": 2793,
    "Sou": 2794,
    "Spa": 2795,
    "Sta": 2796,
    "Sto": 2797,
    "Sur": 2798,
    "Scienti": 2799,
    "Scientific</w>": 2800,
    "Semiconductor</w>": 2801,
    "Service</w>": 2802,
    "Skinner</w>": 2803,
    "Solar</w>": 2804,
    "Southe": 2805,
    "Southeast</w>": 2806,
    "Spain</w>": 2807,
    "Stream</w>": 2808,
    "Stati": 2809,
    "Statistics</w>": 2810,
    "Stoc": 2811,
    "Stock</w>": 2812,
    "Supervised</w>": 2813,
    "Supply</w>": 2814,
    "Surplus</w>": 2815,
    "Sym": 2816,
    "System": 2817,
    "Symmetric</w>": 2818,
    "Systems</w>": 2819,
    "Tex": 2820,
    "Ti": 2821,
    "Tre": 2822,
    "Tri": 2823,
    "Texti": 2824,
    "Textile</w>": 2825,
    "The": 2826,
    "Ther": 2827,
    "These</w>": 2828,
    "Third</w>": 2829,
    "Theor": 2830,
    "Theorem</w>": 2831,
    "Thermod": 2832,
    "Thermody": 2833,
    "Thermodyn": 2834,
    "Thermodynamics</w>": 2835,
    "Tim</w>": 2836,
    "Transistors</w>": 2837,
    "Transactions</w>": 2838,
    "Transform</w>": 2839,
    "Trees</w>": 2840,
    "Trig": 2841,
    "Trigon": 2842,
    "Trigonometry</w>": 2843,
    "UDP</w>": 2844,
    "Ur": 2845,
    "Unlike</w>": 2846,
    "Unsu": 2847,
    "Unsupervised</w>": 2848,
    "Urban": 2849,
    "Urbanization</w>": 2850,
    "Vectors</w>": 2851,
    "Ver": 2852,
    "Vic": 2853,
    "Vinci": 2854,
    "Version</w>": 2855,
    "Vict": 2856,
    "Victori": 2857,
    "Victorian</w>": 2858,
    "Vinci</w>": 2859,
    "Virtual</w>": 2860,
    "Virtue</w>": 2861,
    "We": 2862,
    "West</w>": 2863,
    "While</w>": 2864,
    "Wide</w>": 2865,
    "Wind</w>": 2866,
    "Wo": 2867,
    "Watson</w>": 2868,
    "Watt</w>": 2869,
    "Web</w>": 2870,
    "Wool": 2871,
    "Woolf</w>": 2872,
    "Working</w>": 2873,
    "Worl": 2874,
    "Worlds</w>": 2875,
    "Yg": 2876,
    "Ygg": 2877,
    "Yggdr": 2878,
    "Yggdras": 2879,
    "Yggdrasil</w>": 2880,
    "ae</w>": 2881,
    "aff": 2882,
    "ail</w>": 2883,
    "aily</w>": 2884,
    "aim": 2885,
    "air</w>": 2886,
    "akes</w>": 2887,
    "am</w>": 2888,
    "ao": 2889,
    "aqu": 2890,
    "astr": 2891,
    "asts</w>": 2892,
    "ather": 2893,
    "ause</w>": 2894,
    "aver": 2895,
    "aves</w>": 2896,
    "aving</w>": 2897,
    "ax</w>": 2898,
    "ays</w>": 2899,
    "aband": 2900,
    "absor": 2901,
    "abstr": 2902,
    "abandons</w>": 2903,
    "absorbs</w>": 2904,
    "abstract</w>": 2905,
    "acement</w>": 2906,
    "acent</w>": 2907,
    "aces</w>": 2908,
    "acity</w>": 2909,
    "acking</w>": 2910,
    "acted</w>": 2911,
    "acti": 2912,
    "acting</w>": 2913,
    "activi": 2914,
    "accelerated</w>": 2915,
    "acceleration</w>": 2916,
    "accessible</w>": 2917,
    "aches</w>": 2918,
    "achines</w>": 2919,
    "acroph": 2920,
    "acrophages</w>": 2921,
    "activ": 2922,
    "activation</w>": 2923,
    "activities</w>": 2924,
    "adation</w>": 2925,
    "adds</w>": 2926,
    "aded</w>": 2927,
    "aders</w>": 2928,
    "adic</w>": 2929,
    "adj": 2930,
    "adju": 2931,
    "adli": 2932,
    "admin": 2933,
    "adol": 2934,
    "adaptation</w>": 2935,
    "adaptive</w>": 2936,
    "added</w>": 2937,
    "addres": 2938,
    "addresses</w>": 2939,
    "adjacent</w>": 2940,
    "adjusts</w>": 2941,
    "adliest</w>": 2942,
    "admini": 2943,
    "administer</w>": 2944,
    "adolesc": 2945,
    "adolescence</w>": 2946,
    "advantag": 2947,
    "advantage</w>": 2948,
    "advantage": 2949,
    "advantageous</w>": 2950,
    "after": 2951,
    "after</w>": 2952,
    "affect</w>": 2953,
    "afterma": 2954,
    "aftermath</w>": 2955,
    "again": 2956,
    "again</w>": 2957,
    "agents</w>": 2958,
    "ager": 2959,
    "agg": 2960,
    "agments</w>": 2961,
    "agn": 2962,
    "agon": 2963,
    "agree</w>": 2964,
    "against</w>": 2965,
    "agery</w>": 2966,
    "agging</w>": 2967,
    "agnos": 2968,
    "agnostics</w>": 2969,
    "agonist</w>": 2970,
    "agreement</w>": 2971,
    "agreements</w>": 2972,
    "aims</w>": 2973,
    "ale</w>": 2974,
    "alf</w>": 2975,
    "algebra</w>": 2976,
    "alizing</w>": 2977,
    "alk": 2978,
    "alking</w>": 2979,
    "alous": 2980,
    "alth": 2981,
    "algae</w>": 2982,
    "ali</w>": 2983,
    "alkali</w>": 2984,
    "alled</w>": 2985,
    "allel</w>": 2986,
    "allowed</w>": 2987,
    "allowing</w>": 2988,
    "alousy</w>": 2989,
    "althc": 2990,
    "althcare</w>": 2991,
    "amass": 2992,
    "ambi": 2993,
    "ament": 2994,
    "amma</w>": 2995,
    "amming</w>": 2996,
    "amo": 2997,
    "ampli": 2998,
    "amassed</w>": 2999,
    "ambition</w>": 3000,
    "amentally</w>": 3001,
    "ameter</w>": 3002,
    "ametes</w>": 3003,
    "amoun": 3004,
    "amounts</w>": 3005,
    "amplifi": 3006,
    "amplifiers</w>": 3007,
    "anar</w>": 3008,
    "anations</w>": 3009,
    "anatom": 3010,
    "anch": 3011,
    "anic</w>": 3012,
    "anies</w>": 3013,
    "anism</w>": 3014,
    "anom": 3015,
    "answ": 3016,
    "ante": 3017,
    "anted</w>": 3018,
    "analyze</w>": 3019,
    "analyzing</w>": 3020,
    "anatomy</w>": 3021,
    "anchoring</w>": 3022,
    "anda</w>": 3023,
    "andom": 3024,
    "andom</w>": 3025,
    "aneous</w>": 3026,
    "aneously</w>": 3027,
    "angent</w>": 3028,
    "angl": 3029,
    "angle</w>": 3030,
    "anglement</w>": 3031,
    "animal</w>": 3032,
    "animals</w>": 3033,
    "anomet": 3034,
    "anometers</w>": 3035,
    "answer</w>": 3036,
    "antaneous</w>": 3037,
    "antly</w>": 3038,
    "antee</w>": 3039,
    "antibodies</w>": 3040,
    "antiderivative</w>": 3041,
    "aos</w>": 3042,
    "apar": 3043,
    "aphys": 3044,
    "apons</w>": 3045,
    "apse</w>": 3046,
    "apses</w>": 3047,
    "apy</w>": 3048,
    "apart</w>": 3049,
    "aphysics</w>": 3050,
    "apparat": 3051,
    "apparent</w>": 3052,
    "apparatus</w>": 3053,
    "applied</w>": 3054,
    "approaches</w>": 3055,
    "approximat": 3056,
    "approximate</w>": 3057,
    "approximately</w>": 3058,
    "aqueduc": 3059,
    "aqueducts</w>": 3060,
    "arantee</w>": 3061,
    "arbi": 3062,
    "are": 3063,
    "arms</w>": 3064,
    "arness</w>": 3065,
    "ars": 3066,
    "artificial</w>": 3067,
    "arts</w>": 3068,
    "arbitr": 3069,
    "arbitrary</w>": 3070,
    "archit": 3071,
    "archy</w>": 3072,
    "architec": 3073,
    "architecture</w>": 3074,
    "areas</w>": 3075,
    "arged</w>": 3076,
    "argued</w>": 3077,
    "argues</w>": 3078,
    "argument": 3079,
    "argument</w>": 3080,
    "argumentation</w>": 3081,
    "arise</w>": 3082,
    "arises</w>": 3083,
    "arising</w>": 3084,
    "arratives</w>": 3085,
    "array</w>": 3086,
    "arsen": 3087,
    "arsenals</w>": 3088,
    "ase": 3089,
    "asions</w>": 3090,
    "asm": 3091,
    "asset</w>": 3092,
    "assi": 3093,
    "assu": 3094,
    "asthen": 3095,
    "asets</w>": 3096,
    "asmic</w>": 3097,
    "assemb": 3098,
    "assic</w>": 3099,
    "assembly</w>": 3100,
    "asserting</w>": 3101,
    "asserts</w>": 3102,
    "assist</w>": 3103,
    "associated</w>": 3104,
    "associations</w>": 3105,
    "assured</w>": 3106,
    "asthenosphere</w>": 3107,
    "astronom": 3108,
    "astronomy</w>": 3109,
    "atmo": 3110,
    "ator</w>": 3111,
    "ators</w>": 3112,
    "att": 3113,
    "atten": 3114,
    "attract</w>": 3115,
    "atherers</w>": 3116,
    "atial</w>": 3117,
    "atmosphere</w>": 3118,
    "atom</w>": 3119,
    "atomicity</w>": 3120,
    "attacking</w>": 3121,
    "attention</w>": 3122,
    "auto": 3123,
    "auty</w>": 3124,
    "autom": 3125,
    "automate</w>": 3126,
    "average</w>": 3127,
    "bad</w>": 3128,
    "base</w>": 3129,
    "bed</w>": 3130,
    "beli": 3131,
    "bene": 3132,
    "bil": 3133,
    "bility</w>": 3134,
    "bin": 3135,
    "bines</w>": 3136,
    "bir": 3137,
    "bles</w>": 3138,
    "blu": 3139,
    "bri": 3140,
    "bus": 3141,
    "by": 3142,
    "barle": 3143,
    "barley</w>": 3144,
    "beauty</w>": 3145,
    "before</w>": 3146,
    "beh": 3147,
    "because</w>": 3148,
    "becom": 3149,
    "becomes</w>": 3150,
    "began</w>": 3151,
    "beginning</w>": 3152,
    "behind</w>": 3153,
    "belief": 3154,
    "beliefs</w>": 3155,
    "benef": 3156,
    "benefits</w>": 3157,
    "bership</w>": 3158,
    "berty</w>": 3159,
    "better</w>": 3160,
    "biases</w>": 3161,
    "biom": 3162,
    "bit</w>": 3163,
    "billi": 3164,
    "billions</w>": 3165,
    "binary</w>": 3166,
    "biomass</w>": 3167,
    "birth</w>": 3168,
    "bled</w>": 3169,
    "blen": 3170,
    "blic</w>": 3171,
    "blends</w>": 3172,
    "blue</w>": 3173,
    "bodily</w>": 3174,
    "boliz": 3175,
    "bound</w>": 3176,
    "bolized</w>": 3177,
    "bonding</w>": 3178,
    "borro": 3179,
    "borrow</w>": 3180,
    "borrowers</w>": 3181,
    "borrowing</w>": 3182,
    "break</w>": 3183,
    "breaks</w>": 3184,
    "brium</w>": 3185,
    "brows": 3186,
    "browsing</w>": 3187,
    "browsers</w>": 3188,
    "butions</w>": 3189,
    "build</w>": 3190,
    "builds</w>": 3191,
    "busin": 3192,
    "business</w>": 3193,
    "byproduct</w>": 3194,
    "called</w>": 3195,
    "case</w>": 3196,
    "cil": 3197,
    "cket</w>": 3198,
    "cla": 3199,
    "cr": 3200,
    "cra": 3201,
    "cryptography</w>": 3202,
    "cup": 3203,
    "caus": 3204,
    "causing</w>": 3205,
    "calcul": 3206,
    "calculus</w>": 3207,
    "calculated</w>": 3208,
    "canic</w>": 3209,
    "capable</w>": 3210,
    "capacity</w>": 3211,
    "capit": 3212,
    "captures</w>": 3213,
    "capital</w>": 3214,
    "care": 3215,
    "carriers</w>": 3216,
    "carry</w>": 3217,
    "caregi": 3218,
    "caregivers</w>": 3219,
    "causal</w>": 3220,
    "ced": 3221,
    "cedur": 3222,
    "cedented</w>": 3223,
    "cedure</w>": 3224,
    "cell": 3225,
    "cellular</w>": 3226,
    "centrated</w>": 3227,
    "centuries</w>": 3228,
    "ception</w>": 3229,
    "ceramics</w>": 3230,
    "cessions</w>": 3231,
    "chain</w>": 3232,
    "chanted</w>": 3233,
    "chaos</w>": 3234,
    "charged</w>": 3235,
    "che": 3236,
    "chec": 3237,
    "ches</w>": 3238,
    "chi": 3239,
    "cho": 3240,
    "chon": 3241,
    "chro": 3242,
    "charting</w>": 3243,
    "character": 3244,
    "characteris": 3245,
    "characteristic</w>": 3246,
    "ched": 3247,
    "checked</w>": 3248,
    "chedul": 3249,
    "cheduling</w>": 3250,
    "chival": 3251,
    "chivalr": 3252,
    "chivalric</w>": 3253,
    "chlorop": 3254,
    "chloropl": 3255,
    "chlorophy": 3256,
    "chlorophyl": 3257,
    "chlorophyll</w>": 3258,
    "chloroplasts</w>": 3259,
    "choose</w>": 3260,
    "chondri": 3261,
    "chondria</w>": 3262,
    "chrom": 3263,
    "chromos": 3264,
    "chromosome</w>": 3265,
    "cities</w>": 3266,
    "citiz": 3267,
    "cill": 3268,
    "cillating</w>": 3269,
    "citizens</w>": 3270,
    "class</w>": 3271,
    "classic</w>": 3272,
    "cling</w>": 3273,
    "claim": 3274,
    "claimed</w>": 3275,
    "cloud</w>": 3276,
    "clouds</w>": 3277,
    "clust": 3278,
    "clustering</w>": 3279,
    "coher": 3280,
    "cool": 3281,
    "cools</w>": 3282,
    "coor": 3283,
    "cot": 3284,
    "could</w>": 3285,
    "coherent</w>": 3286,
    "cold</w>": 3287,
    "collab": 3288,
    "colli": 3289,
    "color</w>": 3290,
    "coloring</w>": 3291,
    "colum": 3292,
    "collapse</w>": 3293,
    "collects</w>": 3294,
    "collaboration</w>": 3295,
    "collecting</w>": 3296,
    "collection</w>": 3297,
    "colliding</w>": 3298,
    "columns</w>": 3299,
    "come": 3300,
    "come</w>": 3301,
    "comes</w>": 3302,
    "compar": 3303,
    "compo": 3304,
    "composition</w>": 3305,
    "compri": 3306,
    "combine</w>": 3307,
    "combined</w>": 3308,
    "comedy</w>": 3309,
    "common</w>": 3310,
    "commonly</w>": 3311,
    "companies</w>": 3312,
    "compet": 3313,
    "compil": 3314,
    "compos": 3315,
    "comparative</w>": 3316,
    "competed</w>": 3317,
    "compilation</w>": 3318,
    "complement": 3319,
    "complement</w>": 3320,
    "complet": 3321,
    "completing</w>": 3322,
    "complementary</w>": 3323,
    "complete</w>": 3324,
    "compound": 3325,
    "composed</w>": 3326,
    "compounds</w>": 3327,
    "comprising</w>": 3328,
    "computation</w>": 3329,
    "computational</w>": 3330,
    "computers</w>": 3331,
    "computes</w>": 3332,
    "concentrated</w>": 3333,
    "configur": 3334,
    "confir": 3335,
    "confl": 3336,
    "conform</w>": 3337,
    "consci": 3338,
    "consequ": 3339,
    "contract</w>": 3340,
    "contri": 3341,
    "concept</w>": 3342,
    "concepts</w>": 3343,
    "conditioned</w>": 3344,
    "conducted</w>": 3345,
    "conduction</w>": 3346,
    "conductivity</w>": 3347,
    "configuration</w>": 3348,
    "confirm": 3349,
    "confirmation</w>": 3350,
    "conflict</w>": 3351,
    "connect</w>": 3352,
    "connecting</w>": 3353,
    "connectivity</w>": 3354,
    "connects</w>": 3355,
    "conscious": 3356,
    "consciousness</w>": 3357,
    "consequences</w>": 3358,
    "considered</w>": 3359,
    "consist": 3360,
    "consist</w>": 3361,
    "consistency</w>": 3362,
    "constants</w>": 3363,
    "constra": 3364,
    "constrain": 3365,
    "constraints</w>": 3366,
    "consumer</w>": 3367,
    "consump": 3368,
    "consumption</w>": 3369,
    "containing</w>": 3370,
    "content</w>": 3371,
    "continuously</w>": 3372,
    "contributions</w>": 3373,
    "control": 3374,
    "controls</w>": 3375,
    "controlled</w>": 3376,
    "conversion</w>": 3377,
    "convert</w>": 3378,
    "converting</w>": 3379,
    "converts</w>": 3380,
    "cool</w>": 3381,
    "coordin": 3382,
    "coordinates</w>": 3383,
    "cord</w>": 3384,
    "corr": 3385,
    "correl": 3386,
    "corpora</w>": 3387,
    "corporations</w>": 3388,
    "corrup": 3389,
    "correlated</w>": 3390,
    "corruption</w>": 3391,
    "cosine</w>": 3392,
    "cosmo": 3393,
    "cosmos</w>": 3394,
    "cotton</w>": 3395,
    "count</w>": 3396,
    "countries</w>": 3397,
    "country</w>": 3398,
    "courage</w>": 3399,
    "court</w>": 3400,
    "crust</w>": 3401,
    "craf": 3402,
    "crafting</w>": 3403,
    "create</w>": 3404,
    "culp": 3405,
    "culpture</w>": 3406,
    "cupy</w>": 3407,
    "curr": 3408,
    "curved</w>": 3409,
    "curves</w>": 3410,
    "currenc": 3411,
    "currencies</w>": 3412,
    "da</w>": 3413,
    "daily</w>": 3414,
    "dams</w>": 3415,
    "dary</w>": 3416,
    "ded</w>": 3417,
    "deli": 3418,
    "dely</w>": 3419,
    "der</w>": 3420,
    "ders</w>": 3421,
    "dical</w>": 3422,
    "dices</w>": 3423,
    "dle</w>": 3424,
    "does</w>": 3425,
    "done</w>": 3426,
    "dow": 3427,
    "draw</w>": 3428,
    "datasets</w>": 3429,
    "dden</w>": 3430,
    "dead</w>": 3431,
    "deadliest</w>": 3432,
    "deep</w>": 3433,
    "deg": 3434,
    "degr": 3435,
    "degre": 3436,
    "dest": 3437,
    "devi": 3438,
    "debates</w>": 3439,
    "debt</w>": 3440,
    "decl": 3441,
    "decol": 3442,
    "decision</w>": 3443,
    "decisions</w>": 3444,
    "declined</w>": 3445,
    "decolon": 3446,
    "decolonization</w>": 3447,
    "defens": 3448,
    "defic": 3449,
    "definite</w>": 3450,
    "defense</w>": 3451,
    "deficits</w>": 3452,
    "degree</w>": 3453,
    "degradation</w>": 3454,
    "degrees</w>": 3455,
    "dele": 3456,
    "deloc": 3457,
    "delu": 3458,
    "deletions</w>": 3459,
    "delivery</w>": 3460,
    "delocalized</w>": 3461,
    "delusi": 3462,
    "delusion": 3463,
    "delusional</w>": 3464,
    "demanded</w>": 3465,
    "democra": 3466,
    "democratic</w>": 3467,
    "democratiz": 3468,
    "democratized</w>": 3469,
    "depic": 3470,
    "dependent</w>": 3471,
    "dependently</w>": 3472,
    "depicted</w>": 3473,
    "depleting</w>": 3474,
    "deploy": 3475,
    "deployment</w>": 3476,
    "desig": 3477,
    "desirable</w>": 3478,
    "described</w>": 3479,
    "design</w>": 3480,
    "destroy": 3481,
    "destroyed</w>": 3482,
    "destructive</w>": 3483,
    "determin": 3484,
    "determine</w>": 3485,
    "determines</w>": 3486,
    "determining</w>": 3487,
    "device</w>": 3488,
    "devices</w>": 3489,
    "developers</w>": 3490,
    "developing</w>": 3491,
    "develops</w>": 3492,
    "deviation</w>": 3493,
    "dgment</w>": 3494,
    "diagnostics</w>": 3495,
    "dial</w>": 3496,
    "dients</w>": 3497,
    "dification</w>": 3498,
    "dige": 3499,
    "dim": 3500,
    "diox": 3501,
    "distor": 3502,
    "diver": 3503,
    "diverse</w>": 3504,
    "dicator</w>": 3505,
    "dicine</w>": 3506,
    "digests</w>": 3507,
    "dimensi": 3508,
    "dimension": 3509,
    "dimensionality</w>": 3510,
    "dioxide</w>": 3511,
    "directions</w>": 3512,
    "directs</w>": 3513,
    "disk</w>": 3514,
    "displ": 3515,
    "dissol": 3516,
    "discover": 3517,
    "discovers</w>": 3518,
    "discovered</w>": 3519,
    "displacement</w>": 3520,
    "dissolution</w>": 3521,
    "distance</w>": 3522,
    "distort</w>": 3523,
    "distributions</w>": 3524,
    "diversi": 3525,
    "diversity</w>": 3526,
    "divisors</w>": 3527,
    "doctr": 3528,
    "doctrine</w>": 3529,
    "document</w>": 3530,
    "documented</w>": 3531,
    "documents</w>": 3532,
    "dom</w>": 3533,
    "domain</w>": 3534,
    "domin": 3535,
    "domestic": 3536,
    "domestication</w>": 3537,
    "dominantly</w>": 3538,
    "doubled</w>": 3539,
    "down</w>": 3540,
    "drivers</w>": 3541,
    "driving</w>": 3542,
    "duties</w>": 3543,
    "duces</w>": 3544,
    "duction</w>": 3545,
    "durability</w>": 3546,
    "dustries</w>": 3547,
    "ealousy</w>": 3548,
    "eam</w>": 3549,
    "edges</w>": 3550,
    "edom</w>": 3551,
    "eec": 3552,
    "efore</w>": 3553,
    "ei": 3554,
    "eight</w>": 3555,
    "eking</w>": 3556,
    "epistemology</w>": 3557,
    "estors</w>": 3558,
    "etic</w>": 3559,
    "eu": 3560,
    "ews</w>": 3561,
    "early</w>": 3562,
    "earth": 3563,
    "earthqu": 3564,
    "earthquakes</w>": 3565,
    "eci": 3566,
    "ecting</w>": 3567,
    "ectives</w>": 3568,
    "ecut": 3569,
    "ecycle</w>": 3570,
    "ecially</w>": 3571,
    "economy</w>": 3572,
    "ector</w>": 3573,
    "ecute</w>": 3574,
    "edience</w>": 3575,
    "education</w>": 3576,
    "eech</w>": 3577,
    "eful": 3578,
    "effects</w>": 3579,
    "efficiency</w>": 3580,
    "efficiently</w>": 3581,
    "eful</w>": 3582,
    "eives</w>": 3583,
    "eigen": 3584,
    "eign": 3585,
    "eigenv": 3586,
    "eigenvectors</w>": 3587,
    "eignty</w>": 3588,
    "elding</w>": 3589,
    "elds</w>": 3590,
    "element</w>": 3591,
    "elesc": 3592,
    "elim": 3593,
    "elles</w>": 3594,
    "ells</w>": 3595,
    "elect": 3596,
    "electromagnetic</w>": 3597,
    "electronic</w>": 3598,
    "elescop": 3599,
    "elescopes</w>": 3600,
    "eliho": 3601,
    "elicit</w>": 3602,
    "elihood</w>": 3603,
    "elimin": 3604,
    "elimination</w>": 3605,
    "email</w>": 3606,
    "ementation</w>": 3607,
    "emerg": 3608,
    "emergence</w>": 3609,
    "emerged</w>": 3610,
    "emotional</w>": 3611,
    "empir": 3612,
    "empire</w>": 3613,
    "emphasize</w>": 3614,
    "emphasized</w>": 3615,
    "emphasizing</w>": 3616,
    "empirici": 3617,
    "empiricists</w>": 3618,
    "enalizing</w>": 3619,
    "enchanted</w>": 3620,
    "ending</w>": 3621,
    "enforc": 3622,
    "enni": 3623,
    "enabled</w>": 3624,
    "encod": 3625,
    "encode</w>": 3626,
    "encoded</w>": 3627,
    "encourages</w>": 3628,
    "encouraging</w>": 3629,
    "ended</w>": 3630,
    "endopl": 3631,
    "endoplasmic</w>": 3632,
    "enforced</w>": 3633,
    "engine</w>": 3634,
    "ennia</w>": 3635,
    "ensur": 3636,
    "ensures</w>": 3637,
    "ensive</w>": 3638,
    "ensure</w>": 3639,
    "entanglement</w>": 3640,
    "entum</w>": 3641,
    "entials</w>": 3642,
    "entire": 3643,
    "entirely</w>": 3644,
    "entric</w>": 3645,
    "entry</w>": 3646,
    "environmental</w>": 3647,
    "equal</w>": 3648,
    "equili": 3649,
    "equities</w>": 3650,
    "equilibrium</w>": 3651,
    "ered</w>": 3652,
    "erence</w>": 3653,
    "erical</w>": 3654,
    "erl": 3655,
    "ership</w>": 3656,
    "erwor": 3657,
    "erying</w>": 3658,
    "erlying</w>": 3659,
    "ernel</w>": 3660,
    "erworks</w>": 3661,
    "esirable</w>": 3662,
    "estim": 3663,
    "espan</w>": 3664,
    "especially</w>": 3665,
    "estimates</w>": 3666,
    "eukaryotic</w>": 3667,
    "eval</w>": 3668,
    "evo": 3669,
    "evaluate</w>": 3670,
    "evaluated</w>": 3671,
    "evoke</w>": 3672,
    "evolved</w>": 3673,
    "exact</w>": 3674,
    "execute</w>": 3675,
    "exhi": 3676,
    "expor": 3677,
    "examples</w>": 3678,
    "exhibit</w>": 3679,
    "expensive</w>": 3680,
    "expon": 3681,
    "expos": 3682,
    "expert</w>": 3683,
    "experienced</w>": 3684,
    "experiment</w>": 3685,
    "experiments</w>": 3686,
    "explaining</w>": 3687,
    "explanations</w>": 3688,
    "explore</w>": 3689,
    "explored</w>": 3690,
    "explorers</w>": 3691,
    "exponential</w>": 3692,
    "exports</w>": 3693,
    "exposures</w>": 3694,
    "expression</w>": 3695,
    "extends</w>": 3696,
    "extensi": 3697,
    "extensive</w>": 3698,
    "fall</w>": 3699,
    "feed</w>": 3700,
    "fer</w>": 3701,
    "few</w>": 3702,
    "finite</w>": 3703,
    "fle": 3704,
    "ft</w>": 3705,
    "fu": 3706,
    "factur": 3707,
    "facilitate</w>": 3708,
    "facilitated</w>": 3709,
    "factories</w>": 3710,
    "factoring</w>": 3711,
    "factors</w>": 3712,
    "factory</w>": 3713,
    "facturing</w>": 3714,
    "ferences</w>": 3715,
    "ffs</w>": 3716,
    "fied</w>": 3717,
    "fields</w>": 3718,
    "file</w>": 3719,
    "fix": 3720,
    "fix</w>": 3721,
    "figure</w>": 3722,
    "final</w>": 3723,
    "finding</w>": 3724,
    "fixed</w>": 3725,
    "flat</w>": 3726,
    "flour": 3727,
    "flow</w>": 3728,
    "fleeting</w>": 3729,
    "flexibility</w>": 3730,
    "flexible</w>": 3731,
    "flourish": 3732,
    "flourished</w>": 3733,
    "flowing</w>": 3734,
    "focused</w>": 3735,
    "folk": 3736,
    "follow</w>": 3737,
    "folklor": 3738,
    "folklore</w>": 3739,
    "forest</w>": 3740,
    "fork</w>": 3741,
    "forming</w>": 3742,
    "formul": 3743,
    "formula</w>": 3744,
    "foundation</w>": 3745,
    "foundational</w>": 3746,
    "foundations</w>": 3747,
    "founded</w>": 3748,
    "fragments</w>": 3749,
    "freed</w>": 3750,
    "freedom</w>": 3751,
    "fuel</w>": 3752,
    "fundamentally</w>": 3753,
    "funds</w>": 3754,
    "gal</w>": 3755,
    "gametes</w>": 3756,
    "gamma</w>": 3757,
    "gase</w>": 3758,
    "gases</w>": 3759,
    "gatherers</w>": 3760,
    "gen</w>": 3761,
    "genetic</w>": 3762,
    "gentry</w>": 3763,
    "gods</w>": 3764,
    "gri": 3765,
    "geop": 3766,
    "gesting</w>": 3767,
    "generally</w>": 3768,
    "generated</w>": 3769,
    "generating</w>": 3770,
    "generation</w>": 3771,
    "geometries</w>": 3772,
    "geopo": 3773,
    "geopolitical</w>": 3774,
    "gions</w>": 3775,
    "given</w>": 3776,
    "giving</w>": 3777,
    "glass</w>": 3778,
    "gluc": 3779,
    "globe</w>": 3780,
    "glucose</w>": 3781,
    "governments</w>": 3782,
    "governs</w>": 3783,
    "grated</w>": 3784,
    "gradients</w>": 3785,
    "gravi": 3786,
    "graph": 3787,
    "graphs</w>": 3788,
    "gravitational</w>": 3789,
    "great</w>": 3790,
    "green</w>": 3791,
    "grid</w>": 3792,
    "ground": 3793,
    "grow</w>": 3794,
    "groundwater</w>": 3795,
    "guarantee</w>": 3796,
    "half</w>": 3797,
    "hand</w>": 3798,
    "harness</w>": 3799,
    "hash</w>": 3800,
    "hic": 3801,
    "hun": 3802,
    "hail</w>": 3803,
    "handle</w>": 3804,
    "healthcare</w>": 3805,
    "heat</w>": 3806,
    "heating</w>": 3807,
    "height</w>": 3808,
    "helioc": 3809,
    "heliocentric</w>": 3810,
    "heroes</w>": 3811,
    "hidden</w>": 3812,
    "hils</w>": 3813,
    "history</w>": 3814,
    "hicles</w>": 3815,
    "hierarchies</w>": 3816,
    "higher</w>": 3817,
    "highly</w>": 3818,
    "histic": 3819,
    "histicated</w>": 3820,
    "hot</w>": 3821,
    "horizont": 3822,
    "horizontal</w>": 3823,
    "horizontally</w>": 3824,
    "humanity</w>": 3825,
    "hunter</w>": 3826,
    "hypo": 3827,
    "hyperbolic</w>": 3828,
    "hyperl": 3829,
    "hyperlinked</w>": 3830,
    "hypothes": 3831,
    "hypothesis</w>": 3832,
    "ible</w>": 3833,
    "ification</w>": 3834,
    "io": 3835,
    "ired</w>": 3836,
    "iti": 3837,
    "icon</w>": 3838,
    "icrow": 3839,
    "iconserv": 3840,
    "iconservative</w>": 3841,
    "icrowaves</w>": 3842,
    "iddle</w>": 3843,
    "ideals</w>": 3844,
    "ideological</w>": 3845,
    "identified</w>": 3846,
    "identifies</w>": 3847,
    "identity</w>": 3848,
    "igin</w>": 3849,
    "ignor": 3850,
    "ignorance</w>": 3851,
    "iling</w>": 3852,
    "ilitary</w>": 3853,
    "imagery</w>": 3854,
    "imaging</w>": 3855,
    "imal</w>": 3856,
    "imics</w>": 3857,
    "immedi": 3858,
    "imot": 3859,
    "impos": 3860,
    "immediate</w>": 3861,
    "immune</w>": 3862,
    "imotor</w>": 3863,
    "implement</w>": 3864,
    "implementation</w>": 3865,
    "impossible</w>": 3866,
    "inal</w>": 3867,
    "income</w>": 3868,
    "indecision</w>": 3869,
    "independently</w>": 3870,
    "index</w>": 3871,
    "indicator</w>": 3872,
    "indices</w>": 3873,
    "inds</w>": 3874,
    "industries</w>": 3875,
    "inequality</w>": 3876,
    "inequities</w>": 3877,
    "initi": 3878,
    "inking</w>": 3879,
    "inqu": 3880,
    "insi": 3881,
    "insp": 3882,
    "institu": 3883,
    "instruc": 3884,
    "int</w>": 3885,
    "intim": 3886,
    "inting</w>": 3887,
    "iny</w>": 3888,
    "incor": 3889,
    "included</w>": 3890,
    "includes</w>": 3891,
    "incorrec": 3892,
    "incorrect</w>": 3893,
    "inetic</w>": 3894,
    "inference</w>": 3895,
    "infl": 3896,
    "infected</w>": 3897,
    "infections</w>": 3898,
    "inflation</w>": 3899,
    "ingle</w>": 3900,
    "ings</w>": 3901,
    "initiated</w>": 3902,
    "inquir": 3903,
    "inquiry</w>": 3904,
    "insight</w>": 3905,
    "inspired</w>": 3906,
    "instability</w>": 3907,
    "instantaneous</w>": 3908,
    "institutions</w>": 3909,
    "instructed</w>": 3910,
    "intro": 3911,
    "integer</w>": 3912,
    "integri": 3913,
    "integrated</w>": 3914,
    "integrates</w>": 3915,
    "integration</w>": 3916,
    "integrity</w>": 3917,
    "interact</w>": 3918,
    "interacting</w>": 3919,
    "interaction</w>": 3920,
    "interconnect</w>": 3921,
    "intergroup</w>": 3922,
    "interm": 3923,
    "internet</w>": 3924,
    "interpre": 3925,
    "intersec": 3926,
    "intermit": 3927,
    "intermitt": 3928,
    "intermittency</w>": 3929,
    "international</w>": 3930,
    "interpreting</w>": 3931,
    "intersection</w>": 3932,
    "interval</w>": 3933,
    "intimate</w>": 3934,
    "introduces</w>": 3935,
    "invasions</w>": 3936,
    "investors</w>": 3937,
    "involuntary</w>": 3938,
    "involved</w>": 3939,
    "involves</w>": 3940,
    "iosis</w>": 3941,
    "ipate</w>": 3942,
    "ipul": 3943,
    "ipulates</w>": 3944,
    "ires</w>": 3945,
    "irra": 3946,
    "irration": 3947,
    "irrationality</w>": 3948,
    "iscient</w>": 3949,
    "ise</w>": 3950,
    "ises</w>": 3951,
    "ission</w>": 3952,
    "istics</w>": 3953,
    "ishment</w>": 3954,
    "isolated</w>": 3955,
    "issues</w>": 3956,
    "issuing</w>": 3957,
    "items</w>": 3958,
    "itters</w>": 3959,
    "itu": 3960,
    "itude</w>": 3961,
    "jealousy</w>": 3962,
    "jo": 3963,
    "job": 3964,
    "jority</w>": 3965,
    "joined</w>": 3966,
    "job</w>": 3967,
    "judge</w>": 3968,
    "judgment</w>": 3969,
    "just</w>": 3970,
    "justif": 3971,
    "justification</w>": 3972,
    "kernel</w>": 3973,
    "kin</w>": 3974,
    "kinetic</w>": 3975,
    "kep": 3976,
    "keys</w>": 3977,
    "keptic": 3978,
    "kepticism</w>": 3979,
    "know</w>": 3980,
    "knowing</w>": 3981,
    "kup</w>": 3982,
    "lack</w>": 3983,
    "lages</w>": 3984,
    "lagging</w>": 3985,
    "landed</w>": 3986,
    "later</w>": 3987,
    "lates</w>": 3988,
    "lengths</w>": 3989,
    "lennia</w>": 3990,
    "lexical</w>": 3991,
    "lines</w>": 3992,
    "ling</w>": 3993,
    "link</w>": 3994,
    "llages</w>": 3995,
    "lakes</w>": 3996,
    "laws</w>": 3997,
    "lables</w>": 3998,
    "lattice</w>": 3999,
    "lead</w>": 4000,
    "leads</w>": 4001,
    "leet</w>": 4002,
    "legal</w>": 4003,
    "level": 4004,
    "level</w>": 4005,
    "learn": 4006,
    "learned</w>": 4007,
    "levels</w>": 4008,
    "liberty</w>": 4009,
    "lide</w>": 4010,
    "ligase</w>": 4011,
    "liqu": 4012,
    "lists</w>": 4013,
    "litari": 4014,
    "liter": 4015,
    "lith": 4016,
    "live</w>": 4017,
    "lives</w>": 4018,
    "lifecycle</w>": 4019,
    "lifespan</w>": 4020,
    "likelihood</w>": 4021,
    "likely</w>": 4022,
    "limit</w>": 4023,
    "limited</w>": 4024,
    "liquid</w>": 4025,
    "litarianism</w>": 4026,
    "literary</w>": 4027,
    "lithosphere</w>": 4028,
    "loads</w>": 4029,
    "log</w>": 4030,
    "loo": 4031,
    "local</w>": 4032,
    "locom": 4033,
    "locomo": 4034,
    "locomotives</w>": 4035,
    "logism</w>": 4036,
    "logistics</w>": 4037,
    "lookup</w>": 4038,
    "losing</w>": 4039,
    "loss</w>": 4040,
    "machines</w>": 4041,
    "macrophages</w>": 4042,
    "mains</w>": 4043,
    "male</w>": 4044,
    "mass</w>": 4045,
    "microwaves</w>": 4046,
    "mid</w>": 4047,
    "middle</w>": 4048,
    "military</w>": 4049,
    "mimics</w>": 4050,
    "mises</w>": 4051,
    "mu": 4052,
    "must</w>": 4053,
    "mut": 4054,
    "maize</w>": 4055,
    "majority</w>": 4056,
    "mast": 4057,
    "maxim": 4058,
    "magic</w>": 4059,
    "magn": 4060,
    "magnitude</w>": 4061,
    "mainders</w>": 4062,
    "mainten": 4063,
    "maintenance</w>": 4064,
    "manage</w>": 4065,
    "manages</w>": 4066,
    "manipulates</w>": 4067,
    "manu": 4068,
    "manufacturing</w>": 4069,
    "marize</w>": 4070,
    "marri": 4071,
    "marriage</w>": 4072,
    "masterworks</w>": 4073,
    "matri": 4074,
    "matrix</w>": 4075,
    "maximize</w>": 4076,
    "mean</w>": 4077,
    "means</w>": 4078,
    "medical</w>": 4079,
    "medicine</w>": 4080,
    "meiosis</w>": 4081,
    "measu": 4082,
    "measured</w>": 4083,
    "mechanical</w>": 4084,
    "mechanized</w>": 4085,
    "media</w>": 4086,
    "median</w>": 4087,
    "membership</w>": 4088,
    "merase</w>": 4089,
    "metaphysics</w>": 4090,
    "meter</w>": 4091,
    "migrated</w>": 4092,
    "milar</w>": 4093,
    "millennia</w>": 4094,
    "mills</w>": 4095,
    "minds</w>": 4096,
    "minimal</w>": 4097,
    "mitochondria</w>": 4098,
    "mitosis</w>": 4099,
    "modification</w>": 4100,
    "motif": 4101,
    "moun": 4102,
    "move</w>": 4103,
    "moving</w>": 4104,
    "mode</w>": 4105,
    "moments</w>": 4106,
    "momentum</w>": 4107,
    "monarchy</w>": 4108,
    "monst": 4109,
    "monsters</w>": 4110,
    "mordial</w>": 4111,
    "mort": 4112,
    "mortality</w>": 4113,
    "motifs</w>": 4114,
    "mountain</w>": 4115,
    "movements</w>": 4116,
    "mpting</w>": 4117,
    "mutu": 4118,
    "mult": 4119,
    "multaneously</w>": 4120,
    "mutations</w>": 4121,
    "mutually</w>": 4122,
    "myths</w>": 4123,
    "names</w>": 4124,
    "nanometers</w>": 4125,
    "narratives</w>": 4126,
    "nations</w>": 4127,
    "nership</w>": 4128,
    "nine</w>": 4129,
    "niscient</w>": 4130,
    "node</w>": 4131,
    "nom": 4132,
    "non</w>": 4133,
    "now</w>": 4134,
    "nu": 4135,
    "navigate</w>": 4136,
    "navigators</w>": 4137,
    "neut": 4138,
    "networked</w>": 4139,
    "networking</w>": 4140,
    "neuro": 4141,
    "neutr": 4142,
    "neuron</w>": 4143,
    "neurotransm": 4144,
    "neurotransmitters</w>": 4145,
    "neutrop": 4146,
    "neutral</w>": 4147,
    "neutrophils</w>": 4148,
    "niqu": 4149,
    "niques</w>": 4150,
    "nomadic</w>": 4151,
    "normal</w>": 4152,
    "nutri": 4153,
    "nuclear</w>": 4154,
    "nucleo": 4155,
    "nucleus</w>": 4156,
    "nucleoti": 4157,
    "nucleotides</w>": 4158,
    "nutrients</w>": 4159,
    "oil</w>": 4160,
    "ople</w>": 4161,
    "oted</w>": 4162,
    "oto": 4163,
    "obedience</w>": 4164,
    "observe</w>": 4165,
    "object</w>": 4166,
    "objectives</w>": 4167,
    "occupy</w>": 4168,
    "ocks</w>": 4169,
    "occurred</w>": 4170,
    "ocean</w>": 4171,
    "oceanic</w>": 4172,
    "odic</w>": 4173,
    "offsp": 4174,
    "offspring</w>": 4175,
    "ogens</w>": 4176,
    "old</w>": 4177,
    "olet</w>": 4178,
    "omniscient</w>": 4179,
    "onics</w>": 4180,
    "open</w>": 4181,
    "ophisticated</w>": 4182,
    "operational</w>": 4183,
    "opposite</w>": 4184,
    "oppositely</w>": 4185,
    "order</w>": 4186,
    "ordered</w>": 4187,
    "ordinary</w>": 4188,
    "origin</w>": 4189,
    "orimotor</w>": 4190,
    "ort": 4191,
    "organelles</w>": 4192,
    "organic</w>": 4193,
    "organized</w>": 4194,
    "organizational</w>": 4195,
    "ortest</w>": 4196,
    "oscillating</w>": 4197,
    "osocial</w>": 4198,
    "otons</w>": 4199,
    "otovol": 4200,
    "otovolta": 4201,
    "otovoltaic</w>": 4202,
    "ought</w>": 4203,
    "ousand</w>": 4204,
    "outcomes</w>": 4205,
    "outputs</w>": 4206,
    "overall</w>": 4207,
    "overeignty</w>": 4208,
    "overheating</w>": 4209,
    "overth": 4210,
    "overthre": 4211,
    "overthrew</w>": 4212,
    "ownership</w>": 4213,
    "oxy": 4214,
    "oxygen</w>": 4215,
    "oyages</w>": 4216,
    "pages</w>": 4217,
    "past</w>": 4218,
    "penalizing</w>": 4219,
    "pun": 4220,
    "paid</w>": 4221,
    "pair</w>": 4222,
    "path": 4223,
    "path</w>": 4224,
    "paths</w>": 4225,
    "parallel</w>": 4226,
    "parameter</w>": 4227,
    "parti": 4228,
    "partial</w>": 4229,
    "participate</w>": 4230,
    "particle</w>": 4231,
    "passing</w>": 4232,
    "passwor": 4233,
    "password</w>": 4234,
    "pathogens</w>": 4235,
    "people</w>": 4236,
    "peti": 4237,
    "perance</w>": 4238,
    "perception</w>": 4239,
    "perform</w>": 4240,
    "perpowers</w>": 4241,
    "periodic</w>": 4242,
    "perspectives</w>": 4243,
    "petitive</w>": 4244,
    "phic</w>": 4245,
    "photons</w>": 4246,
    "photovoltaic</w>": 4247,
    "phys": 4248,
    "physics</w>": 4249,
    "place</w>": 4250,
    "planar</w>": 4251,
    "planning</w>": 4252,
    "plant</w>": 4253,
    "plate</w>": 4254,
    "plays</w>": 4255,
    "poetic</w>": 4256,
    "point</w>": 4257,
    "post": 4258,
    "poly": 4259,
    "polymerase</w>": 4260,
    "popular</w>": 4261,
    "populated</w>": 4262,
    "populations</w>": 4263,
    "portra": 4264,
    "portrays</w>": 4265,
    "postul": 4266,
    "postulate</w>": 4267,
    "potential</w>": 4268,
    "potentials</w>": 4269,
    "powered</w>": 4270,
    "price</w>": 4271,
    "printing</w>": 4272,
    "precedented</w>": 4273,
    "predominantly</w>": 4274,
    "preferences</w>": 4275,
    "premises</w>": 4276,
    "preserve</w>": 4277,
    "press</w>": 4278,
    "precious</w>": 4279,
    "precision</w>": 4280,
    "predictions</w>": 4281,
    "predicts</w>": 4282,
    "primary</w>": 4283,
    "primordial</w>": 4284,
    "prior</w>": 4285,
    "priv": 4286,
    "principle</w>": 4287,
    "private</w>": 4288,
    "procedure</w>": 4289,
    "proclaimed</w>": 4290,
    "prompting</w>": 4291,
    "prose</w>": 4292,
    "prot": 4293,
    "protocol": 4294,
    "prox": 4295,
    "probable</w>": 4296,
    "produced</w>": 4297,
    "programming</w>": 4298,
    "programs</w>": 4299,
    "propul": 4300,
    "propaganda</w>": 4301,
    "propagate</w>": 4302,
    "property</w>": 4303,
    "propulsion</w>": 4304,
    "protagonist</w>": 4305,
    "protection": 4306,
    "protection</w>": 4307,
    "protectionism</w>": 4308,
    "protocols</w>": 4309,
    "provided</w>": 4310,
    "providing</w>": 4311,
    "proxy</w>": 4312,
    "psychosocial</w>": 4313,
    "public</w>": 4314,
    "punishment</w>": 4315,
    "quadratic</w>": 4316,
    "quantum</w>": 4317,
    "quare</w>": 4318,
    "quely</w>": 4319,
    "querying</w>": 4320,
    "quantifies</w>": 4321,
    "race</w>": 4322,
    "random</w>": 4323,
    "rate</w>": 4324,
    "renewable</w>": 4325,
    "rice</w>": 4326,
    "rong</w>": 4327,
    "ru": 4328,
    "rur": 4329,
    "raise</w>": 4330,
    "radiation</w>": 4331,
    "range</w>": 4332,
    "rapid</w>": 4333,
    "reaction</w>": 4334,
    "reactions</w>": 4335,
    "read</w>": 4336,
    "readers</w>": 4337,
    "real</w>": 4338,
    "realized</w>": 4339,
    "reams</w>": 4340,
    "rebirth</w>": 4341,
    "recessions</w>": 4342,
    "reinforcement</w>": 4343,
    "remainders</w>": 4344,
    "remains</w>": 4345,
    "repair</w>": 4346,
    "repetitive</w>": 4347,
    "reproduce</w>": 4348,
    "reserve</w>": 4349,
    "reshap": 4350,
    "respec": 4351,
    "rest</w>": 4352,
    "retic": 4353,
    "retri": 4354,
    "retur": 4355,
    "reverse</w>": 4356,
    "rewar": 4357,
    "readily</w>": 4358,
    "reason</w>": 4359,
    "receives</w>": 4360,
    "recy": 4361,
    "recycling</w>": 4362,
    "reducible</w>": 4363,
    "reduction</w>": 4364,
    "reflect</w>": 4365,
    "reflecting</w>": 4366,
    "relates</w>": 4367,
    "relying</w>": 4368,
    "relax</w>": 4369,
    "reliability</w>": 4370,
    "religions</w>": 4371,
    "representations</w>": 4372,
    "representing</w>": 4373,
    "requires</w>": 4374,
    "reshaped</w>": 4375,
    "respect</w>": 4376,
    "response</w>": 4377,
    "result</w>": 4378,
    "resulting</w>": 4379,
    "reticul": 4380,
    "reticulum</w>": 4381,
    "retrieval</w>": 4382,
    "returns</w>": 4383,
    "reveal</w>": 4384,
    "revolu": 4385,
    "revolution</w>": 4386,
    "revolution": 4387,
    "revolutionary</w>": 4388,
    "rewarding</w>": 4389,
    "rhyme</w>": 4390,
    "rhyth": 4391,
    "rhythm</w>": 4392,
    "ridges</w>": 4393,
    "rise</w>": 4394,
    "rit": 4395,
    "riters</w>": 4396,
    "rival": 4397,
    "riz": 4398,
    "ritories</w>": 4399,
    "rivalry</w>": 4400,
    "rizes</w>": 4401,
    "rocket</w>": 4402,
    "roles</w>": 4403,
    "rooted</w>": 4404,
    "rophic</w>": 4405,
    "rotation</w>": 4406,
    "round": 4407,
    "romance</w>": 4408,
    "romances</w>": 4409,
    "roubles</w>": 4410,
    "rounded</w>": 4411,
    "rows</w>": 4412,
    "royal</w>": 4413,
    "rule</w>": 4414,
    "running</w>": 4415,
    "runs</w>": 4416,
    "rural</w>": 4417,
    "sal</w>": 4418,
    "scheduling</w>": 4419,
    "sculpture</w>": 4420,
    "sine</w>": 4421,
    "single</w>": 4422,
    "skepticism</w>": 4423,
    "skin</w>": 4424,
    "sleet</w>": 4425,
    "slide</w>": 4426,
    "slit</w>": 4427,
    "snow</w>": 4428,
    "soil</w>": 4429,
    "some</w>": 4430,
    "sonnets</w>": 4431,
    "sophisticated</w>": 4432,
    "sovereignty</w>": 4433,
    "square</w>": 4434,
    "sun": 4435,
    "swi": 4436,
    "sailing</w>": 4437,
    "sati": 4438,
    "savers</w>": 4439,
    "sample</w>": 4440,
    "samples</w>": 4441,
    "satirizes</w>": 4442,
    "scalability</w>": 4443,
    "scaled</w>": 4444,
    "scales</w>": 4445,
    "scaling</w>": 4446,
    "sea</w>": 4447,
    "seeking</w>": 4448,
    "sections</w>": 4449,
    "secondary</w>": 4450,
    "secure</w>": 4451,
    "securities</w>": 4452,
    "security</w>": 4453,
    "self</w>": 4454,
    "selling</w>": 4455,
    "selves</w>": 4456,
    "semiconductor</w>": 4457,
    "semiconservative</w>": 4458,
    "sensations</w>": 4459,
    "sensorimotor</w>": 4460,
    "sensors</w>": 4461,
    "sequence</w>": 4462,
    "sequential</w>": 4463,
    "serves</w>": 4464,
    "settings</w>": 4465,
    "settled</w>": 4466,
    "shells</w>": 4467,
    "shocks</w>": 4468,
    "shortest</w>": 4469,
    "shares</w>": 4470,
    "sharing</w>": 4471,
    "shift</w>": 4472,
    "ships</w>": 4473,
    "showing</w>": 4474,
    "side</w>": 4475,
    "similar</w>": 4476,
    "simultaneously</w>": 4477,
    "silicon</w>": 4478,
    "silk</w>": 4479,
    "size</w>": 4480,
    "societies</w>": 4481,
    "society</w>": 4482,
    "sorted</w>": 4483,
    "spaces</w>": 4484,
    "spatial</w>": 4485,
    "speech</w>": 4486,
    "spending</w>": 4487,
    "spices</w>": 4488,
    "spinal</w>": 4489,
    "spinning</w>": 4490,
    "split</w>": 4491,
    "spread</w>": 4492,
    "spectr": 4493,
    "speciation</w>": 4494,
    "specialization</w>": 4495,
    "specialize</w>": 4496,
    "spectrum</w>": 4497,
    "spherical</w>": 4498,
    "stability</w>": 4499,
    "stained</w>": 4500,
    "stances</w>": 4501,
    "state</w>": 4502,
    "steam</w>": 4503,
    "streams</w>": 4504,
    "stimulating</w>": 4505,
    "stitution</w>": 4506,
    "store</w>": 4507,
    "stored</w>": 4508,
    "storming</w>": 4509,
    "strates</w>": 4510,
    "strict</w>": 4511,
    "structu": 4512,
    "structure</w>": 4513,
    "structured</w>": 4514,
    "study</w>": 4515,
    "suite</w>": 4516,
    "suited</w>": 4517,
    "sum</w>": 4518,
    "superpowers</w>": 4519,
    "sustained</w>": 4520,
    "subatomic</w>": 4521,
    "subduction</w>": 4522,
    "substances</w>": 4523,
    "substitution</w>": 4524,
    "substrates</w>": 4525,
    "sugar</w>": 4526,
    "suggesting</w>": 4527,
    "summarize</w>": 4528,
    "summing</w>": 4529,
    "sunlight</w>": 4530,
    "supplied</w>": 4531,
    "supplies</w>": 4532,
    "survi": 4533,
    "surface</w>": 4534,
    "survive</w>": 4535,
    "swapping</w>": 4536,
    "swit": 4537,
    "switches</w>": 4538,
    "syllables</w>": 4539,
    "syllogism</w>": 4540,
    "symbolized</w>": 4541,
    "synapses</w>": 4542,
    "synta": 4543,
    "syntax</w>": 4544,
    "systematically</w>": 4545,
    "table</w>": 4546,
    "tangent</w>": 4547,
    "telescopes</w>": 4548,
    "tiny</w>": 4549,
    "tonics</w>": 4550,
    "trophic</w>": 4551,
    "troubles</w>": 4552,
    "takes</w>": 4553,
    "tariffs</w>": 4554,
    "tectonics</w>": 4555,
    "techniques</w>": 4556,
    "technology</w>": 4557,
    "temperance</w>": 4558,
    "template</w>": 4559,
    "tend</w>": 4560,
    "term</w>": 4561,
    "terms</w>": 4562,
    "territories</w>": 4563,
    "terti": 4564,
    "tertiary</w>": 4565,
    "there</w>": 4566,
    "think</w>": 4567,
    "thinking</w>": 4568,
    "third</w>": 4569,
    "thousand</w>": 4570,
    "them</w>": 4571,
    "themes</w>": 4572,
    "themselves</w>": 4573,
    "therapy</w>": 4574,
    "therefore</w>": 4575,
    "thermal</w>": 4576,
    "tilitarianism</w>": 4577,
    "tokens</w>": 4578,
    "told</w>": 4579,
    "tow": 4580,
    "towns</w>": 4581,
    "track</w>": 4582,
    "traded</w>": 4583,
    "trading</w>": 4584,
    "trained</w>": 4585,
    "training</w>": 4586,
    "tru": 4587,
    "traditional</w>": 4588,
    "travi": 4589,
    "transfer</w>": 4590,
    "translates</w>": 4591,
    "transferred</w>": 4592,
    "transferring</w>": 4593,
    "transforms</w>": 4594,
    "transmission</w>": 4595,
    "transmit</w>": 4596,
    "transport</w>": 4597,
    "transportation</w>": 4598,
    "traviolet</w>": 4599,
    "triangle</w>": 4600,
    "true</w>": 4601,
    "turbines</w>": 4602,
    "type</w>": 4603,
    "up</w>": 4604,
    "utilitarianism</w>": 4605,
    "ultraviolet</w>": 4606,
    "ume</w>": 4607,
    "unchecked</w>": 4608,
    "unconditioned</w>": 4609,
    "uncountably</w>": 4610,
    "unit</w>": 4611,
    "unlabeled</w>": 4612,
    "unless</w>": 4613,
    "unpaid</w>": 4614,
    "unprecedented</w>": 4615,
    "unreactive</w>": 4616,
    "unreliable</w>": 4617,
    "unw": 4618,
    "underlying</w>": 4619,
    "undesirable</w>": 4620,
    "uniform</w>": 4621,
    "union</w>": 4622,
    "uniquely</w>": 4623,
    "univer": 4624,
    "universal</w>": 4625,
    "unwinds</w>": 4626,
    "update</w>": 4627,
    "updates</w>": 4628,
    "useful</w>": 4629,
    "vector</w>": 4630,
    "voyages</w>": 4631,
    "valence</w>": 4632,
    "vehicles</w>": 4633,
    "veil</w>": 4634,
    "velengths</w>": 4635,
    "verification</w>": 4636,
    "view</w>": 4637,
    "views</w>": 4638,
    "villages</w>": 4639,
    "visible</w>": 4640,
    "vision</w>": 4641,
    "volcanic</w>": 4642,
    "volume</w>": 4643,
    "voluntary</w>": 4644,
    "walking</w>": 4645,
    "war</w>": 4646,
    "welding</w>": 4647,
    "well</w>": 4648,
    "wind</w>": 4649,
    "writers</w>": 4650,
    "wrong</w>": 4651,
    "wavelengths</w>": 4652,
    "way</w>": 4653,
    "wars</w>": 4654,
    "weapons</w>": 4655,
    "weaving</w>": 4656,
    "web</w>": 4657,
    "webs</w>": 4658,
    "wheat</w>": 4659,
    "widely</w>": 4660,
    "within</w>": 4661,
    "work</w>": 4662,
    "workers</w>": 4663,
    "workloads</w>": 4664,
    "worlds</w>": 4665,
    "zones</w>": 4666,
    "17</w>": 4667,
    "19</w>": 4668,
    "20</w>": 4669,
    "21</w>": 4670,
    "22</w>": 4671,
    "23</w>": 4672,
    "24</w>": 4673,
    "25</w>": 4674,
    "26</w>": 4675,
    "27</w>": 4676,
    "28</w>": 4677,
    "29</w>": 4678,
    "30</w>": 4679,
    "31</w>": 4680,
    "32</w>": 4681,
    "33</w>": 4682,
    "34</w>": 4683,
    "35</w>": 4684,
    "36</w>": 4685,
    "37</w>": 4686,
    "38</w>": 4687,
    "41</w>": 4688,
    "42</w>": 4689,
    "43</w>": 4690,
    "44</w>": 4691,
    "45</w>": 4692,
    "46</w>": 4693,
    "47</w>": 4694,
    "48</w>": 4695,
    "49</w>": 4696,
    "50</w>": 4697,
    "51</w>": 4698,
    "52</w>": 4699,
    "53</w>": 4700,
    "54</w>": 4701,
    "55</w>": 4702,
    "56</w>": 4703,
    "57</w>": 4704,
    "58</w>": 4705,
    "59</w>": 4706,
    "60</w>": 4707,
    "61</w>": 4708,
    "62</w>": 4709,
    "63</w>": 4710,
    "64</w>": 4711,
    "65</w>": 4712,
    "66</w>": 4713,
    "67</w>": 4714,
    "68</w>": 4715,
    "Sec": 4716,
    "Section</w>": 4717
  },
  "merges": [
    [
      "s",
      "</w>"
    ],
    [
      "e",
      "</w>"
    ],
    [
      "i",
      "n"
    ],
    [
      "a",
      "n"
    ],
    [
      "d",
      "</w>"
    ],
    [
      "o",
      "n"
    ],
    [
      "t",
      "i"
    ],
    [
      "t",
      "h"
    ],
    [
      "e",
      "r"
    ],
    [
      ",",
      "</w>"
    ],
    [
      ".",
      "</w>"
    ],
    [
      "e",
      "n"
    ],
    [
      "e",
      "s</w>"
    ],
    [
      "o",
      "r"
    ],
    [
      "a",
      "l"
    ],
    [
      "y",
      "</w>"
    ],
    [
      "t",
      "</w>"
    ],
    [
      "r",
      "o"
    ],
    [
      "ti",
      "on"
    ],
    [
      "an",
      "d</w>"
    ],
    [
      "a",
      "r"
    ],
    [
      "g",
      "</w>"
    ],
    [
      "in",
      "g</w>"
    ],
    [
      "r",
      "e"
    ],
    [
      "i",
      "c"
    ],
    [
      "a",
      "t"
    ],
    [
      "al",
      "</w>"
    ],
    [
      "e",
      "d</w>"
    ],
    [
      "th",
      "e</w>"
    ],
    [
      "s",
      "t"
    ],
    [
      "o",
      "f"
    ],
    [
      "tion",
      "</w>"
    ],
    [
      "of",
      "</w>"
    ],
    [
      "e",
      "m"
    ],
    [
      "t",
      "o"
    ],
    [
      "e",
      "c"
    ],
    [
      "e",
      "l"
    ],
    [
      "a",
      "c"
    ],
    [
      "l",
      "i"
    ],
    [
      "o",
      "m"
    ],
    [
      "t",
      "r"
    ],
    [
      "to",
      "</w>"
    ],
    [
      "o",
      "l"
    ],
    [
      "u",
      "r"
    ],
    [
      "p",
      "ro"
    ],
    [
      "a",
      "</w>"
    ],
    [
      "d",
      "i"
    ],
    [
      "f",
      "or"
    ],
    [
      "t",
      "s</w>"
    ],
    [
      "u",
      "n"
    ],
    [
      "er",
      "</w>"
    ],
    [
      "a",
      "s"
    ],
    [
      "e",
      "s"
    ],
    [
      "in",
      "</w>"
    ],
    [
      "m",
      "</w>"
    ],
    [
      "a",
      "tion</w>"
    ],
    [
      "a",
      "b"
    ],
    [
      "p",
      "l"
    ],
    [
      "v",
      "i"
    ],
    [
      "[",
      "</w>"
    ],
    [
      "]",
      "</w>"
    ],
    [
      "an",
      "</w>"
    ],
    [
      "=",
      "="
    ],
    [
      "c",
      "h"
    ],
    [
      "e",
      "x"
    ],
    [
      "en",
      "t</w>"
    ],
    [
      "r",
      "i"
    ],
    [
      "tion",
      "s</w>"
    ],
    [
      "c",
      "on"
    ],
    [
      "ti",
      "c"
    ],
    [
      "l",
      "e</w>"
    ],
    [
      "T",
      "h"
    ],
    [
      "s",
      "i"
    ],
    [
      "g",
      "h"
    ],
    [
      "v",
      "e</w>"
    ],
    [
      "a",
      "g"
    ],
    [
      "a",
      "p"
    ],
    [
      "on",
      "</w>"
    ],
    [
      "Th",
      "e</w>"
    ],
    [
      "er",
      "s</w>"
    ],
    [
      "q",
      "u"
    ],
    [
      "t",
      "y</w>"
    ],
    [
      "d",
      "e"
    ],
    [
      "o",
      "w"
    ],
    [
      "u",
      "c"
    ],
    [
      "o",
      "c"
    ],
    [
      "u",
      "s"
    ],
    [
      "th",
      "</w>"
    ],
    [
      "u",
      "l"
    ],
    [
      "a",
      "t</w>"
    ],
    [
      "e",
      "t"
    ],
    [
      "s",
      "p"
    ],
    [
      "c",
      "om"
    ],
    [
      "ic",
      "</w>"
    ],
    [
      "o",
      "p"
    ],
    [
      "u",
      "m"
    ],
    [
      "h",
      "i"
    ],
    [
      "t",
      "er"
    ],
    [
      "a",
      "d"
    ],
    [
      "a",
      "m"
    ],
    [
      "en",
      "c"
    ],
    [
      "s",
      "y"
    ],
    [
      "i",
      "r"
    ],
    [
      "l",
      "y</w>"
    ],
    [
      "ro",
      "u"
    ],
    [
      "o",
      "d"
    ],
    [
      "ar",
      "e</w>"
    ],
    [
      "b",
      "y</w>"
    ],
    [
      "p",
      "er"
    ],
    [
      "en",
      "t"
    ],
    [
      "o",
      "u"
    ],
    [
      "w",
      "i"
    ],
    [
      "-",
      "</w>"
    ],
    [
      "at",
      "es</w>"
    ],
    [
      "th",
      "e"
    ],
    [
      "a",
      "s</w>"
    ],
    [
      "a",
      "tions</w>"
    ],
    [
      "d",
      "uc"
    ],
    [
      "en",
      "</w>"
    ],
    [
      "i",
      "s"
    ],
    [
      "ic",
      "al</w>"
    ],
    [
      "l",
      "e"
    ],
    [
      "r",
      "a"
    ],
    [
      "th",
      "at</w>"
    ],
    [
      "v",
      "er"
    ],
    [
      "==",
      "=="
    ],
    [
      "f",
      "ro"
    ],
    [
      "fro",
      "m</w>"
    ],
    [
      "an",
      "g"
    ],
    [
      "for",
      "m"
    ],
    [
      "or",
      "</w>"
    ],
    [
      "s",
      "u"
    ],
    [
      "o",
      "g"
    ],
    [
      "o",
      "s"
    ],
    [
      "at",
      "e</w>"
    ],
    [
      "for",
      "</w>"
    ],
    [
      "i",
      "z"
    ],
    [
      "rou",
      "gh"
    ],
    [
      "st",
      "em"
    ],
    [
      "w",
      "or"
    ],
    [
      "s",
      "e"
    ],
    [
      "i",
      "m"
    ],
    [
      "k",
      "e</w>"
    ],
    [
      "m",
      "e"
    ],
    [
      "th",
      "rough"
    ],
    [
      "ti",
      "ve</w>"
    ],
    [
      "vi",
      "d"
    ],
    [
      "h",
      "</w>"
    ],
    [
      "l",
      "a"
    ],
    [
      "sy",
      "stem"
    ],
    [
      "tr",
      "an"
    ],
    [
      "wi",
      "th</w>"
    ],
    [
      "i",
      "l"
    ],
    [
      "i",
      "s</w>"
    ],
    [
      "n",
      "e"
    ],
    [
      "p",
      "h"
    ],
    [
      "s",
      "h"
    ],
    [
      "through",
      "</w>"
    ],
    [
      "tic",
      "</w>"
    ],
    [
      "un",
      "d"
    ],
    [
      "w",
      "</w>"
    ],
    [
      "p",
      "u"
    ],
    [
      "al",
      "s</w>"
    ],
    [
      "ar",
      "</w>"
    ],
    [
      "i",
      "ty</w>"
    ],
    [
      "in",
      "c"
    ],
    [
      "v",
      "el"
    ],
    [
      "or",
      "y</w>"
    ],
    [
      "ab",
      "le</w>"
    ],
    [
      "c",
      "es"
    ],
    [
      "el",
      "ec"
    ],
    [
      "i",
      "es</w>"
    ],
    [
      "k",
      "</w>"
    ],
    [
      "l",
      "es</w>"
    ],
    [
      "m",
      "ent</w>"
    ],
    [
      "st",
      "r"
    ],
    [
      "w",
      "h"
    ],
    [
      "enc",
      "e</w>"
    ],
    [
      "at",
      "ed</w>"
    ],
    [
      "c",
      "e</w>"
    ],
    [
      "en",
      "er"
    ],
    [
      "en",
      "ts</w>"
    ],
    [
      "l",
      "u"
    ],
    [
      "li",
      "ke</w>"
    ],
    [
      "on",
      "s</w>"
    ],
    [
      "tran",
      "s"
    ],
    [
      "v",
      "ol"
    ],
    [
      "a",
      "in"
    ],
    [
      "d",
      "s</w>"
    ],
    [
      "e",
      "qu"
    ],
    [
      "i",
      "t"
    ],
    [
      "in",
      "ter"
    ],
    [
      "o",
      "b"
    ],
    [
      "p",
      "re"
    ],
    [
      "t",
      "ur"
    ],
    [
      "w",
      "e"
    ],
    [
      "1",
      "</w>"
    ],
    [
      "c",
      "el"
    ],
    [
      "elec",
      "tr"
    ],
    [
      "g",
      "r"
    ],
    [
      "in",
      "f"
    ],
    [
      "k",
      "e"
    ],
    [
      "k",
      "s</w>"
    ],
    [
      "t",
      "ing</w>"
    ],
    [
      "al",
      "l"
    ],
    [
      "ar",
      "y</w>"
    ],
    [
      "c",
      "o"
    ],
    [
      "h",
      "a"
    ],
    [
      "n",
      "</w>"
    ],
    [
      "o",
      "</w>"
    ],
    [
      "p",
      "o"
    ],
    [
      "pro",
      "duc"
    ],
    [
      "st",
      "or"
    ],
    [
      "ti",
      "m"
    ],
    [
      "vel",
      "op"
    ],
    [
      "2",
      "</w>"
    ],
    [
      "4",
      "</w>"
    ],
    [
      "5",
      "</w>"
    ],
    [
      "c",
      "i"
    ],
    [
      "ol",
      "og"
    ],
    [
      "b",
      "u"
    ],
    [
      "c",
      "an</w>"
    ],
    [
      "en",
      "ti"
    ],
    [
      "f",
      "f"
    ],
    [
      "i",
      "li"
    ],
    [
      "i",
      "ts</w>"
    ],
    [
      "in",
      "e</w>"
    ],
    [
      "l",
      "s</w>"
    ],
    [
      "ow",
      "</w>"
    ],
    [
      "p",
      "</w>"
    ],
    [
      "s",
      "er"
    ],
    [
      "system",
      "s</w>"
    ],
    [
      "t",
      "a"
    ],
    [
      "ti",
      "es</w>"
    ],
    [
      "3",
      "</w>"
    ],
    [
      "6",
      "</w>"
    ],
    [
      "====",
      "===="
    ],
    [
      "9",
      "</w>"
    ],
    [
      "ag",
      "e</w>"
    ],
    [
      "at",
      "er</w>"
    ],
    [
      "b",
      "e"
    ],
    [
      "b",
      "o"
    ],
    [
      "de",
      "velop"
    ],
    [
      "ex",
      "pl"
    ],
    [
      "gh",
      "t</w>"
    ],
    [
      "i",
      "al</w>"
    ],
    [
      "ir",
      "</w>"
    ],
    [
      "pro",
      "vid"
    ],
    [
      "s",
      "es</w>"
    ],
    [
      "v",
      "es</w>"
    ],
    [
      "0",
      "</w>"
    ],
    [
      "ic",
      "s</w>"
    ],
    [
      "t",
      "er</w>"
    ],
    [
      "'",
      "s</w>"
    ],
    [
      "b",
      "et"
    ],
    [
      "ch",
      "ang"
    ],
    [
      "em",
      "ent</w>"
    ],
    [
      "ent",
      "al</w>"
    ],
    [
      "er",
      "e</w>"
    ],
    [
      "et",
      "wor"
    ],
    [
      "for",
      "m</w>"
    ],
    [
      "m",
      "o"
    ],
    [
      "m",
      "od"
    ],
    [
      "n",
      "etwor"
    ],
    [
      "n",
      "ing</w>"
    ],
    [
      "o",
      "ur"
    ],
    [
      "on",
      "e</w>"
    ],
    [
      "p",
      "ar"
    ],
    [
      "s",
      "ical</w>"
    ],
    [
      "t",
      "e"
    ],
    [
      "un",
      "c"
    ],
    [
      "P",
      "</w>"
    ],
    [
      "al",
      "ly</w>"
    ],
    [
      "bet",
      "we"
    ],
    [
      "betwe",
      "en</w>"
    ],
    [
      "c",
      "ol"
    ],
    [
      "com",
      "pu"
    ],
    [
      "d",
      "e</w>"
    ],
    [
      "d",
      "ing</w>"
    ],
    [
      "g",
      "o"
    ],
    [
      "h",
      "um"
    ],
    [
      "hi",
      "le</w>"
    ],
    [
      "m",
      "an"
    ],
    [
      "m",
      "ar"
    ],
    [
      "m",
      "or"
    ],
    [
      "pro",
      "ces"
    ],
    [
      "sp",
      "ec"
    ],
    [
      "th",
      "er</w>"
    ],
    [
      "the",
      "ir</w>"
    ],
    [
      "v",
      "al"
    ],
    [
      "7",
      "</w>"
    ],
    [
      "8",
      "</w>"
    ],
    [
      "at",
      "ur"
    ],
    [
      "ac",
      "h"
    ],
    [
      "ad",
      "e</w>"
    ],
    [
      "an",
      "d"
    ],
    [
      "ch",
      "</w>"
    ],
    [
      "f",
      "i"
    ],
    [
      "f",
      "l"
    ],
    [
      "g",
      "an"
    ],
    [
      "ic",
      "ation</w>"
    ],
    [
      "ili",
      "ty</w>"
    ],
    [
      "m",
      "a"
    ],
    [
      "n",
      "atur"
    ],
    [
      "ph",
      "y"
    ],
    [
      "pro",
      "p"
    ],
    [
      "re",
      "c"
    ],
    [
      "ro",
      "w"
    ],
    [
      "t",
      "ed</w>"
    ],
    [
      "tion",
      "al</w>"
    ],
    [
      "w",
      "hile</w>"
    ],
    [
      "y",
      "p"
    ],
    [
      "olog",
      "y</w>"
    ],
    [
      "I",
      "n"
    ],
    [
      "ab",
      "ility</w>"
    ],
    [
      "ag",
      "es</w>"
    ],
    [
      "an",
      "ce</w>"
    ],
    [
      "ar",
      "g"
    ],
    [
      "b",
      "e</w>"
    ],
    [
      "b",
      "i"
    ],
    [
      "c",
      "es</w>"
    ],
    [
      "cel",
      "ls</w>"
    ],
    [
      "com",
      "m"
    ],
    [
      "d",
      "at"
    ],
    [
      "d",
      "em"
    ],
    [
      "ener",
      "g"
    ],
    [
      "energ",
      "y</w>"
    ],
    [
      "es",
      "c"
    ],
    [
      "f",
      "ac"
    ],
    [
      "f",
      "unc"
    ],
    [
      "g",
      "e"
    ],
    [
      "ic",
      "es</w>"
    ],
    [
      "in",
      "e"
    ],
    [
      "in",
      "es</w>"
    ],
    [
      "in",
      "to</w>"
    ],
    [
      "n",
      "i"
    ],
    [
      "oc",
      "ial</w>"
    ],
    [
      "or",
      "gan"
    ],
    [
      "ou",
      "s</w>"
    ],
    [
      "ou",
      "t</w>"
    ],
    [
      "p",
      "r"
    ],
    [
      "p",
      "ri"
    ],
    [
      "phy",
      "sical</w>"
    ],
    [
      "re",
      "e</w>"
    ],
    [
      "s",
      "hi"
    ],
    [
      "s",
      "s</w>"
    ],
    [
      "si",
      "on</w>"
    ],
    [
      "st",
      "ates</w>"
    ],
    [
      "str",
      "uc"
    ],
    [
      "t",
      "u"
    ],
    [
      "trans",
      "form"
    ],
    [
      "u",
      "s</w>"
    ],
    [
      "us",
      "ing</w>"
    ],
    [
      "w",
      "ater</w>"
    ],
    [
      "1",
      "9"
    ],
    [
      "ac",
      "h</w>"
    ],
    [
      "ar",
      "i"
    ],
    [
      "as",
      "es</w>"
    ],
    [
      "at",
      "om"
    ],
    [
      "c",
      "ul"
    ],
    [
      "c",
      "ur"
    ],
    [
      "chang",
      "e</w>"
    ],
    [
      "con",
      "t"
    ],
    [
      "d",
      "g"
    ],
    [
      "di",
      "st"
    ],
    [
      "ec",
      "on"
    ],
    [
      "en",
      "ab"
    ],
    [
      "en",
      "s"
    ],
    [
      "expl",
      "or"
    ],
    [
      "g",
      "ener"
    ],
    [
      "hum",
      "an</w>"
    ],
    [
      "in",
      "te"
    ],
    [
      "inc",
      "lu"
    ],
    [
      "k",
      "n"
    ],
    [
      "le",
      "ar"
    ],
    [
      "m",
      "em"
    ],
    [
      "n",
      "o"
    ],
    [
      "o",
      "d</w>"
    ],
    [
      "p",
      "ow"
    ],
    [
      "pro",
      "b"
    ],
    [
      "t",
      "ec"
    ],
    [
      "t",
      "es</w>"
    ],
    [
      "ta",
      "in</w>"
    ],
    [
      "ter",
      "n"
    ],
    [
      "th",
      "es"
    ],
    [
      "the",
      "ory</w>"
    ],
    [
      "tr",
      "ade</w>"
    ],
    [
      "us",
      "es</w>"
    ],
    [
      "v",
      "ing</w>"
    ],
    [
      "w",
      "a"
    ],
    [
      "wh",
      "ere</w>"
    ],
    [
      "y",
      "s</w>"
    ],
    [
      "tic",
      "s</w>"
    ],
    [
      "A",
      "</w>"
    ],
    [
      "an",
      "ti"
    ],
    [
      "at",
      "ing</w>"
    ],
    [
      "b",
      "le</w>"
    ],
    [
      "com",
      "pl"
    ],
    [
      "di",
      "es</w>"
    ],
    [
      "di",
      "rec"
    ],
    [
      "di",
      "vid"
    ],
    [
      "divid",
      "u"
    ],
    [
      "e",
      "tr"
    ],
    [
      "e",
      "v"
    ],
    [
      "enti",
      "al</w>"
    ],
    [
      "equ",
      "ations</w>"
    ],
    [
      "h",
      "ow</w>"
    ],
    [
      "h",
      "y"
    ],
    [
      "ha",
      "vi"
    ],
    [
      "in",
      "dividu"
    ],
    [
      "in",
      "v"
    ],
    [
      "in",
      "vol"
    ],
    [
      "kn",
      "ow"
    ],
    [
      "l",
      "</w>"
    ],
    [
      "m",
      "ental</w>"
    ],
    [
      "mar",
      "ke"
    ],
    [
      "mod",
      "el"
    ],
    [
      "networ",
      "ks</w>"
    ],
    [
      "o",
      "ther</w>"
    ],
    [
      "of",
      "t"
    ],
    [
      "or",
      "s</w>"
    ],
    [
      "p",
      "a"
    ],
    [
      "r",
      "yp"
    ],
    [
      "s",
      "e</w>"
    ],
    [
      "s",
      "ol"
    ],
    [
      "s",
      "t</w>"
    ],
    [
      "tim",
      "e</w>"
    ],
    [
      "um",
      "b"
    ],
    [
      "l",
      "d</w>"
    ],
    [
      "th",
      "em"
    ],
    [
      "C",
      "on"
    ],
    [
      "ac",
      "e</w>"
    ],
    [
      "ac",
      "ro"
    ],
    [
      "ac",
      "t</w>"
    ],
    [
      "ang",
      "u"
    ],
    [
      "as",
      "s"
    ],
    [
      "c",
      "e"
    ],
    [
      "c",
      "l"
    ],
    [
      "c",
      "re"
    ],
    [
      "ch",
      "em"
    ],
    [
      "con",
      "n"
    ],
    [
      "conn",
      "ec"
    ],
    [
      "d",
      "om"
    ],
    [
      "develop",
      "ment</w>"
    ],
    [
      "e",
      "ach</w>"
    ],
    [
      "e",
      "st"
    ],
    [
      "e",
      "t</w>"
    ],
    [
      "em",
      "ents</w>"
    ],
    [
      "en",
      "tr"
    ],
    [
      "er",
      "ing</w>"
    ],
    [
      "es",
      "s</w>"
    ],
    [
      "ex",
      "am"
    ],
    [
      "ex",
      "per"
    ],
    [
      "f",
      "o"
    ],
    [
      "ff",
      "er"
    ],
    [
      "form",
      "ation</w>"
    ],
    [
      "gh",
      "ts</w>"
    ],
    [
      "go",
      "ver"
    ],
    [
      "gover",
      "n"
    ],
    [
      "gr",
      "ap"
    ],
    [
      "i",
      "g"
    ],
    [
      "i",
      "t</w>"
    ],
    [
      "in",
      "formation</w>"
    ],
    [
      "is",
      "m</w>"
    ],
    [
      "iz",
      "e</w>"
    ],
    [
      "iz",
      "ed</w>"
    ],
    [
      "l",
      "angu"
    ],
    [
      "l",
      "o"
    ],
    [
      "la",
      "w</w>"
    ],
    [
      "m",
      "at"
    ],
    [
      "m",
      "in"
    ],
    [
      "m",
      "s</w>"
    ],
    [
      "n",
      "umb"
    ],
    [
      "od",
      "e</w>"
    ],
    [
      "od",
      "s</w>"
    ],
    [
      "of",
      "f"
    ],
    [
      "om",
      "etr"
    ],
    [
      "p",
      "pl"
    ],
    [
      "pre",
      "s"
    ],
    [
      "provid",
      "es</w>"
    ],
    [
      "r",
      "ates</w>"
    ],
    [
      "re",
      "d</w>"
    ],
    [
      "re",
      "la"
    ],
    [
      "re",
      "li"
    ],
    [
      "re",
      "qu"
    ],
    [
      "s",
      "our"
    ],
    [
      "s",
      "um"
    ],
    [
      "ser",
      "v"
    ],
    [
      "spec",
      "i"
    ],
    [
      "st",
      "ing</w>"
    ],
    [
      "st",
      "s</w>"
    ],
    [
      "su",
      "b"
    ],
    [
      "tic",
      "al</w>"
    ],
    [
      "tur",
      "es</w>"
    ],
    [
      "ur",
      "es</w>"
    ],
    [
      "us",
      "e</w>"
    ],
    [
      "w",
      "are</w>"
    ],
    [
      "x",
      "</w>"
    ],
    [
      "========",
      "========"
    ],
    [
      "1",
      "0</w>"
    ],
    [
      "l",
      "os"
    ],
    [
      "C",
      "h"
    ],
    [
      "C",
      "ol"
    ],
    [
      "a",
      "d</w>"
    ],
    [
      "a",
      "tional</w>"
    ],
    [
      "a",
      "u"
    ],
    [
      "ac",
      "ces"
    ],
    [
      "ac",
      "tions</w>"
    ],
    [
      "acro",
      "ss</w>"
    ],
    [
      "ain",
      "s</w>"
    ],
    [
      "al",
      "y"
    ],
    [
      "all",
      "</w>"
    ],
    [
      "an",
      "aly"
    ],
    [
      "an",
      "s</w>"
    ],
    [
      "an",
      "t</w>"
    ],
    [
      "ap",
      "p"
    ],
    [
      "as",
      "e</w>"
    ],
    [
      "be",
      "havi"
    ],
    [
      "behavi",
      "or</w>"
    ],
    [
      "c",
      "al"
    ],
    [
      "c",
      "ap"
    ],
    [
      "ch",
      "ar"
    ],
    [
      "comm",
      "un"
    ],
    [
      "con",
      "di"
    ],
    [
      "d",
      "ec"
    ],
    [
      "dat",
      "a</w>"
    ],
    [
      "dg",
      "e</w>"
    ],
    [
      "di",
      "ffer"
    ],
    [
      "el",
      "i"
    ],
    [
      "em",
      "</w>"
    ],
    [
      "en",
      "g"
    ],
    [
      "enab",
      "l"
    ],
    [
      "es",
      "t</w>"
    ],
    [
      "esc",
      "ri"
    ],
    [
      "exam",
      "ines</w>"
    ],
    [
      "f",
      "und"
    ],
    [
      "g",
      "l"
    ],
    [
      "g",
      "ra"
    ],
    [
      "g",
      "re"
    ],
    [
      "i",
      "d</w>"
    ],
    [
      "ic",
      "i"
    ],
    [
      "ine",
      "ar</w>"
    ],
    [
      "inf",
      "lu"
    ],
    [
      "it",
      "e</w>"
    ],
    [
      "iz",
      "ation</w>"
    ],
    [
      "k",
      "ing</w>"
    ],
    [
      "l",
      "ab"
    ],
    [
      "l",
      "ate</w>"
    ],
    [
      "l",
      "og"
    ],
    [
      "lear",
      "ning</w>"
    ],
    [
      "li",
      "ght</w>"
    ],
    [
      "m",
      "et"
    ],
    [
      "me",
      "as"
    ],
    [
      "mem",
      "ory</w>"
    ],
    [
      "natur",
      "al</w>"
    ],
    [
      "o",
      "t"
    ],
    [
      "o",
      "us"
    ],
    [
      "oc",
      "cur"
    ],
    [
      "on",
      "g</w>"
    ],
    [
      "op",
      "ul"
    ],
    [
      "or",
      "i"
    ],
    [
      "p",
      "opul"
    ],
    [
      "pl",
      "e</w>"
    ],
    [
      "po",
      "si"
    ],
    [
      "ppl",
      "y</w>"
    ],
    [
      "proces",
      "ses</w>"
    ],
    [
      "prop",
      "os"
    ],
    [
      "qu",
      "anti"
    ],
    [
      "r",
      "an"
    ],
    [
      "re",
      "as"
    ],
    [
      "rela",
      "tion"
    ],
    [
      "relation",
      "shi"
    ],
    [
      "ro",
      "p"
    ],
    [
      "ryp",
      "tion</w>"
    ],
    [
      "s",
      "am"
    ],
    [
      "s",
      "ocial</w>"
    ],
    [
      "se",
      "qu"
    ],
    [
      "sh",
      "ap"
    ],
    [
      "si",
      "s</w>"
    ],
    [
      "st",
      "u"
    ],
    [
      "t",
      "al</w>"
    ],
    [
      "t",
      "ation</w>"
    ],
    [
      "t",
      "en"
    ],
    [
      "th",
      "an</w>"
    ],
    [
      "ti",
      "vi"
    ],
    [
      "tr",
      "a"
    ],
    [
      "u",
      "p"
    ],
    [
      "u",
      "tion</w>"
    ],
    [
      "ul",
      "es</w>"
    ],
    [
      "v",
      "er</w>"
    ],
    [
      "v",
      "ers</w>"
    ],
    [
      "val",
      "u"
    ],
    [
      "1",
      "1</w>"
    ],
    [
      "1",
      "2</w>"
    ],
    [
      "1",
      "3</w>"
    ],
    [
      "1",
      "4</w>"
    ],
    [
      "1",
      "5</w>"
    ],
    [
      "1",
      "6</w>"
    ],
    [
      "h",
      "y</w>"
    ],
    [
      "sy",
      "ch"
    ],
    [
      ":",
      "</w>"
    ],
    [
      "A",
      "l"
    ],
    [
      "D",
      "e"
    ],
    [
      "P",
      "ro"
    ],
    [
      "U",
      "n"
    ],
    [
      "a",
      "tive</w>"
    ],
    [
      "ab",
      "li"
    ],
    [
      "abli",
      "sh"
    ],
    [
      "ablish",
      "ed</w>"
    ],
    [
      "acces",
      "s</w>"
    ],
    [
      "ach",
      "ine</w>"
    ],
    [
      "al",
      "g"
    ],
    [
      "al",
      "ity</w>"
    ],
    [
      "all",
      "ow"
    ],
    [
      "am",
      "ental</w>"
    ],
    [
      "an",
      "other</w>"
    ],
    [
      "an",
      "t"
    ],
    [
      "ar",
      "ch"
    ],
    [
      "ar",
      "ch</w>"
    ],
    [
      "ar",
      "d"
    ],
    [
      "b",
      "er"
    ],
    [
      "b",
      "es</w>"
    ],
    [
      "b",
      "on"
    ],
    [
      "bu",
      "t</w>"
    ],
    [
      "c",
      "ar"
    ],
    [
      "c",
      "ent"
    ],
    [
      "c",
      "ode</w>"
    ],
    [
      "c",
      "or"
    ],
    [
      "cent",
      "ur"
    ],
    [
      "char",
      "ac"
    ],
    [
      "chem",
      "ical</w>"
    ],
    [
      "co",
      "un"
    ],
    [
      "compu",
      "ter</w>"
    ],
    [
      "d",
      "escri"
    ],
    [
      "d",
      "ur"
    ],
    [
      "di",
      "s"
    ],
    [
      "e",
      "ff"
    ],
    [
      "e",
      "vol"
    ],
    [
      "ec",
      "ts</w>"
    ],
    [
      "econ",
      "om"
    ],
    [
      "el",
      "y</w>"
    ],
    [
      "en",
      "e"
    ],
    [
      "enabl",
      "ing</w>"
    ],
    [
      "enc",
      "y</w>"
    ],
    [
      "er",
      "n</w>"
    ],
    [
      "est",
      "ablished</w>"
    ],
    [
      "f",
      "ic</w>"
    ],
    [
      "func",
      "tion</w>"
    ],
    [
      "func",
      "tions</w>"
    ],
    [
      "g",
      "i"
    ],
    [
      "g",
      "row"
    ],
    [
      "ge",
      "ometr"
    ],
    [
      "grow",
      "th</w>"
    ],
    [
      "ha",
      "ve</w>"
    ],
    [
      "i",
      "d"
    ],
    [
      "il",
      "</w>"
    ],
    [
      "in",
      "ite</w>"
    ],
    [
      "inc",
      "i"
    ],
    [
      "inte",
      "gr"
    ],
    [
      "invol",
      "ve</w>"
    ],
    [
      "it",
      "ed</w>"
    ],
    [
      "j",
      "us"
    ],
    [
      "ke",
      "y</w>"
    ],
    [
      "know",
      "le"
    ],
    [
      "knowle",
      "dge</w>"
    ],
    [
      "l",
      "inear</w>"
    ],
    [
      "langu",
      "age</w>"
    ],
    [
      "li",
      "f"
    ],
    [
      "li",
      "tical</w>"
    ],
    [
      "m",
      "ag"
    ],
    [
      "m",
      "e</w>"
    ],
    [
      "m",
      "ing</w>"
    ],
    [
      "marke",
      "ts</w>"
    ],
    [
      "meas",
      "ures</w>"
    ],
    [
      "mor",
      "e</w>"
    ],
    [
      "ne",
      "t</w>"
    ],
    [
      "ne",
      "ur"
    ],
    [
      "ni",
      "tive</w>"
    ],
    [
      "no",
      "t</w>"
    ],
    [
      "o",
      "ver</w>"
    ],
    [
      "ob",
      "j"
    ],
    [
      "oft",
      "ware</w>"
    ],
    [
      "og",
      "nitive</w>"
    ],
    [
      "ori",
      "th"
    ],
    [
      "p",
      "or"
    ],
    [
      "p",
      "s</w>"
    ],
    [
      "p",
      "sych"
    ],
    [
      "par",
      "tic"
    ],
    [
      "per",
      "form"
    ],
    [
      "pl",
      "es</w>"
    ],
    [
      "pow",
      "er</w>"
    ],
    [
      "pro",
      "per"
    ],
    [
      "provid",
      "e</w>"
    ],
    [
      "re",
      "a"
    ],
    [
      "re",
      "sp"
    ],
    [
      "reli",
      "able</w>"
    ],
    [
      "resp",
      "on"
    ],
    [
      "rou",
      "p</w>"
    ],
    [
      "rou",
      "tes</w>"
    ],
    [
      "s",
      "a"
    ],
    [
      "s",
      "ec"
    ],
    [
      "s",
      "ens"
    ],
    [
      "se",
      "arch</w>"
    ],
    [
      "sp",
      "ace</w>"
    ],
    [
      "stu",
      "dies</w>"
    ],
    [
      "su",
      "pply</w>"
    ],
    [
      "sy",
      "n"
    ],
    [
      "system",
      "</w>"
    ],
    [
      "t",
      "ers</w>"
    ],
    [
      "the",
      "or"
    ],
    [
      "the",
      "y</w>"
    ],
    [
      "thes",
      "e</w>"
    ],
    [
      "tivi",
      "ty</w>"
    ],
    [
      "tur",
      "e</w>"
    ],
    [
      "u",
      "m</w>"
    ],
    [
      "un",
      "d</w>"
    ],
    [
      "v",
      "e"
    ],
    [
      "v",
      "ed</w>"
    ],
    [
      "wi",
      "th"
    ],
    [
      "W",
      "or"
    ],
    [
      "ec",
      "h"
    ],
    [
      "hi",
      "los"
    ],
    [
      "hilos",
      "op"
    ],
    [
      "them",
      "a"
    ],
    [
      "D",
      "N"
    ],
    [
      "E",
      "ar"
    ],
    [
      "N",
      "e"
    ],
    [
      "Q",
      "u"
    ],
    [
      "W",
      "ar</w>"
    ],
    [
      "a",
      "ro"
    ],
    [
      "ab",
      "les</w>"
    ],
    [
      "ab",
      "out</w>"
    ],
    [
      "ac",
      "k</w>"
    ],
    [
      "ac",
      "tion</w>"
    ],
    [
      "ad",
      "d"
    ],
    [
      "ad",
      "ing</w>"
    ],
    [
      "ad",
      "s</w>"
    ],
    [
      "alg",
      "orith"
    ],
    [
      "an",
      "ning</w>"
    ],
    [
      "an",
      "ts</w>"
    ],
    [
      "analy",
      "sis</w>"
    ],
    [
      "ap",
      "pl"
    ],
    [
      "ar",
      "ies</w>"
    ],
    [
      "arg",
      "um"
    ],
    [
      "aro",
      "und</w>"
    ],
    [
      "as",
      "ks</w>"
    ],
    [
      "as",
      "s</w>"
    ],
    [
      "as",
      "t</w>"
    ],
    [
      "at",
      "tern"
    ],
    [
      "atom",
      "ic</w>"
    ],
    [
      "attern",
      "s</w>"
    ],
    [
      "b",
      "</w>"
    ],
    [
      "b",
      "as"
    ],
    [
      "bo",
      "und"
    ],
    [
      "bon",
      "ds</w>"
    ],
    [
      "bound",
      "aries</w>"
    ],
    [
      "bu",
      "il"
    ],
    [
      "c",
      "an"
    ],
    [
      "c",
      "entr"
    ],
    [
      "centur",
      "y</w>"
    ],
    [
      "col",
      "l"
    ],
    [
      "com",
      "p"
    ],
    [
      "commun",
      "ication</w>"
    ],
    [
      "compl",
      "ex"
    ],
    [
      "con",
      "st"
    ],
    [
      "con",
      "sum"
    ],
    [
      "con",
      "ver"
    ],
    [
      "cont",
      "ro"
    ],
    [
      "d",
      "er"
    ],
    [
      "d",
      "ic"
    ],
    [
      "d",
      "oc"
    ],
    [
      "d",
      "ou"
    ],
    [
      "d",
      "u"
    ],
    [
      "dem",
      "oc"
    ],
    [
      "descri",
      "bes</w>"
    ],
    [
      "develop",
      "ed</w>"
    ],
    [
      "dist",
      "ri"
    ],
    [
      "distri",
      "bu"
    ],
    [
      "dom",
      "es"
    ],
    [
      "e",
      "ar"
    ],
    [
      "e",
      "p</w>"
    ],
    [
      "ec",
      "t"
    ],
    [
      "ec",
      "ules</w>"
    ],
    [
      "ech",
      "an"
    ],
    [
      "econom",
      "ic</w>"
    ],
    [
      "eff",
      "ici"
    ],
    [
      "electr",
      "on</w>"
    ],
    [
      "en",
      "a</w>"
    ],
    [
      "en",
      "d"
    ],
    [
      "en",
      "om"
    ],
    [
      "en",
      "s</w>"
    ],
    [
      "en",
      "vi"
    ],
    [
      "enc",
      "ed</w>"
    ],
    [
      "enc",
      "ryption</w>"
    ],
    [
      "enom",
      "ena</w>"
    ],
    [
      "ent",
      "ed</w>"
    ],
    [
      "envi",
      "r"
    ],
    [
      "envir",
      "on"
    ],
    [
      "er",
      "v"
    ],
    [
      "es",
      "p"
    ],
    [
      "es",
      "ti"
    ],
    [
      "evol",
      "ution</w>"
    ],
    [
      "ex",
      "change</w>"
    ],
    [
      "exper",
      "i"
    ],
    [
      "f",
      "er"
    ],
    [
      "f",
      "ir"
    ],
    [
      "fac",
      "t"
    ],
    [
      "fo",
      "und"
    ],
    [
      "fund",
      "amental</w>"
    ],
    [
      "gra",
      "m</w>"
    ],
    [
      "grap",
      "h</w>"
    ],
    [
      "h",
      "e"
    ],
    [
      "hi",
      "gh"
    ],
    [
      "i",
      "de"
    ],
    [
      "i",
      "ons</w>"
    ],
    [
      "i",
      "ties</w>"
    ],
    [
      "ic",
      "e</w>"
    ],
    [
      "ic",
      "h</w>"
    ],
    [
      "in",
      "n"
    ],
    [
      "in",
      "pu"
    ],
    [
      "in",
      "u"
    ],
    [
      "inclu",
      "ding</w>"
    ],
    [
      "individu",
      "al</w>"
    ],
    [
      "individu",
      "als</w>"
    ],
    [
      "inte",
      "g"
    ],
    [
      "inter",
      "v"
    ],
    [
      "ir",
      "e</w>"
    ],
    [
      "k",
      "ed</w>"
    ],
    [
      "l",
      "ess</w>"
    ],
    [
      "li",
      "m"
    ],
    [
      "m",
      "achine</w>"
    ],
    [
      "m",
      "echan"
    ],
    [
      "m",
      "ents</w>"
    ],
    [
      "m",
      "ol"
    ],
    [
      "m",
      "on"
    ],
    [
      "m",
      "ul"
    ],
    [
      "ma",
      "thema"
    ],
    [
      "mat",
      "er"
    ],
    [
      "met",
      "als</w>"
    ],
    [
      "mol",
      "ecules</w>"
    ],
    [
      "ne",
      "w</w>"
    ],
    [
      "numb",
      "ers</w>"
    ],
    [
      "o",
      "ver"
    ],
    [
      "ob",
      "serv"
    ],
    [
      "oc",
      "e"
    ],
    [
      "oc",
      "i"
    ],
    [
      "op",
      "er"
    ],
    [
      "or",
      "ity</w>"
    ],
    [
      "os",
      "e</w>"
    ],
    [
      "ou",
      "t"
    ],
    [
      "p",
      "atterns</w>"
    ],
    [
      "p",
      "ol"
    ],
    [
      "ph",
      "enomena</w>"
    ],
    [
      "pr",
      "ices</w>"
    ],
    [
      "pr",
      "inci"
    ],
    [
      "pro",
      "tec"
    ],
    [
      "prob",
      "ability</w>"
    ],
    [
      "prob",
      "l"
    ],
    [
      "proces",
      "s</w>"
    ],
    [
      "produc",
      "ers</w>"
    ],
    [
      "prop",
      "ag"
    ],
    [
      "proper",
      "ties</w>"
    ],
    [
      "propos",
      "ed</w>"
    ],
    [
      "psych",
      "ology</w>"
    ],
    [
      "ra",
      "ys</w>"
    ],
    [
      "re",
      "duc"
    ],
    [
      "re",
      "pres"
    ],
    [
      "relationshi",
      "ps</w>"
    ],
    [
      "respon",
      "ses</w>"
    ],
    [
      "s",
      "cal"
    ],
    [
      "s",
      "ci"
    ],
    [
      "s",
      "econ"
    ],
    [
      "s",
      "ed</w>"
    ],
    [
      "s",
      "em"
    ],
    [
      "s",
      "ing</w>"
    ],
    [
      "s",
      "oftware</w>"
    ],
    [
      "s",
      "on</w>"
    ],
    [
      "s",
      "ur"
    ],
    [
      "sam",
      "e</w>"
    ],
    [
      "se",
      "t</w>"
    ],
    [
      "si",
      "ons</w>"
    ],
    [
      "sour",
      "ces</w>"
    ],
    [
      "sp",
      "h"
    ],
    [
      "speci",
      "fic</w>"
    ],
    [
      "stor",
      "s</w>"
    ],
    [
      "str",
      "and</w>"
    ],
    [
      "struc",
      "tures</w>"
    ],
    [
      "su",
      "ch</w>"
    ],
    [
      "sy",
      "m"
    ],
    [
      "t",
      "asks</w>"
    ],
    [
      "tec",
      "h"
    ],
    [
      "th",
      "er"
    ],
    [
      "th",
      "ree</w>"
    ],
    [
      "th",
      "s</w>"
    ],
    [
      "ti",
      "f"
    ],
    [
      "ti",
      "ves</w>"
    ],
    [
      "tic",
      "e</w>"
    ],
    [
      "tr",
      "i"
    ],
    [
      "transform",
      "ations</w>"
    ],
    [
      "u",
      "t"
    ],
    [
      "un",
      "i"
    ],
    [
      "us",
      "ed</w>"
    ],
    [
      "v",
      "ari"
    ],
    [
      "ver",
      "y</w>"
    ],
    [
      "w",
      "as</w>"
    ],
    [
      "wh",
      "en</w>"
    ],
    [
      "wh",
      "ich</w>"
    ],
    [
      "wi",
      "de</w>"
    ],
    [
      "with",
      "out</w>"
    ],
    [
      "wor",
      "l"
    ],
    [
      "hilosop",
      "hy</w>"
    ],
    [
      "'",
      "</w>"
    ],
    [
      "1",
      "4"
    ],
    [
      "1",
      "8"
    ],
    [
      "A",
      "r"
    ],
    [
      "B",
      "e"
    ],
    [
      "B",
      "ri"
    ],
    [
      "Bri",
      "tain</w>"
    ],
    [
      "C",
      "P</w>"
    ],
    [
      "C",
      "al"
    ],
    [
      "Col",
      "d</w>"
    ],
    [
      "D",
      "P</w>"
    ],
    [
      "D",
      "ec"
    ],
    [
      "DN",
      "A</w>"
    ],
    [
      "E",
      "u"
    ],
    [
      "E",
      "x"
    ],
    [
      "Ear",
      "th</w>"
    ],
    [
      "Eu",
      "rop"
    ],
    [
      "G",
      "re"
    ],
    [
      "I",
      "</w>"
    ],
    [
      "I",
      "P</w>"
    ],
    [
      "M",
      "od"
    ],
    [
      "O",
      "</w>"
    ],
    [
      "O",
      "per"
    ],
    [
      "R",
      "a"
    ],
    [
      "R",
      "evolution</w>"
    ],
    [
      "R",
      "om"
    ],
    [
      "Rom",
      "an</w>"
    ],
    [
      "S",
      "o"
    ],
    [
      "S",
      "oc"
    ],
    [
      "S",
      "ocial</w>"
    ],
    [
      "S",
      "t"
    ],
    [
      "So",
      "vi"
    ],
    [
      "Soc",
      "rates</w>"
    ],
    [
      "Sovi",
      "et</w>"
    ],
    [
      "T",
      "CP</w>"
    ],
    [
      "T",
      "P</w>"
    ],
    [
      "T",
      "ran"
    ],
    [
      "U",
      "ni"
    ],
    [
      "Un",
      "ited</w>"
    ],
    [
      "Uni",
      "on</w>"
    ],
    [
      "a",
      "in</w>"
    ],
    [
      "a",
      "ti"
    ],
    [
      "a",
      "tic"
    ],
    [
      "a",
      "v"
    ],
    [
      "ab",
      "ases</w>"
    ],
    [
      "ac",
      "tivity</w>"
    ],
    [
      "ach",
      "ed</w>"
    ],
    [
      "add",
      "re"
    ],
    [
      "ag",
      "ement</w>"
    ],
    [
      "ain",
      "ing</w>"
    ],
    [
      "al",
      "i"
    ],
    [
      "al",
      "ism</w>"
    ],
    [
      "allow",
      "s</w>"
    ],
    [
      "am",
      "s</w>"
    ],
    [
      "an",
      "ces</w>"
    ],
    [
      "an",
      "ing</w>"
    ],
    [
      "an",
      "tu"
    ],
    [
      "and",
      "ar"
    ],
    [
      "andar",
      "d</w>"
    ],
    [
      "antu",
      "m</w>"
    ],
    [
      "ap",
      "pro"
    ],
    [
      "app",
      "ing</w>"
    ],
    [
      "app",
      "li"
    ],
    [
      "ar",
      "is"
    ],
    [
      "ar",
      "ra"
    ],
    [
      "arg",
      "e</w>"
    ],
    [
      "as",
      "h</w>"
    ],
    [
      "as",
      "sical</w>"
    ],
    [
      "atic",
      "ally</w>"
    ],
    [
      "au",
      "th"
    ],
    [
      "auth",
      "ority</w>"
    ],
    [
      "b",
      "an"
    ],
    [
      "b",
      "ar"
    ],
    [
      "b",
      "l"
    ],
    [
      "b",
      "ol"
    ],
    [
      "b",
      "or"
    ],
    [
      "bo",
      "dies</w>"
    ],
    [
      "bol",
      "ic</w>"
    ],
    [
      "c",
      "er"
    ],
    [
      "c",
      "le</w>"
    ],
    [
      "c",
      "lu"
    ],
    [
      "c",
      "ognitive</w>"
    ],
    [
      "can",
      "not</w>"
    ],
    [
      "ce",
      "p"
    ],
    [
      "centr",
      "al</w>"
    ],
    [
      "compu",
      "ting</w>"
    ],
    [
      "con",
      "duc"
    ],
    [
      "con",
      "si"
    ],
    [
      "con",
      "tain</w>"
    ],
    [
      "condi",
      "tion"
    ],
    [
      "condi",
      "tions</w>"
    ],
    [
      "connec",
      "ted</w>"
    ],
    [
      "cont",
      "inu"
    ],
    [
      "cre",
      "ated</w>"
    ],
    [
      "cre",
      "ating</w>"
    ],
    [
      "cul",
      "us</w>"
    ],
    [
      "d",
      "el"
    ],
    [
      "d",
      "in"
    ],
    [
      "d",
      "r"
    ],
    [
      "d",
      "ri"
    ],
    [
      "d",
      "wide</w>"
    ],
    [
      "dat",
      "abases</w>"
    ],
    [
      "de",
      "f"
    ],
    [
      "de",
      "p"
    ],
    [
      "de",
      "struc"
    ],
    [
      "de",
      "ter"
    ],
    [
      "dem",
      "and</w>"
    ],
    [
      "di",
      "vi"
    ],
    [
      "differ",
      "ent</w>"
    ],
    [
      "differ",
      "ential</w>"
    ],
    [
      "direc",
      "t"
    ],
    [
      "direc",
      "tion</w>"
    ],
    [
      "direct",
      "ly</w>"
    ],
    [
      "distribu",
      "tion</w>"
    ],
    [
      "doc",
      "um"
    ],
    [
      "domes",
      "tic</w>"
    ],
    [
      "dou",
      "ble</w>"
    ],
    [
      "du",
      "st"
    ],
    [
      "dur",
      "ing</w>"
    ],
    [
      "dust",
      "ri"
    ],
    [
      "e",
      "ed</w>"
    ],
    [
      "e",
      "ig"
    ],
    [
      "e",
      "very</w>"
    ],
    [
      "e",
      "y</w>"
    ],
    [
      "ec",
      "t</w>"
    ],
    [
      "el",
      "</w>"
    ],
    [
      "electr",
      "ic</w>"
    ],
    [
      "electr",
      "on"
    ],
    [
      "electr",
      "ons</w>"
    ],
    [
      "em",
      "o"
    ],
    [
      "em",
      "ph"
    ],
    [
      "em",
      "s</w>"
    ],
    [
      "emph",
      "as"
    ],
    [
      "en",
      "tion</w>"
    ],
    [
      "enab",
      "les</w>"
    ],
    [
      "eng",
      "ine"
    ],
    [
      "engine",
      "ering</w>"
    ],
    [
      "environ",
      "ment</w>"
    ],
    [
      "equ",
      "als</w>"
    ],
    [
      "er",
      "arch"
    ],
    [
      "es",
      "e</w>"
    ],
    [
      "et",
      "ing</w>"
    ],
    [
      "ev",
      "ent</w>"
    ],
    [
      "ex",
      "p"
    ],
    [
      "ex",
      "pres"
    ],
    [
      "experi",
      "ence</w>"
    ],
    [
      "expl",
      "ains</w>"
    ],
    [
      "f",
      "</w>"
    ],
    [
      "f",
      "oc"
    ],
    [
      "fi",
      "ve</w>"
    ],
    [
      "fir",
      "st</w>"
    ],
    [
      "fl",
      "ow"
    ],
    [
      "fo",
      "od</w>"
    ],
    [
      "for",
      "c"
    ],
    [
      "g",
      "ence</w>"
    ],
    [
      "g",
      "roup</w>"
    ],
    [
      "gener",
      "ate</w>"
    ],
    [
      "gl",
      "ob"
    ],
    [
      "go",
      "ods</w>"
    ],
    [
      "govern",
      "ment</w>"
    ],
    [
      "gre",
      "ater</w>"
    ],
    [
      "h",
      "and"
    ],
    [
      "h",
      "as</w>"
    ],
    [
      "h",
      "eli"
    ],
    [
      "h",
      "o"
    ],
    [
      "hi",
      "erarch"
    ],
    [
      "i",
      "ght</w>"
    ],
    [
      "i",
      "ghts</w>"
    ],
    [
      "i",
      "ly</w>"
    ],
    [
      "ic",
      "ations</w>"
    ],
    [
      "ic",
      "ity</w>"
    ],
    [
      "ic",
      "on"
    ],
    [
      "ic",
      "y</w>"
    ],
    [
      "id",
      "enti"
    ],
    [
      "ili",
      "t"
    ],
    [
      "im",
      "m"
    ],
    [
      "imm",
      "un"
    ],
    [
      "in",
      "d</w>"
    ],
    [
      "in",
      "ed</w>"
    ],
    [
      "in",
      "t"
    ],
    [
      "inclu",
      "de</w>"
    ],
    [
      "inf",
      "inite</w>"
    ],
    [
      "influ",
      "ence</w>"
    ],
    [
      "influ",
      "enced</w>"
    ],
    [
      "inter",
      "n"
    ],
    [
      "interv",
      "ention</w>"
    ],
    [
      "is",
      "ms</w>"
    ],
    [
      "is",
      "ol"
    ],
    [
      "j",
      "u"
    ],
    [
      "jus",
      "tice</w>"
    ],
    [
      "k",
      "es</w>"
    ],
    [
      "l",
      "or"
    ],
    [
      "la",
      "sting</w>"
    ],
    [
      "le",
      "ading</w>"
    ],
    [
      "li",
      "z"
    ],
    [
      "lif",
      "e</w>"
    ],
    [
      "lo",
      "ve</w>"
    ],
    [
      "log",
      "ic</w>"
    ],
    [
      "m",
      "al</w>"
    ],
    [
      "m",
      "er"
    ],
    [
      "m",
      "i"
    ],
    [
      "m",
      "il"
    ],
    [
      "m",
      "y"
    ],
    [
      "mag",
      "ne"
    ],
    [
      "magne",
      "tic</w>"
    ],
    [
      "man",
      "agement</w>"
    ],
    [
      "man",
      "y</w>"
    ],
    [
      "marke",
      "t</w>"
    ],
    [
      "me",
      "aning</w>"
    ],
    [
      "me",
      "di"
    ],
    [
      "me",
      "th"
    ],
    [
      "meth",
      "ods</w>"
    ],
    [
      "min",
      "d</w>"
    ],
    [
      "mo",
      "tion</w>"
    ],
    [
      "mo",
      "v"
    ],
    [
      "mod",
      "ern</w>"
    ],
    [
      "model",
      "</w>"
    ],
    [
      "model",
      "s</w>"
    ],
    [
      "mor",
      "al</w>"
    ],
    [
      "mul",
      "ti"
    ],
    [
      "multi",
      "ple</w>"
    ],
    [
      "n",
      "od"
    ],
    [
      "n",
      "s</w>"
    ],
    [
      "n",
      "uc"
    ],
    [
      "natur",
      "e</w>"
    ],
    [
      "networ",
      "k</w>"
    ],
    [
      "nod",
      "es</w>"
    ],
    [
      "nuc",
      "le"
    ],
    [
      "numb",
      "er</w>"
    ],
    [
      "o",
      "y"
    ],
    [
      "obj",
      "ects</w>"
    ],
    [
      "occur",
      "s</w>"
    ],
    [
      "oft",
      "en</w>"
    ],
    [
      "ol",
      "s</w>"
    ],
    [
      "olog",
      "ical</w>"
    ],
    [
      "on",
      "ing</w>"
    ],
    [
      "on",
      "ly</w>"
    ],
    [
      "or",
      "ation</w>"
    ],
    [
      "or",
      "ing</w>"
    ],
    [
      "organ",
      "iz"
    ],
    [
      "our",
      "</w>"
    ],
    [
      "out",
      "pu"
    ],
    [
      "p",
      "li"
    ],
    [
      "partic",
      "les</w>"
    ],
    [
      "per",
      "i"
    ],
    [
      "per",
      "spec"
    ],
    [
      "perform",
      "ance</w>"
    ],
    [
      "pl",
      "ates</w>"
    ],
    [
      "po",
      "litical</w>"
    ],
    [
      "pol",
      "icy</w>"
    ],
    [
      "popul",
      "ation</w>"
    ],
    [
      "pow",
      "ers</w>"
    ],
    [
      "pri",
      "me</w>"
    ],
    [
      "princi",
      "ples</w>"
    ],
    [
      "pro",
      "gram</w>"
    ],
    [
      "produc",
      "e</w>"
    ],
    [
      "produc",
      "ing</w>"
    ],
    [
      "produc",
      "t</w>"
    ],
    [
      "quanti",
      "ties</w>"
    ],
    [
      "r",
      "ang"
    ],
    [
      "ra",
      "di"
    ],
    [
      "ra",
      "in</w>"
    ],
    [
      "ra",
      "tic</w>"
    ],
    [
      "re",
      "ached</w>"
    ],
    [
      "re",
      "l"
    ],
    [
      "re",
      "search</w>"
    ],
    [
      "re",
      "ve"
    ],
    [
      "reas",
      "oning</w>"
    ],
    [
      "ri",
      "ers</w>"
    ],
    [
      "ri",
      "ght</w>"
    ],
    [
      "ri",
      "st"
    ],
    [
      "rough",
      "ly</w>"
    ],
    [
      "s",
      "el"
    ],
    [
      "s",
      "o</w>"
    ],
    [
      "s",
      "ors</w>"
    ],
    [
      "s",
      "ti"
    ],
    [
      "s",
      "tics</w>"
    ],
    [
      "s",
      "tim"
    ],
    [
      "sci",
      "ence</w>"
    ],
    [
      "sec",
      "ur"
    ],
    [
      "secon",
      "d</w>"
    ],
    [
      "ser",
      "ve</w>"
    ],
    [
      "sh",
      "are</w>"
    ],
    [
      "sh",
      "ow"
    ],
    [
      "shap",
      "e</w>"
    ],
    [
      "si",
      "ble</w>"
    ],
    [
      "si",
      "stors</w>"
    ],
    [
      "si",
      "z"
    ],
    [
      "sol",
      "ving</w>"
    ],
    [
      "sour",
      "ce</w>"
    ],
    [
      "sp",
      "anning</w>"
    ],
    [
      "sph",
      "ere</w>"
    ],
    [
      "st",
      "andard</w>"
    ],
    [
      "st",
      "er</w>"
    ],
    [
      "stim",
      "ul"
    ],
    [
      "stor",
      "age</w>"
    ],
    [
      "stor",
      "es</w>"
    ],
    [
      "sur",
      "fac"
    ],
    [
      "syn",
      "thes"
    ],
    [
      "t",
      "ari"
    ],
    [
      "t",
      "em"
    ],
    [
      "t",
      "w"
    ],
    [
      "t",
      "yp"
    ],
    [
      "te",
      "sting</w>"
    ],
    [
      "tech",
      "n"
    ],
    [
      "tern",
      "al</w>"
    ],
    [
      "th",
      "ics</w>"
    ],
    [
      "th",
      "ology</w>"
    ],
    [
      "theor",
      "em</w>"
    ],
    [
      "ti",
      "z"
    ],
    [
      "tim",
      "ization</w>"
    ],
    [
      "to",
      "tal</w>"
    ],
    [
      "tra",
      "its</w>"
    ],
    [
      "trans",
      "m"
    ],
    [
      "transform",
      "ed</w>"
    ],
    [
      "tur",
      "al</w>"
    ],
    [
      "tw",
      "o</w>"
    ],
    [
      "ul",
      "d</w>"
    ],
    [
      "us",
      "t</w>"
    ],
    [
      "v",
      "ap"
    ],
    [
      "v",
      "en</w>"
    ],
    [
      "vel",
      "</w>"
    ],
    [
      "ver",
      "se</w>"
    ],
    [
      "wa",
      "ves</w>"
    ],
    [
      "wh",
      "e"
    ],
    [
      "wor",
      "ld</w>"
    ],
    [
      "worl",
      "dwide</w>"
    ],
    [
      "x",
      "im"
    ],
    [
      "y",
      "cle</w>"
    ],
    [
      "y",
      "ing</w>"
    ],
    [
      "================",
      "================"
    ],
    [
      "C",
      "om"
    ],
    [
      "Wor",
      "ld</w>"
    ],
    [
      "enc",
      "es</w>"
    ],
    [
      "(",
      "</w>"
    ],
    [
      ")",
      "</w>"
    ],
    [
      "/",
      "</w>"
    ],
    [
      "0",
      "s</w>"
    ],
    [
      "1",
      "5"
    ],
    [
      "1",
      "7"
    ],
    [
      "18",
      "th</w>"
    ],
    [
      "19",
      "4"
    ],
    [
      "19",
      "8"
    ],
    [
      "19",
      "9"
    ],
    [
      "199",
      "1</w>"
    ],
    [
      "A",
      "I</w>"
    ],
    [
      "A",
      "mer"
    ],
    [
      "A",
      "rist"
    ],
    [
      "Amer",
      "ic"
    ],
    [
      "Americ",
      "as</w>"
    ],
    [
      "Arist",
      "ot"
    ],
    [
      "Aristot",
      "le</w>"
    ],
    [
      "B",
      "C"
    ],
    [
      "BC",
      "E"
    ],
    [
      "BCE",
      "</w>"
    ],
    [
      "Be",
      "havi"
    ],
    [
      "Behavi",
      "or"
    ],
    [
      "Behavior",
      "al</w>"
    ],
    [
      "C",
      "ognitive</w>"
    ],
    [
      "Cal",
      "culus</w>"
    ],
    [
      "Col",
      "um"
    ],
    [
      "D",
      "at"
    ],
    [
      "D",
      "esc"
    ],
    [
      "D",
      "i"
    ],
    [
      "De",
      "velop"
    ],
    [
      "Desc",
      "ar"
    ],
    [
      "Descar",
      "tes</w>"
    ],
    [
      "E",
      "ach</w>"
    ],
    [
      "E",
      "l"
    ],
    [
      "E",
      "ri"
    ],
    [
      "E",
      "uc"
    ],
    [
      "Euc",
      "li"
    ],
    [
      "Eucli",
      "de"
    ],
    [
      "Euclide",
      "an</w>"
    ],
    [
      "Europ",
      "e</w>"
    ],
    [
      "F",
      "or"
    ],
    [
      "F",
      "ree</w>"
    ],
    [
      "G",
      "DP</w>"
    ],
    [
      "G",
      "e"
    ],
    [
      "G",
      "roup</w>"
    ],
    [
      "Gre",
      "e"
    ],
    [
      "Gree",
      "k</w>"
    ],
    [
      "H",
      "ash</w>"
    ],
    [
      "H",
      "e"
    ],
    [
      "H",
      "um"
    ],
    [
      "In",
      "dustri"
    ],
    [
      "In",
      "ter"
    ],
    [
      "Industri",
      "al</w>"
    ],
    [
      "Inter",
      "net</w>"
    ],
    [
      "J",
      "ap"
    ],
    [
      "K",
      "ant</w>"
    ],
    [
      "L",
      "</w>"
    ],
    [
      "L",
      "e"
    ],
    [
      "L",
      "oc"
    ],
    [
      "Loc",
      "ke</w>"
    ],
    [
      "Mod",
      "ern</w>"
    ],
    [
      "Ne",
      "ur"
    ],
    [
      "O",
      "r"
    ],
    [
      "P",
      "o"
    ],
    [
      "P",
      "ri"
    ],
    [
      "Q",
      "L</w>"
    ],
    [
      "Qu",
      "antum</w>"
    ],
    [
      "R",
      "o"
    ],
    [
      "Ro",
      "ad</w>"
    ],
    [
      "S",
      "</w>"
    ],
    [
      "S",
      "QL</w>"
    ],
    [
      "S",
      "ha"
    ],
    [
      "S",
      "il"
    ],
    [
      "S",
      "u"
    ],
    [
      "S",
      "y"
    ],
    [
      "Sha",
      "k"
    ],
    [
      "Shak",
      "esp"
    ],
    [
      "Shakesp",
      "e"
    ],
    [
      "Shakespe",
      "are</w>"
    ],
    [
      "Sil",
      "k</w>"
    ],
    [
      "St",
      "ates</w>"
    ],
    [
      "T",
      "</w>"
    ],
    [
      "Tran",
      "s"
    ],
    [
      "V",
      "ir"
    ],
    [
      "Vir",
      "tu"
    ],
    [
      "W",
      "at"
    ],
    [
      "W",
      "h"
    ],
    [
      "Wh",
      "en</w>"
    ],
    [
      "X",
      "</w>"
    ],
    [
      "a",
      "f"
    ],
    [
      "a",
      "il"
    ],
    [
      "a",
      "ster</w>"
    ],
    [
      "a",
      "tic</w>"
    ],
    [
      "a",
      "vi"
    ],
    [
      "ab",
      "ly</w>"
    ],
    [
      "ac",
      "c"
    ],
    [
      "ac",
      "cel"
    ],
    [
      "ac",
      "hi"
    ],
    [
      "ac",
      "tive</w>"
    ],
    [
      "ac",
      "y</w>"
    ],
    [
      "acc",
      "um"
    ],
    [
      "accel",
      "er"
    ],
    [
      "accum",
      "ul"
    ],
    [
      "accumul",
      "ation</w>"
    ],
    [
      "achi",
      "ev"
    ],
    [
      "achiev",
      "ements</w>"
    ],
    [
      "ad",
      "ap"
    ],
    [
      "ad",
      "er</w>"
    ],
    [
      "ad",
      "ratic</w>"
    ],
    [
      "ad",
      "v"
    ],
    [
      "addre",
      "ss</w>"
    ],
    [
      "adv",
      "ant"
    ],
    [
      "ag",
      "ing</w>"
    ],
    [
      "ag",
      "re"
    ],
    [
      "ail",
      "able</w>"
    ],
    [
      "ain",
      "ed</w>"
    ],
    [
      "ain",
      "ting</w>"
    ],
    [
      "ain",
      "ty</w>"
    ],
    [
      "al",
      "ing</w>"
    ],
    [
      "al",
      "ized</w>"
    ],
    [
      "al",
      "ong</w>"
    ],
    [
      "al",
      "so</w>"
    ],
    [
      "al",
      "wa"
    ],
    [
      "algorith",
      "m</w>"
    ],
    [
      "algorith",
      "ms</w>"
    ],
    [
      "all",
      "ow</w>"
    ],
    [
      "alwa",
      "ys</w>"
    ],
    [
      "am",
      "atically</w>"
    ],
    [
      "am",
      "es</w>"
    ],
    [
      "am",
      "et"
    ],
    [
      "am",
      "ics</w>"
    ],
    [
      "am",
      "ong</w>"
    ],
    [
      "an",
      "c"
    ],
    [
      "an",
      "e"
    ],
    [
      "an",
      "im"
    ],
    [
      "an",
      "ity</w>"
    ],
    [
      "an",
      "tic</w>"
    ],
    [
      "an",
      "y</w>"
    ],
    [
      "analy",
      "z"
    ],
    [
      "anc",
      "y</w>"
    ],
    [
      "and",
      "ed</w>"
    ],
    [
      "ang",
      "les</w>"
    ],
    [
      "ap",
      "par"
    ],
    [
      "appl",
      "ication</w>"
    ],
    [
      "appl",
      "ications</w>"
    ],
    [
      "appli",
      "es</w>"
    ],
    [
      "appro",
      "xim"
    ],
    [
      "ar",
      "ed</w>"
    ],
    [
      "ar",
      "ming</w>"
    ],
    [
      "ar",
      "r"
    ],
    [
      "ar",
      "y"
    ],
    [
      "ard",
      "less</w>"
    ],
    [
      "ard",
      "ware</w>"
    ],
    [
      "arg",
      "u"
    ],
    [
      "argum",
      "ents</w>"
    ],
    [
      "ari",
      "th"
    ],
    [
      "arith",
      "me"
    ],
    [
      "arithme",
      "tic</w>"
    ],
    [
      "arr",
      "ation</w>"
    ],
    [
      "ary",
      "o"
    ],
    [
      "aryo",
      "tic</w>"
    ],
    [
      "as",
      "ing</w>"
    ],
    [
      "as",
      "ser"
    ],
    [
      "as",
      "ses</w>"
    ],
    [
      "ass",
      "oci"
    ],
    [
      "ati",
      "stics</w>"
    ],
    [
      "atom",
      "s</w>"
    ],
    [
      "av",
      "ailable</w>"
    ],
    [
      "avi",
      "g"
    ],
    [
      "b",
      "ack</w>"
    ],
    [
      "b",
      "ec"
    ],
    [
      "b",
      "od"
    ],
    [
      "b",
      "on</w>"
    ],
    [
      "b",
      "r"
    ],
    [
      "b",
      "rain</w>"
    ],
    [
      "b",
      "ran"
    ],
    [
      "b",
      "rea"
    ],
    [
      "b",
      "ro"
    ],
    [
      "b",
      "row"
    ],
    [
      "b",
      "s</w>"
    ],
    [
      "ban",
      "ks</w>"
    ],
    [
      "bar",
      "riers</w>"
    ],
    [
      "bas",
      "ed</w>"
    ],
    [
      "bas",
      "is</w>"
    ],
    [
      "be",
      "g"
    ],
    [
      "be",
      "ing</w>"
    ],
    [
      "ber",
      "g</w>"
    ],
    [
      "bi",
      "as</w>"
    ],
    [
      "bi",
      "ological</w>"
    ],
    [
      "bo",
      "th</w>"
    ],
    [
      "bo",
      "ts</w>"
    ],
    [
      "bod",
      "y</w>"
    ],
    [
      "bor",
      "row"
    ],
    [
      "br",
      "a</w>"
    ],
    [
      "bran",
      "e</w>"
    ],
    [
      "bro",
      "ader</w>"
    ],
    [
      "buil",
      "ding</w>"
    ],
    [
      "c",
      "a"
    ],
    [
      "c",
      "ir"
    ],
    [
      "c",
      "os"
    ],
    [
      "c",
      "u"
    ],
    [
      "c",
      "ycle</w>"
    ],
    [
      "cap",
      "ture</w>"
    ],
    [
      "car",
      "bon</w>"
    ],
    [
      "ce",
      "e"
    ],
    [
      "cee",
      "ds</w>"
    ],
    [
      "cel",
      "esti"
    ],
    [
      "cel",
      "l</w>"
    ],
    [
      "celesti",
      "al</w>"
    ],
    [
      "cer",
      "tain</w>"
    ],
    [
      "ch",
      "lor"
    ],
    [
      "chang",
      "es</w>"
    ],
    [
      "chang",
      "ing</w>"
    ],
    [
      "charac",
      "ter</w>"
    ],
    [
      "charac",
      "ters</w>"
    ],
    [
      "chem",
      "as</w>"
    ],
    [
      "ci",
      "ent</w>"
    ],
    [
      "ci",
      "vi"
    ],
    [
      "cir",
      "cu"
    ],
    [
      "circu",
      "its</w>"
    ],
    [
      "civi",
      "liz"
    ],
    [
      "civiliz",
      "ations</w>"
    ],
    [
      "cl",
      "assical</w>"
    ],
    [
      "cl",
      "ou"
    ],
    [
      "clu",
      "sions</w>"
    ],
    [
      "co",
      "ur"
    ],
    [
      "coll",
      "ec"
    ],
    [
      "com",
      "b"
    ],
    [
      "comm",
      "er"
    ],
    [
      "commer",
      "ce</w>"
    ],
    [
      "commun",
      "ities</w>"
    ],
    [
      "complex",
      "</w>"
    ],
    [
      "complex",
      "ity</w>"
    ],
    [
      "con",
      "cep"
    ],
    [
      "con",
      "clusions</w>"
    ],
    [
      "condition",
      "ing</w>"
    ],
    [
      "const",
      "ant</w>"
    ],
    [
      "consum",
      "ers</w>"
    ],
    [
      "continu",
      "ous</w>"
    ],
    [
      "contro",
      "l</w>"
    ],
    [
      "cor",
      "por"
    ],
    [
      "coun",
      "t"
    ],
    [
      "coun",
      "tr"
    ],
    [
      "count",
      "ably</w>"
    ],
    [
      "cul",
      "tural</w>"
    ],
    [
      "cul",
      "tures</w>"
    ],
    [
      "d",
      "d"
    ],
    [
      "d",
      "es"
    ],
    [
      "d",
      "es</w>"
    ],
    [
      "d",
      "ex"
    ],
    [
      "d",
      "y</w>"
    ],
    [
      "de",
      "als</w>"
    ],
    [
      "de",
      "b"
    ],
    [
      "de",
      "pl"
    ],
    [
      "de",
      "v"
    ],
    [
      "dec",
      "i"
    ],
    [
      "dec",
      "ryption</w>"
    ],
    [
      "dem",
      "on"
    ],
    [
      "democ",
      "r"
    ],
    [
      "democr",
      "acy</w>"
    ],
    [
      "demon",
      "str"
    ],
    [
      "demonstr",
      "ated</w>"
    ],
    [
      "dep",
      "end"
    ],
    [
      "der",
      "ed</w>"
    ],
    [
      "der",
      "i"
    ],
    [
      "deri",
      "v"
    ],
    [
      "deriv",
      "ative</w>"
    ],
    [
      "destruc",
      "tion</w>"
    ],
    [
      "deter",
      "m"
    ],
    [
      "dex",
      "</w>"
    ],
    [
      "dg",
      "es</w>"
    ],
    [
      "di",
      "ly</w>"
    ],
    [
      "di",
      "se"
    ],
    [
      "di",
      "tional</w>"
    ],
    [
      "di",
      "v"
    ],
    [
      "din",
      "ary</w>"
    ],
    [
      "dis",
      "co"
    ],
    [
      "dise",
      "ases</w>"
    ],
    [
      "dist",
      "ances</w>"
    ],
    [
      "dist",
      "inc"
    ],
    [
      "distinc",
      "t</w>"
    ],
    [
      "div",
      "ine</w>"
    ],
    [
      "divi",
      "sion</w>"
    ],
    [
      "dr",
      "amatically</w>"
    ],
    [
      "duc",
      "t"
    ],
    [
      "duc",
      "tive</w>"
    ],
    [
      "duct",
      "or</w>"
    ],
    [
      "e",
      "an</w>"
    ],
    [
      "e",
      "di"
    ],
    [
      "e",
      "duc"
    ],
    [
      "e",
      "f"
    ],
    [
      "e",
      "thics</w>"
    ],
    [
      "e",
      "valu"
    ],
    [
      "e",
      "vid"
    ],
    [
      "e",
      "w</w>"
    ],
    [
      "ear",
      "s</w>"
    ],
    [
      "ect",
      "ors</w>"
    ],
    [
      "effici",
      "ent</w>"
    ],
    [
      "el",
      "ed</w>"
    ],
    [
      "el",
      "ements</w>"
    ],
    [
      "el",
      "ic"
    ],
    [
      "el",
      "l</w>"
    ],
    [
      "el",
      "li"
    ],
    [
      "elec",
      "tion</w>"
    ],
    [
      "electr",
      "ical</w>"
    ],
    [
      "electr",
      "icity</w>"
    ],
    [
      "electron",
      "ics</w>"
    ],
    [
      "elli",
      "gence</w>"
    ],
    [
      "em",
      "b"
    ],
    [
      "em",
      "ent"
    ],
    [
      "em",
      "er"
    ],
    [
      "em",
      "p"
    ],
    [
      "emo",
      "tion</w>"
    ],
    [
      "en",
      "able</w>"
    ],
    [
      "en",
      "si"
    ],
    [
      "enc",
      "our"
    ],
    [
      "ene",
      "tic</w>"
    ],
    [
      "ene",
      "w"
    ],
    [
      "enew",
      "able</w>"
    ],
    [
      "eng",
      "ths</w>"
    ],
    [
      "ent",
      "ly</w>"
    ],
    [
      "ent",
      "rop"
    ],
    [
      "entrop",
      "y</w>"
    ],
    [
      "equ",
      "ality</w>"
    ],
    [
      "equ",
      "ation</w>"
    ],
    [
      "er",
      "n"
    ],
    [
      "er",
      "o</w>"
    ],
    [
      "er",
      "t"
    ],
    [
      "ert",
      "ainty</w>"
    ],
    [
      "erv",
      "ous</w>"
    ],
    [
      "es",
      "tions</w>"
    ],
    [
      "est",
      "ment</w>"
    ],
    [
      "esti",
      "g"
    ],
    [
      "estig",
      "ates</w>"
    ],
    [
      "et",
      "t"
    ],
    [
      "evid",
      "ence</w>"
    ],
    [
      "ex",
      "ceeds</w>"
    ],
    [
      "ex",
      "i"
    ],
    [
      "ex",
      "ical</w>"
    ],
    [
      "ex",
      "t</w>"
    ],
    [
      "ex",
      "ten"
    ],
    [
      "ex",
      "ternal</w>"
    ],
    [
      "exper",
      "im"
    ],
    [
      "explor",
      "ation</w>"
    ],
    [
      "explor",
      "es</w>"
    ],
    [
      "explor",
      "ing</w>"
    ],
    [
      "expres",
      "sed</w>"
    ],
    [
      "f",
      "arming</w>"
    ],
    [
      "f",
      "aster</w>"
    ],
    [
      "f",
      "ication</w>"
    ],
    [
      "f",
      "ies</w>"
    ],
    [
      "f",
      "in"
    ],
    [
      "f",
      "ol"
    ],
    [
      "f",
      "our</w>"
    ],
    [
      "f",
      "r"
    ],
    [
      "f",
      "re"
    ],
    [
      "f",
      "requ"
    ],
    [
      "fac",
      "ilit"
    ],
    [
      "fi",
      "g"
    ],
    [
      "fig",
      "ur"
    ],
    [
      "fl",
      "exi"
    ],
    [
      "flow",
      "s</w>"
    ],
    [
      "foc",
      "uses</w>"
    ],
    [
      "for",
      "ce</w>"
    ],
    [
      "for",
      "ces</w>"
    ],
    [
      "for",
      "e</w>"
    ],
    [
      "forc",
      "ement</w>"
    ],
    [
      "form",
      "al</w>"
    ],
    [
      "form",
      "s</w>"
    ],
    [
      "frequ",
      "ency</w>"
    ],
    [
      "g",
      "ardless</w>"
    ],
    [
      "g",
      "ent</w>"
    ],
    [
      "g",
      "n"
    ],
    [
      "g",
      "ro"
    ],
    [
      "g",
      "u"
    ],
    [
      "ge",
      "bra</w>"
    ],
    [
      "gener",
      "ations</w>"
    ],
    [
      "geometr",
      "ic</w>"
    ],
    [
      "geometr",
      "y</w>"
    ],
    [
      "glob",
      "al</w>"
    ],
    [
      "gn",
      "als</w>"
    ],
    [
      "go",
      "od</w>"
    ],
    [
      "govern",
      "ance</w>"
    ],
    [
      "grap",
      "hy</w>"
    ],
    [
      "h",
      "ardware</w>"
    ],
    [
      "h",
      "er"
    ],
    [
      "h",
      "ol"
    ],
    [
      "h",
      "or"
    ],
    [
      "hand",
      "les</w>"
    ],
    [
      "heli",
      "x</w>"
    ],
    [
      "hi",
      "s"
    ],
    [
      "hierarch",
      "ical</w>"
    ],
    [
      "high",
      "</w>"
    ],
    [
      "hol",
      "ds</w>"
    ],
    [
      "hor",
      "iz"
    ],
    [
      "horiz",
      "on"
    ],
    [
      "hum",
      "ans</w>"
    ],
    [
      "hy",
      "per"
    ],
    [
      "hy",
      "s"
    ],
    [
      "i",
      "als</w>"
    ],
    [
      "i",
      "de</w>"
    ],
    [
      "i",
      "p"
    ],
    [
      "i",
      "re"
    ],
    [
      "i",
      "stem"
    ],
    [
      "ic",
      "ally</w>"
    ],
    [
      "ic",
      "ial</w>"
    ],
    [
      "ic",
      "t</w>"
    ],
    [
      "icon",
      "ductor</w>"
    ],
    [
      "ide",
      "as</w>"
    ],
    [
      "im",
      "pl"
    ],
    [
      "im",
      "pro"
    ],
    [
      "immun",
      "ity</w>"
    ],
    [
      "impro",
      "ve</w>"
    ],
    [
      "in",
      "forcement</w>"
    ],
    [
      "in",
      "g"
    ],
    [
      "in",
      "k</w>"
    ],
    [
      "in",
      "ked</w>"
    ],
    [
      "in",
      "ning</w>"
    ],
    [
      "in",
      "ser"
    ],
    [
      "in",
      "st"
    ],
    [
      "inc",
      "re"
    ],
    [
      "inc",
      "reas"
    ],
    [
      "incre",
      "ases</w>"
    ],
    [
      "increas",
      "ing</w>"
    ],
    [
      "inf",
      "ancy</w>"
    ],
    [
      "inf",
      "ec"
    ],
    [
      "inf",
      "r"
    ],
    [
      "infr",
      "ared</w>"
    ],
    [
      "inn",
      "ate</w>"
    ],
    [
      "inn",
      "er</w>"
    ],
    [
      "inpu",
      "t</w>"
    ],
    [
      "inpu",
      "ts</w>"
    ],
    [
      "inser",
      "tions</w>"
    ],
    [
      "int",
      "elligence</w>"
    ],
    [
      "integ",
      "ers</w>"
    ],
    [
      "integr",
      "al</w>"
    ],
    [
      "inter",
      "est</w>"
    ],
    [
      "intern",
      "al</w>"
    ],
    [
      "inv",
      "ented</w>"
    ],
    [
      "inv",
      "estigates</w>"
    ],
    [
      "inv",
      "estment</w>"
    ],
    [
      "ir",
      "able</w>"
    ],
    [
      "ir",
      "d</w>"
    ],
    [
      "ir",
      "s</w>"
    ],
    [
      "ire",
      "ments</w>"
    ],
    [
      "is",
      "h"
    ],
    [
      "is",
      "su"
    ],
    [
      "is",
      "t</w>"
    ],
    [
      "isol",
      "ation</w>"
    ],
    [
      "istem",
      "ology</w>"
    ],
    [
      "iz",
      "ing</w>"
    ],
    [
      "k",
      "aryotic</w>"
    ],
    [
      "k",
      "ens</w>"
    ],
    [
      "k",
      "u"
    ],
    [
      "ke",
      "t</w>"
    ],
    [
      "know",
      "n</w>"
    ],
    [
      "l",
      "arge</w>"
    ],
    [
      "l",
      "at"
    ],
    [
      "l",
      "ed</w>"
    ],
    [
      "l",
      "oc"
    ],
    [
      "l",
      "ow</w>"
    ],
    [
      "la",
      "y"
    ],
    [
      "lab",
      "eled</w>"
    ],
    [
      "lab",
      "or</w>"
    ],
    [
      "langu",
      "ages</w>"
    ],
    [
      "lay",
      "ers</w>"
    ],
    [
      "le",
      "asing</w>"
    ],
    [
      "lear",
      "n</w>"
    ],
    [
      "li",
      "k"
    ],
    [
      "li",
      "t</w>"
    ],
    [
      "li",
      "ving</w>"
    ],
    [
      "lim",
      "its</w>"
    ],
    [
      "m",
      "a</w>"
    ],
    [
      "m",
      "ade</w>"
    ],
    [
      "m",
      "ain"
    ],
    [
      "m",
      "apping</w>"
    ],
    [
      "m",
      "ary</w>"
    ],
    [
      "m",
      "om"
    ],
    [
      "m",
      "p"
    ],
    [
      "ma",
      "ke</w>"
    ],
    [
      "mar",
      "ily</w>"
    ],
    [
      "mat",
      "ter</w>"
    ],
    [
      "mater",
      "ial</w>"
    ],
    [
      "mater",
      "ials</w>"
    ],
    [
      "mathema",
      "tical</w>"
    ],
    [
      "mathema",
      "tics</w>"
    ],
    [
      "me",
      "tr"
    ],
    [
      "mechan",
      "ics</w>"
    ],
    [
      "mem",
      "brane</w>"
    ],
    [
      "metr",
      "ic</w>"
    ],
    [
      "mi",
      "to"
    ],
    [
      "model",
      "ing</w>"
    ],
    [
      "mon",
      "ey</w>"
    ],
    [
      "mor",
      "tal</w>"
    ],
    [
      "mov",
      "ement</w>"
    ],
    [
      "my",
      "thology</w>"
    ],
    [
      "n",
      "arration</w>"
    ],
    [
      "n",
      "avig"
    ],
    [
      "n",
      "ervous</w>"
    ],
    [
      "n",
      "ess</w>"
    ],
    [
      "n",
      "o</w>"
    ],
    [
      "n",
      "or"
    ],
    [
      "natur",
      "ally</w>"
    ],
    [
      "ne",
      "ts</w>"
    ],
    [
      "ne",
      "u"
    ],
    [
      "neur",
      "al</w>"
    ],
    [
      "neur",
      "ons</w>"
    ],
    [
      "no",
      "tation</w>"
    ],
    [
      "no",
      "vel</w>"
    ],
    [
      "o",
      "es</w>"
    ],
    [
      "o",
      "pl"
    ],
    [
      "o",
      "sphere</w>"
    ],
    [
      "o",
      "uld</w>"
    ],
    [
      "o",
      "x"
    ],
    [
      "observ",
      "able</w>"
    ],
    [
      "observ",
      "ed</w>"
    ],
    [
      "occur",
      "</w>"
    ],
    [
      "oce",
      "ans</w>"
    ],
    [
      "oci",
      "e"
    ],
    [
      "off",
      "er</w>"
    ],
    [
      "off",
      "ering</w>"
    ],
    [
      "off",
      "ers</w>"
    ],
    [
      "olog",
      "ies</w>"
    ],
    [
      "om",
      "e</w>"
    ],
    [
      "ometr",
      "y</w>"
    ],
    [
      "on",
      "d</w>"
    ],
    [
      "on",
      "es</w>"
    ],
    [
      "on",
      "nets</w>"
    ],
    [
      "on",
      "om"
    ],
    [
      "op",
      "posi"
    ],
    [
      "op",
      "timization</w>"
    ],
    [
      "oper",
      "ations</w>"
    ],
    [
      "opposi",
      "t"
    ],
    [
      "or",
      "ies</w>"
    ],
    [
      "organ",
      "isms</w>"
    ],
    [
      "organ",
      "ize</w>"
    ],
    [
      "organiz",
      "es</w>"
    ],
    [
      "ou",
      "ghts</w>"
    ],
    [
      "ous",
      "ly</w>"
    ],
    [
      "outpu",
      "t</w>"
    ],
    [
      "p",
      "ainting</w>"
    ],
    [
      "p",
      "ass"
    ],
    [
      "p",
      "asses</w>"
    ],
    [
      "p",
      "e"
    ],
    [
      "p",
      "hilosophy</w>"
    ],
    [
      "p",
      "istemology</w>"
    ],
    [
      "p",
      "os"
    ],
    [
      "p",
      "pli"
    ],
    [
      "pa",
      "irs</w>"
    ],
    [
      "par",
      "sing</w>"
    ],
    [
      "per",
      "son</w>"
    ],
    [
      "per",
      "vi"
    ],
    [
      "perform",
      "ing</w>"
    ],
    [
      "peri",
      "od</w>"
    ],
    [
      "perspec",
      "tive</w>"
    ],
    [
      "pervi",
      "sed</w>"
    ],
    [
      "pl",
      "ants</w>"
    ],
    [
      "pl",
      "ication</w>"
    ],
    [
      "pl",
      "us</w>"
    ],
    [
      "po",
      "t"
    ],
    [
      "posi",
      "tion</w>"
    ],
    [
      "posi",
      "tive</w>"
    ],
    [
      "pre",
      "ci"
    ],
    [
      "pre",
      "dic"
    ],
    [
      "pri",
      "marily</w>"
    ],
    [
      "pro",
      "gr"
    ],
    [
      "probl",
      "em</w>"
    ],
    [
      "probl",
      "ems</w>"
    ],
    [
      "proces",
      "sors</w>"
    ],
    [
      "produc",
      "tion</w>"
    ],
    [
      "propag",
      "ation</w>"
    ],
    [
      "propos",
      "ing</w>"
    ],
    [
      "protec",
      "ts</w>"
    ],
    [
      "qu",
      "estions</w>"
    ],
    [
      "quanti",
      "ty</w>"
    ],
    [
      "r",
      "ap"
    ],
    [
      "r",
      "hy"
    ],
    [
      "r",
      "ing</w>"
    ],
    [
      "r",
      "ules</w>"
    ],
    [
      "r",
      "un"
    ],
    [
      "r",
      "y</w>"
    ],
    [
      "ra",
      "ther</w>"
    ],
    [
      "ra",
      "w</w>"
    ],
    [
      "radi",
      "o</w>"
    ],
    [
      "rang",
      "es</w>"
    ],
    [
      "re",
      "active</w>"
    ],
    [
      "re",
      "fl"
    ],
    [
      "re",
      "gardless</w>"
    ],
    [
      "re",
      "late</w>"
    ],
    [
      "re",
      "leasing</w>"
    ],
    [
      "re",
      "plication</w>"
    ],
    [
      "re",
      "s"
    ],
    [
      "re",
      "sources</w>"
    ],
    [
      "re",
      "vol"
    ],
    [
      "rea",
      "m</w>"
    ],
    [
      "reduc",
      "e</w>"
    ],
    [
      "relationshi",
      "p</w>"
    ],
    [
      "repres",
      "ent"
    ],
    [
      "repres",
      "ent</w>"
    ],
    [
      "requ",
      "ire</w>"
    ],
    [
      "requ",
      "irements</w>"
    ],
    [
      "res",
      "ul"
    ],
    [
      "reve",
      "aling</w>"
    ],
    [
      "ri",
      "ghts</w>"
    ],
    [
      "ri",
      "vers</w>"
    ],
    [
      "ro",
      "ads</w>"
    ],
    [
      "ro",
      "bots</w>"
    ],
    [
      "ro",
      "magnetic</w>"
    ],
    [
      "ro",
      "man"
    ],
    [
      "ro",
      "y"
    ],
    [
      "ryp",
      "to"
    ],
    [
      "rypto",
      "graphy</w>"
    ],
    [
      "s",
      "chemas</w>"
    ],
    [
      "s",
      "election</w>"
    ],
    [
      "s",
      "ett"
    ],
    [
      "s",
      "ocie"
    ],
    [
      "s",
      "or"
    ],
    [
      "s",
      "w"
    ],
    [
      "sa",
      "w</w>"
    ],
    [
      "se",
      "ts</w>"
    ],
    [
      "se",
      "ven</w>"
    ],
    [
      "sem",
      "antic</w>"
    ],
    [
      "sens",
      "ory</w>"
    ],
    [
      "sequ",
      "ent</w>"
    ],
    [
      "serv",
      "ices</w>"
    ],
    [
      "sh",
      "ar"
    ],
    [
      "shap",
      "es</w>"
    ],
    [
      "shi",
      "p</w>"
    ],
    [
      "show",
      "ed</w>"
    ],
    [
      "si",
      "gnals</w>"
    ],
    [
      "si",
      "l"
    ],
    [
      "siz",
      "es</w>"
    ],
    [
      "sol",
      "ar</w>"
    ],
    [
      "sol",
      "ved</w>"
    ],
    [
      "sp",
      "eed</w>"
    ],
    [
      "sp",
      "or"
    ],
    [
      "speci",
      "al"
    ],
    [
      "st",
      "ages</w>"
    ],
    [
      "st",
      "atistics</w>"
    ],
    [
      "st",
      "ep</w>"
    ],
    [
      "sti",
      "tu"
    ],
    [
      "stimul",
      "us</w>"
    ],
    [
      "stor",
      "ies</w>"
    ],
    [
      "su",
      "g"
    ],
    [
      "su",
      "ppli"
    ],
    [
      "sub",
      "sequent</w>"
    ],
    [
      "surfac",
      "es</w>"
    ],
    [
      "sy",
      "l"
    ],
    [
      "sym",
      "bolic</w>"
    ],
    [
      "synthes",
      "ized</w>"
    ],
    [
      "system",
      "atic</w>"
    ],
    [
      "t",
      "ables</w>"
    ],
    [
      "t",
      "ary</w>"
    ],
    [
      "t",
      "ext</w>"
    ],
    [
      "t",
      "on</w>"
    ],
    [
      "t",
      "ree</w>"
    ],
    [
      "ta",
      "tional</w>"
    ],
    [
      "techn",
      "ologies</w>"
    ],
    [
      "th",
      "en"
    ],
    [
      "th",
      "en</w>"
    ],
    [
      "th",
      "is</w>"
    ],
    [
      "th",
      "ose</w>"
    ],
    [
      "th",
      "oughts</w>"
    ],
    [
      "theor",
      "ies</w>"
    ],
    [
      "through",
      "out</w>"
    ],
    [
      "tic",
      "es</w>"
    ],
    [
      "tif",
      "icial</w>"
    ],
    [
      "to",
      "col"
    ],
    [
      "to",
      "ols</w>"
    ],
    [
      "tr",
      "act</w>"
    ],
    [
      "tr",
      "ains</w>"
    ],
    [
      "tran",
      "sistors</w>"
    ],
    [
      "tran",
      "spor"
    ],
    [
      "trans",
      "fer"
    ],
    [
      "trans",
      "late</w>"
    ],
    [
      "transform",
      "ing</w>"
    ],
    [
      "typ",
      "ically</w>"
    ],
    [
      "ul",
      "ar</w>"
    ],
    [
      "un",
      "tary</w>"
    ],
    [
      "unc",
      "ertainty</w>"
    ],
    [
      "und",
      "er</w>"
    ],
    [
      "up",
      "d"
    ],
    [
      "up",
      "on</w>"
    ],
    [
      "v",
      "ast</w>"
    ],
    [
      "val",
      "id</w>"
    ],
    [
      "valu",
      "e</w>"
    ],
    [
      "valu",
      "es</w>"
    ],
    [
      "vap",
      "or</w>"
    ],
    [
      "vari",
      "able</w>"
    ],
    [
      "vari",
      "ables</w>"
    ],
    [
      "ver",
      "gent</w>"
    ],
    [
      "ver",
      "tices</w>"
    ],
    [
      "vi",
      "a</w>"
    ],
    [
      "w",
      "ar"
    ],
    [
      "w",
      "e</w>"
    ],
    [
      "w",
      "ould</w>"
    ],
    [
      "w",
      "s</w>"
    ],
    [
      "wa",
      "ve</w>"
    ],
    [
      "we",
      "ights</w>"
    ],
    [
      "whe",
      "ther</w>"
    ],
    [
      "wor",
      "k"
    ],
    [
      "y",
      "ears</w>"
    ],
    [
      "z",
      "ero</w>"
    ],
    [
      "1",
      "8</w>"
    ],
    [
      "3",
      "9</w>"
    ],
    [
      "4",
      "0</w>"
    ],
    [
      "6",
      "9</w>"
    ],
    [
      "-",
      "-"
    ],
    [
      "--",
      "-</w>"
    ],
    [
      "S",
      "ci"
    ],
    [
      "====",
      "</w>"
    ],
    [
      "========",
      "====</w>"
    ],
    [
      "================",
      "============</w>"
    ],
    [
      "================================",
      "============================</w>"
    ],
    [
      "Com",
      "pu"
    ],
    [
      "Compu",
      "ter</w>"
    ],
    [
      "L",
      "i"
    ],
    [
      "P",
      "hilosophy</w>"
    ],
    [
      "st",
      "ory</w>"
    ],
    [
      "0",
      "0"
    ],
    [
      "00",
      "0</w>"
    ],
    [
      "1",
      "6"
    ],
    [
      "14",
      "40</w>"
    ],
    [
      "14",
      "9"
    ],
    [
      "14",
      "th</w>"
    ],
    [
      "149",
      "2</w>"
    ],
    [
      "15",
      "4</w>"
    ],
    [
      "15",
      "th</w>"
    ],
    [
      "16",
      "th</w>"
    ],
    [
      "17",
      "8"
    ],
    [
      "17",
      "th</w>"
    ],
    [
      "178",
      "9</w>"
    ],
    [
      "18",
      "0</w>"
    ],
    [
      "19",
      "39</w>"
    ],
    [
      "19",
      "69</w>"
    ],
    [
      "19",
      "7"
    ],
    [
      "194",
      "5</w>"
    ],
    [
      "194",
      "7</w>"
    ],
    [
      "197",
      "0s</w>"
    ],
    [
      "198",
      "0s</w>"
    ],
    [
      "198",
      "9</w>"
    ],
    [
      "5",
      "th</w>"
    ],
    [
      "A",
      "C"
    ],
    [
      "A",
      "D"
    ],
    [
      "A",
      "E"
    ],
    [
      "A",
      "M"
    ],
    [
      "A",
      "N"
    ],
    [
      "A",
      "R"
    ],
    [
      "A",
      "TP</w>"
    ],
    [
      "A",
      "d"
    ],
    [
      "A",
      "fr"
    ],
    [
      "A",
      "g"
    ],
    [
      "A",
      "gr"
    ],
    [
      "A",
      "in"
    ],
    [
      "A",
      "n"
    ],
    [
      "A",
      "n</w>"
    ],
    [
      "A",
      "ppl"
    ],
    [
      "A",
      "s"
    ],
    [
      "A",
      "si"
    ],
    [
      "A",
      "sym"
    ],
    [
      "A",
      "t"
    ],
    [
      "A",
      "t</w>"
    ],
    [
      "A",
      "then"
    ],
    [
      "A",
      "u"
    ],
    [
      "A",
      "ut"
    ],
    [
      "A",
      "x"
    ],
    [
      "AC",
      "I"
    ],
    [
      "ACI",
      "D"
    ],
    [
      "ACID",
      "</w>"
    ],
    [
      "AD",
      "P"
    ],
    [
      "ADP",
      "H"
    ],
    [
      "ADPH",
      "</w>"
    ],
    [
      "AE",
      "S</w>"
    ],
    [
      "AM",
      "</w>"
    ],
    [
      "AN",
      "E"
    ],
    [
      "ANE",
      "T</w>"
    ],
    [
      "AR",
      "P"
    ],
    [
      "ARP",
      "ANET</w>"
    ],
    [
      "Ad",
      "ap"
    ],
    [
      "Adap",
      "tive</w>"
    ],
    [
      "Afr",
      "ic"
    ],
    [
      "Afric",
      "a</w>"
    ],
    [
      "Ag",
      "e</w>"
    ],
    [
      "Agr",
      "ic"
    ],
    [
      "Agric",
      "ul"
    ],
    [
      "Agricul",
      "tural</w>"
    ],
    [
      "Ain",
      "s"
    ],
    [
      "Ains",
      "wor"
    ],
    [
      "Ainswor",
      "th</w>"
    ],
    [
      "Al",
      "g"
    ],
    [
      "Al",
      "gebra</w>"
    ],
    [
      "Al",
      "l</w>"
    ],
    [
      "Al",
      "li"
    ],
    [
      "Al",
      "tern"
    ],
    [
      "Alg",
      "orith"
    ],
    [
      "Algorith",
      "m</w>"
    ],
    [
      "Alli",
      "ed</w>"
    ],
    [
      "Altern",
      "ative</w>"
    ],
    [
      "An",
      "cient</w>"
    ],
    [
      "Appl",
      "ications</w>"
    ],
    [
      "Ar",
      "rays</w>"
    ],
    [
      "Ar",
      "ti"
    ],
    [
      "Ar",
      "tificial</w>"
    ],
    [
      "Arti",
      "sts</w>"
    ],
    [
      "As",
      "ch</w>"
    ],
    [
      "Asi",
      "a</w>"
    ],
    [
      "Asym",
      "metric</w>"
    ],
    [
      "At",
      "t"
    ],
    [
      "Athen",
      "i"
    ],
    [
      "Atheni",
      "an</w>"
    ],
    [
      "Att",
      "ach"
    ],
    [
      "Attach",
      "ment</w>"
    ],
    [
      "Au",
      "st"
    ],
    [
      "Aust",
      "en</w>"
    ],
    [
      "Aut",
      "onom"
    ],
    [
      "Autonom",
      "ous</w>"
    ],
    [
      "Ax",
      "is</w>"
    ],
    [
      "B",
      "</w>"
    ],
    [
      "B",
      "a"
    ],
    [
      "B",
      "ac"
    ],
    [
      "B",
      "as"
    ],
    [
      "B",
      "at"
    ],
    [
      "B",
      "ern"
    ],
    [
      "B",
      "i"
    ],
    [
      "B",
      "o"
    ],
    [
      "B",
      "ond</w>"
    ],
    [
      "B",
      "ow"
    ],
    [
      "B",
      "u"
    ],
    [
      "Ba",
      "y"
    ],
    [
      "Bac",
      "k"
    ],
    [
      "Back",
      "propagation</w>"
    ],
    [
      "Bas",
      "ti"
    ],
    [
      "Basti",
      "l"
    ],
    [
      "Bastil",
      "le</w>"
    ],
    [
      "Bat",
      "ter"
    ],
    [
      "Batter",
      "y</w>"
    ],
    [
      "Bay",
      "es</w>"
    ],
    [
      "Be",
      "y"
    ],
    [
      "Bern",
      "ers</w>"
    ],
    [
      "Bey",
      "ond</w>"
    ],
    [
      "Bi",
      "g</w>"
    ],
    [
      "Bo",
      "th</w>"
    ],
    [
      "Bow",
      "l"
    ],
    [
      "Bowl",
      "by</w>"
    ],
    [
      "Bu",
      "dd"
    ],
    [
      "Budd",
      "his"
    ],
    [
      "Buddhis",
      "m</w>"
    ],
    [
      "C",
      "ant"
    ],
    [
      "C",
      "ap"
    ],
    [
      "C",
      "ell</w>"
    ],
    [
      "C",
      "entr"
    ],
    [
      "C",
      "erv"
    ],
    [
      "C",
      "i"
    ],
    [
      "C",
      "l"
    ],
    [
      "C",
      "o"
    ],
    [
      "C",
      "oper"
    ],
    [
      "C",
      "re"
    ],
    [
      "C",
      "ryptography</w>"
    ],
    [
      "Cal",
      "v"
    ],
    [
      "Calv",
      "in</w>"
    ],
    [
      "Cant",
      "or</w>"
    ],
    [
      "Cap",
      "e</w>"
    ],
    [
      "Centr",
      "al</w>"
    ],
    [
      "Cerv",
      "an"
    ],
    [
      "Cervan",
      "tes</w>"
    ],
    [
      "Ch",
      "ar"
    ],
    [
      "Ch",
      "em"
    ],
    [
      "Ch",
      "in"
    ],
    [
      "Ch",
      "o"
    ],
    [
      "Ch",
      "ri"
    ],
    [
      "Ch",
      "rist"
    ],
    [
      "Char",
      "les</w>"
    ],
    [
      "Chem",
      "ical</w>"
    ],
    [
      "Chin",
      "a</w>"
    ],
    [
      "Cho",
      "os"
    ],
    [
      "Choos",
      "ing</w>"
    ],
    [
      "Chri",
      "sti"
    ],
    [
      "Christ",
      "op"
    ],
    [
      "Christi",
      "anity</w>"
    ],
    [
      "Christop",
      "h"
    ],
    [
      "Christoph",
      "er</w>"
    ],
    [
      "Ci",
      "tiz"
    ],
    [
      "Citiz",
      "en</w>"
    ],
    [
      "Cl",
      "assical</w>"
    ],
    [
      "Co",
      "val"
    ],
    [
      "Col",
      "os"
    ],
    [
      "Colos",
      "se"
    ],
    [
      "Colosse",
      "um</w>"
    ],
    [
      "Colum",
      "bi"
    ],
    [
      "Colum",
      "bu"
    ],
    [
      "Columbi",
      "an</w>"
    ],
    [
      "Columbu",
      "s</w>"
    ],
    [
      "Com",
      "p"
    ],
    [
      "Comp",
      "il"
    ],
    [
      "Compil",
      "ers</w>"
    ],
    [
      "Con",
      "d"
    ],
    [
      "Con",
      "ditional</w>"
    ],
    [
      "Con",
      "form"
    ],
    [
      "Con",
      "sequ"
    ],
    [
      "Con",
      "t"
    ],
    [
      "Con",
      "tem"
    ],
    [
      "Con",
      "vergent</w>"
    ],
    [
      "Cond",
      "ens"
    ],
    [
      "Condens",
      "ation</w>"
    ],
    [
      "Conform",
      "ity</w>"
    ],
    [
      "Consequ",
      "enti"
    ],
    [
      "Consequenti",
      "al"
    ],
    [
      "Consequential",
      "ist</w>"
    ],
    [
      "Cont",
      "inu"
    ],
    [
      "Contem",
      "por"
    ],
    [
      "Contempor",
      "ary</w>"
    ],
    [
      "Continu",
      "ous</w>"
    ],
    [
      "Coper",
      "n"
    ],
    [
      "Copern",
      "ic"
    ],
    [
      "Copernic",
      "us</w>"
    ],
    [
      "Coval",
      "ent</w>"
    ],
    [
      "Cre",
      "ation</w>"
    ],
    [
      "D",
      "an"
    ],
    [
      "D",
      "ar"
    ],
    [
      "D",
      "escri"
    ],
    [
      "D",
      "ic"
    ],
    [
      "D",
      "on</w>"
    ],
    [
      "D",
      "ream</w>"
    ],
    [
      "D",
      "u"
    ],
    [
      "DN",
      "S</w>"
    ],
    [
      "Dan",
      "is"
    ],
    [
      "Danis",
      "h</w>"
    ],
    [
      "Dar",
      "w"
    ],
    [
      "Darw",
      "in</w>"
    ],
    [
      "Dat",
      "a</w>"
    ],
    [
      "Dat",
      "ab"
    ],
    [
      "Datab",
      "ase</w>"
    ],
    [
      "De",
      "ductive</w>"
    ],
    [
      "De",
      "ep</w>"
    ],
    [
      "De",
      "on"
    ],
    [
      "Dec",
      "emb"
    ],
    [
      "Dec",
      "l"
    ],
    [
      "Dec",
      "om"
    ],
    [
      "Decemb",
      "er</w>"
    ],
    [
      "Decl",
      "ar"
    ],
    [
      "Declar",
      "ation</w>"
    ],
    [
      "Decom",
      "pos"
    ],
    [
      "Decompos",
      "ers</w>"
    ],
    [
      "Deon",
      "to"
    ],
    [
      "Deonto",
      "log"
    ],
    [
      "Deontolog",
      "ical</w>"
    ],
    [
      "Descri",
      "p"
    ],
    [
      "Descrip",
      "tive</w>"
    ],
    [
      "Develop",
      "ment</w>"
    ],
    [
      "Develop",
      "mental</w>"
    ],
    [
      "Di",
      "ffer"
    ],
    [
      "Di",
      "vergent</w>"
    ],
    [
      "Dic",
      "kens</w>"
    ],
    [
      "Differ",
      "ential</w>"
    ],
    [
      "Du",
      "alism</w>"
    ],
    [
      "E",
      "co"
    ],
    [
      "E",
      "ff"
    ],
    [
      "E",
      "ig"
    ],
    [
      "E",
      "mp"
    ],
    [
      "E",
      "n"
    ],
    [
      "E",
      "pistemology</w>"
    ],
    [
      "E",
      "thics</w>"
    ],
    [
      "E",
      "vap"
    ],
    [
      "Ear",
      "ly</w>"
    ],
    [
      "Eco",
      "systems</w>"
    ],
    [
      "Eff",
      "ici"
    ],
    [
      "Effici",
      "ent</w>"
    ],
    [
      "Eig",
      "en"
    ],
    [
      "Eigen",
      "values</w>"
    ],
    [
      "El",
      "ect"
    ],
    [
      "El",
      "ements</w>"
    ],
    [
      "Elect",
      "romagnetic</w>"
    ],
    [
      "Emp",
      "ire</w>"
    ],
    [
      "En",
      "gl"
    ],
    [
      "Engl",
      "and</w>"
    ],
    [
      "Eri",
      "k"
    ],
    [
      "Eri",
      "k</w>"
    ],
    [
      "Erik",
      "son</w>"
    ],
    [
      "Europ",
      "ean</w>"
    ],
    [
      "Evap",
      "oration</w>"
    ],
    [
      "Ex",
      "change</w>"
    ],
    [
      "Ex",
      "pl"
    ],
    [
      "Ex",
      "ternal</w>"
    ],
    [
      "Expl",
      "oration</w>"
    ],
    [
      "F",
      "</w>"
    ],
    [
      "F",
      "am"
    ],
    [
      "F",
      "in"
    ],
    [
      "F",
      "ir"
    ],
    [
      "F",
      "r"
    ],
    [
      "F",
      "unc"
    ],
    [
      "F",
      "und"
    ],
    [
      "Fam",
      "ous</w>"
    ],
    [
      "Fin",
      "an"
    ],
    [
      "Finan",
      "ci"
    ],
    [
      "Financi",
      "al</w>"
    ],
    [
      "Fir",
      "st</w>"
    ],
    [
      "For",
      "eig"
    ],
    [
      "For",
      "mal</w>"
    ],
    [
      "Foreig",
      "n</w>"
    ],
    [
      "Fr",
      "en"
    ],
    [
      "Fren",
      "ch</w>"
    ],
    [
      "Func",
      "tion"
    ],
    [
      "Function",
      "alism</w>"
    ],
    [
      "Fund",
      "amental</w>"
    ],
    [
      "G",
      "ali"
    ],
    [
      "G",
      "enetic</w>"
    ],
    [
      "G",
      "er"
    ],
    [
      "G",
      "it</w>"
    ],
    [
      "G",
      "o"
    ],
    [
      "G",
      "ol"
    ],
    [
      "G",
      "rap"
    ],
    [
      "G",
      "ro"
    ],
    [
      "G",
      "u"
    ],
    [
      "Gali",
      "le"
    ],
    [
      "Galile",
      "o</w>"
    ],
    [
      "Ge",
      "ometry</w>"
    ],
    [
      "Ge",
      "or"
    ],
    [
      "Geor",
      "g</w>"
    ],
    [
      "Ger",
      "many</w>"
    ],
    [
      "Go",
      "od</w>"
    ],
    [
      "Gol",
      "gi"
    ],
    [
      "Golgi",
      "</w>"
    ],
    [
      "Grap",
      "h</w>"
    ],
    [
      "Gre",
      "ec"
    ],
    [
      "Greec",
      "e</w>"
    ],
    [
      "Gro",
      "ss</w>"
    ],
    [
      "Gu",
      "ten"
    ],
    [
      "Guten",
      "berg</w>"
    ],
    [
      "H",
      "T"
    ],
    [
      "H",
      "a"
    ],
    [
      "H",
      "am"
    ],
    [
      "H",
      "elic"
    ],
    [
      "H",
      "ob"
    ],
    [
      "H",
      "ol"
    ],
    [
      "H",
      "op"
    ],
    [
      "H",
      "ow"
    ],
    [
      "H",
      "y"
    ],
    [
      "HT",
      "TP</w>"
    ],
    [
      "Ha",
      "i"
    ],
    [
      "Hai",
      "ku"
    ],
    [
      "Haiku",
      "</w>"
    ],
    [
      "Ham",
      "le"
    ],
    [
      "Hamle",
      "t</w>"
    ],
    [
      "He",
      "at</w>"
    ],
    [
      "He",
      "is"
    ],
    [
      "Heis",
      "en"
    ],
    [
      "Heisen",
      "berg</w>"
    ],
    [
      "Helic",
      "ase</w>"
    ],
    [
      "Hob",
      "bes</w>"
    ],
    [
      "Hol",
      "oc"
    ],
    [
      "Holoc",
      "a"
    ],
    [
      "Holoca",
      "ust</w>"
    ],
    [
      "Hop",
      "e</w>"
    ],
    [
      "How",
      "ev"
    ],
    [
      "Howev",
      "er</w>"
    ],
    [
      "Hum",
      "an</w>"
    ],
    [
      "Hum",
      "e</w>"
    ],
    [
      "Hy",
      "d"
    ],
    [
      "Hyd",
      "ro"
    ],
    [
      "Hydro",
      "electric</w>"
    ],
    [
      "I",
      "I</w>"
    ],
    [
      "I",
      "n</w>"
    ],
    [
      "I",
      "on"
    ],
    [
      "I",
      "s"
    ],
    [
      "I",
      "t"
    ],
    [
      "I",
      "t</w>"
    ],
    [
      "I",
      "ts</w>"
    ],
    [
      "In",
      "dex</w>"
    ],
    [
      "In",
      "di"
    ],
    [
      "In",
      "ductive</w>"
    ],
    [
      "In",
      "fer"
    ],
    [
      "In",
      "n"
    ],
    [
      "In",
      "tern"
    ],
    [
      "Indi",
      "a</w>"
    ],
    [
      "Infer",
      "ential</w>"
    ],
    [
      "Inn",
      "ate</w>"
    ],
    [
      "Intern",
      "ational</w>"
    ],
    [
      "Ion",
      "ic</w>"
    ],
    [
      "Is",
      "la"
    ],
    [
      "Isla",
      "m</w>"
    ],
    [
      "It",
      "al"
    ],
    [
      "Ital",
      "y</w>"
    ],
    [
      "J",
      "ames</w>"
    ],
    [
      "J",
      "oy"
    ],
    [
      "Jap",
      "an"
    ],
    [
      "Jap",
      "an</w>"
    ],
    [
      "Japan",
      "ese</w>"
    ],
    [
      "Joy",
      "ce</w>"
    ],
    [
      "K",
      "ey</w>"
    ],
    [
      "L",
      "a"
    ],
    [
      "L",
      "arge</w>"
    ],
    [
      "L",
      "exical</w>"
    ],
    [
      "L",
      "inear</w>"
    ],
    [
      "L",
      "inked</w>"
    ],
    [
      "L",
      "og"
    ],
    [
      "L",
      "ong</w>"
    ],
    [
      "L",
      "ow"
    ],
    [
      "La",
      "w</w>"
    ],
    [
      "Le",
      "e</w>"
    ],
    [
      "Le",
      "on"
    ],
    [
      "Leon",
      "ard"
    ],
    [
      "Leonard",
      "o</w>"
    ],
    [
      "Li",
      "ber"
    ],
    [
      "Liber",
      "tari"
    ],
    [
      "Libertari",
      "ans</w>"
    ],
    [
      "Log",
      "ic</w>"
    ],
    [
      "Low",
      "ering</w>"
    ],
    [
      "M",
      "TP</w>"
    ],
    [
      "M",
      "ac"
    ],
    [
      "M",
      "achine</w>"
    ],
    [
      "M",
      "an</w>"
    ],
    [
      "M",
      "any</w>"
    ],
    [
      "M",
      "ar"
    ],
    [
      "M",
      "at"
    ],
    [
      "M",
      "edi"
    ],
    [
      "M",
      "em"
    ],
    [
      "M",
      "er"
    ],
    [
      "M",
      "es"
    ],
    [
      "M",
      "et"
    ],
    [
      "M",
      "ic"
    ],
    [
      "M",
      "id"
    ],
    [
      "M",
      "il"
    ],
    [
      "M",
      "o"
    ],
    [
      "M",
      "on"
    ],
    [
      "M",
      "y"
    ],
    [
      "Mac",
      "be"
    ],
    [
      "Macbe",
      "th</w>"
    ],
    [
      "Mar",
      "ket</w>"
    ],
    [
      "Mat",
      "r"
    ],
    [
      "Matr",
      "ices</w>"
    ],
    [
      "Medi",
      "ter"
    ],
    [
      "Mediter",
      "ran"
    ],
    [
      "Mediterran",
      "ean</w>"
    ],
    [
      "Mem",
      "ory</w>"
    ],
    [
      "Mer",
      "ch"
    ],
    [
      "Merch",
      "ants</w>"
    ],
    [
      "Mes",
      "op"
    ],
    [
      "Mesop",
      "ot"
    ],
    [
      "Mesopot",
      "am"
    ],
    [
      "Mesopotam",
      "i"
    ],
    [
      "Mesopotami",
      "a</w>"
    ],
    [
      "Met",
      "all"
    ],
    [
      "Metall",
      "ic</w>"
    ],
    [
      "Mic",
      "h"
    ],
    [
      "Mich",
      "el"
    ],
    [
      "Michel",
      "ang"
    ],
    [
      "Michelang",
      "el"
    ],
    [
      "Michelangel",
      "o</w>"
    ],
    [
      "Mid",
      "sum"
    ],
    [
      "Midsum",
      "m"
    ],
    [
      "Midsumm",
      "er</w>"
    ],
    [
      "Mil",
      "gram</w>"
    ],
    [
      "Mo",
      "or"
    ],
    [
      "Mod",
      "ular</w>"
    ],
    [
      "Mon",
      "et"
    ],
    [
      "Monet",
      "ary</w>"
    ],
    [
      "Moor",
      "e</w>"
    ],
    [
      "My",
      "thology</w>"
    ],
    [
      "N",
      "ADPH</w>"
    ],
    [
      "N",
      "arra"
    ],
    [
      "N",
      "ations</w>"
    ],
    [
      "N",
      "ight</w>"
    ],
    [
      "N",
      "o"
    ],
    [
      "N",
      "ob"
    ],
    [
      "N",
      "on</w>"
    ],
    [
      "N",
      "or"
    ],
    [
      "N",
      "umb"
    ],
    [
      "Narra",
      "tive</w>"
    ],
    [
      "Ne",
      "w"
    ],
    [
      "Ne",
      "w</w>"
    ],
    [
      "Neur",
      "al</w>"
    ],
    [
      "Neur",
      "ons</w>"
    ],
    [
      "New",
      "ton</w>"
    ],
    [
      "No",
      "SQL</w>"
    ],
    [
      "Nob",
      "le</w>"
    ],
    [
      "Nor",
      "se</w>"
    ],
    [
      "Numb",
      "er</w>"
    ],
    [
      "O",
      "k"
    ],
    [
      "O",
      "ld</w>"
    ],
    [
      "O",
      "p"
    ],
    [
      "O",
      "ver</w>"
    ],
    [
      "Ok",
      "a"
    ],
    [
      "Oka",
      "z"
    ],
    [
      "Okaz",
      "a"
    ],
    [
      "Okaza",
      "k"
    ],
    [
      "Okazak",
      "i"
    ],
    [
      "Okazaki",
      "</w>"
    ],
    [
      "Op",
      "timization</w>"
    ],
    [
      "Oper",
      "ant</w>"
    ],
    [
      "Oper",
      "ating</w>"
    ],
    [
      "Oper",
      "ations</w>"
    ],
    [
      "Or",
      "dinary</w>"
    ],
    [
      "Or",
      "gan"
    ],
    [
      "Organ",
      "isms</w>"
    ],
    [
      "P",
      "an"
    ],
    [
      "P",
      "av"
    ],
    [
      "P",
      "hilosop"
    ],
    [
      "P",
      "ho"
    ],
    [
      "P",
      "hys"
    ],
    [
      "P",
      "i"
    ],
    [
      "P",
      "lat"
    ],
    [
      "P",
      "late</w>"
    ],
    [
      "P",
      "or"
    ],
    [
      "P",
      "re"
    ],
    [
      "Pan",
      "the"
    ],
    [
      "Panthe",
      "on</w>"
    ],
    [
      "Pav",
      "lo"
    ],
    [
      "Pavlo",
      "v"
    ],
    [
      "Pavlov",
      "</w>"
    ],
    [
      "Philosop",
      "h"
    ],
    [
      "Philosoph",
      "ers</w>"
    ],
    [
      "Pho",
      "to"
    ],
    [
      "Photo",
      "synthes"
    ],
    [
      "Photosynthes",
      "is</w>"
    ],
    [
      "Phys",
      "ic"
    ],
    [
      "Physic",
      "alism</w>"
    ],
    [
      "Pi",
      "ag"
    ],
    [
      "Piag",
      "et</w>"
    ],
    [
      "Plat",
      "o</w>"
    ],
    [
      "Po",
      "etr"
    ],
    [
      "Po",
      "litical</w>"
    ],
    [
      "Poetr",
      "y</w>"
    ],
    [
      "Por",
      "tu"
    ],
    [
      "Portu",
      "gu"
    ],
    [
      "Portugu",
      "ese</w>"
    ],
    [
      "Pre",
      "ci"
    ],
    [
      "Preci",
      "p"
    ],
    [
      "Precip",
      "it"
    ],
    [
      "Precipit",
      "ation</w>"
    ],
    [
      "Pri",
      "mary</w>"
    ],
    [
      "Pri",
      "me</w>"
    ],
    [
      "Pro",
      "b"
    ],
    [
      "Pro",
      "ces"
    ],
    [
      "Pro",
      "duc"
    ],
    [
      "Pro",
      "karyotic</w>"
    ],
    [
      "Pro",
      "tocol"
    ],
    [
      "Prob",
      "ability</w>"
    ],
    [
      "Proces",
      "s</w>"
    ],
    [
      "Produc",
      "ers</w>"
    ],
    [
      "Protocol",
      "</w>"
    ],
    [
      "Qu",
      "adratic</w>"
    ],
    [
      "Qu",
      "i"
    ],
    [
      "Qui",
      "x"
    ],
    [
      "Quix",
      "ot"
    ],
    [
      "Quixot",
      "e</w>"
    ],
    [
      "R",
      "AM</w>"
    ],
    [
      "R",
      "e"
    ],
    [
      "R",
      "el"
    ],
[...]
