{
  "token_to_id": {
    "<pad>": 0,
    "<s>": 1,
    "</s>": 2,
    "<unk>": 3,
    "<sep>": 4,
    "<mask>": 5,
    "<Q>": 6,
    "<A>": 7,
    "<USER>": 8,
    "<BOT>": 9,
    "<think>": 10,
    "</think>": 11,
    "<search>": 12,
    "</search>": 13,
    "\u0000": 14,
    "\u0001": 15,
    "\u0002": 16,
    "\u0003": 17,
    "\u0004": 18,
    "\u0005": 19,
    "\u0006": 20,
    "\u0007": 21,
    "\b": 22,
    "\t": 23,
    "\n": 24,
    "\u000b": 25,
    "\f": 26,
    "\r": 27,
    "\u000e": 28,
    "\u000f": 29,
    "\u0010": 30,
    "\u0011": 31,
    "\u0012": 32,
    "\u0013": 33,
    "\u0014": 34,
    "\u0015": 35,
    "\u0016": 36,
    "\u0017": 37,
    "\u0018": 38,
    "\u0019": 39,
    "\u001a": 40,
    "\u001b": 41,
    "\u001c": 42,
    "\u001d": 43,
    "\u001e": 44,
    "\u001f": 45,
    " ": 46,
    "!": 47,
    "\"": 48,
    "#": 49,
    "$": 50,
    "%": 51,
    "&": 52,
    "'": 53,
    "(": 54,
    ")": 55,
    "*": 56,
    "+": 57,
    ",": 58,
    "-": 59,
    ".": 60,
    "/": 61,
    "0": 62,
    "1": 63,
    "2": 64,
    "3": 65,
    "4": 66,
    "5": 67,
    "6": 68,
    "7": 69,
    "8": 70,
    "9": 71,
    ":": 72,
    ";": 73,
    "<": 74,
    "=": 75,
    ">": 76,
    "?": 77,
    "@": 78,
    "A": 79,
    "B": 80,
    "C": 81,
    "D": 82,
    "E": 83,
    "F": 84,
    "G": 85,
    "H": 86,
    "I": 87,
    "J": 88,
    "K": 89,
    "L": 90,
    "M": 91,
    "N": 92,
    "O": 93,
    "P": 94,
    "Q": 95,
    "R": 96,
    "S": 97,
    "T": 98,
    "U": 99,
    "V": 100,
    "W": 101,
    "X": 102,
    "Y": 103,
    "Z": 104,
    "[": 105,
    "\\": 106,
    "]": 107,
    "^": 108,
    "_": 109,
    "`": 110,
    "a": 111,
    "b": 112,
    "c": 113,
    "d": 114,
    "e": 115,
    "f": 116,
    "g": 117,
    "h": 118,
    "i": 119,
    "j": 120,
    "k": 121,
    "l": 122,
    "m": 123,
    "n": 124,
    "o": 125,
    "p": 126,
    "q": 127,
    "r": 128,
    "s": 129,
    "t": 130,
    "u": 131,
    "v": 132,
    "w": 133,
    "x": 134,
    "y": 135,
    "z": 136,
    "{": 137,
    "|": 138,
    "}": 139,
    "~": 140,
    "": 141,
    "": 142,
    "": 143,
    "": 144,
    "": 145,
    "": 146,
    "": 147,
    "": 148,
    "": 149,
    "": 150,
    "": 151,
    "": 152,
    "": 153,
    "": 154,
    "": 155,
    "": 156,
    "": 157,
    "": 158,
    "": 159,
    "": 160,
    "": 161,
    "": 162,
    "": 163,
    "": 164,
    "": 165,
    "": 166,
    "": 167,
    "": 168,
    "": 169,
    "": 170,
    "": 171,
    "": 172,
    "": 173,
    " ": 174,
    "¡": 175,
    "¢": 176,
    "£": 177,
    "¤": 178,
    "¥": 179,
    "¦": 180,
    "§": 181,
    "¨": 182,
    "©": 183,
    "ª": 184,
    "«": 185,
    "¬": 186,
    "­": 187,
    "®": 188,
    "¯": 189,
    "°": 190,
    "±": 191,
    "²": 192,
    "³": 193,
    "´": 194,
    "µ": 195,
    "¶": 196,
    "·": 197,
    "¸": 198,
    "¹": 199,
    "º": 200,
    "»": 201,
    "¼": 202,
    "½": 203,
    "¾": 204,
    "¿": 205,
    "À": 206,
    "Á": 207,
    "Â": 208,
    "Ã": 209,
    "Ä": 210,
    "Å": 211,
    "Æ": 212,
    "Ç": 213,
    "È": 214,
    "É": 215,
    "Ê": 216,
    "Ë": 217,
    "Ì": 218,
    "Í": 219,
    "Î": 220,
    "Ï": 221,
    "Ð": 222,
    "Ñ": 223,
    "Ò": 224,
    "Ó": 225,
    "Ô": 226,
    "Õ": 227,
    "Ö": 228,
    "×": 229,
    "Ø": 230,
    "Ù": 231,
    "Ú": 232,
    "Û": 233,
    "Ü": 234,
    "Ý": 235,
    "Þ": 236,
    "ß": 237,
    "à": 238,
    "á": 239,
    "â": 240,
    "ã": 241,
    "ä": 242,
    "å": 243,
    "æ": 244,
    "ç": 245,
    "è": 246,
    "é": 247,
    "ê": 248,
    "ë": 249,
    "ì": 250,
    "í": 251,
    "î": 252,
    "ï": 253,
    "ð": 254,
    "ñ": 255,
    "ò": 256,
    "ó": 257,
    "ô": 258,
    "õ": 259,
    "ö": 260,
    "÷": 261,
    "ø": 262,
    "ù": 263,
    "ú": 264,
    "û": 265,
    "ü": 266,
    "ý": 267,
    "þ": 268,
    "ÿ": 269,
    " t": 270,
    " a": 271,
    "he": 272,
    "in": 273,
    "re": 274,
    "on": 275,
    " the": 276,
    "er": 277,
    " s": 278,
    " o": 279,
    "at": 280,
    " w": 281,
    "nd": 282,
    " c": 283,
    "en": 284,
    "is": 285,
    "es": 286,
    "it": 287,
    "or": 288,
    "ed": 289,
    " f": 290,
    " p": 291,
    " b": 292,
    "an": 293,
    "al": 294,
    "ing": 295,
    " of": 296,
    "ou": 297,
    "ar": 298,
    " in": 299,
    " and": 300,
    " m": 301,
    " to": 302,
    "ic": 303,
    " d": 304,
    "ion": 305,
    "as": 306,
    "le": 307,
    "ro": 308,
    " h": 309,
    " th": 310,
    "ent": 311,
    "il": 312,
    " e": 313,
    "om": 314,
    " re": 315,
    "st": 316,
    " l": 317,
    "ct": 318,
    "ve": 319,
    " n": 320,
    "â": 321,
    "ly": 322,
    " T": 323,
    " be": 324,
    " is": 325,
    " g": 326,
    " S": 327,
    "ol": 328,
    "et": 329,
    "id": 330,
    " A": 331,
    "ot": 332,
    "ut": 333,
    "im": 334,
    "se": 335,
    " I": 336,
    "ur": 337,
    " C": 338,
    "ce": 339,
    " for": 340,
    "ra": 341,
    " on": 342,
    "ation": 343,
    "ow": 344,
    "ch": 345,
    "ig": 346,
    " y": 347,
    "\r\n": 348,
    "ver": 349,
    "am": 350,
    " u": 351,
    " that": 352,
    "ay": 353,
    " st": 354,
    "\r\n\r": 355,
    "ir": 356,
    "ad": 357,
    "ith": 358,
    "el": 359,
    " M": 360,
    " as": 361,
    " with": 362,
    " you": 363,
    "her": 364,
    "ul": 365,
    " 1": 366,
    " P": 367,
    " it": 368,
    "ter": 369,
    " an": 370,
    " B": 371,
    " wh": 372,
    " al": 373,
    " pro": 374,
    " (": 375,
    " con": 376,
    " are": 377,
    " The": 378,
    "if": 379,
    "ge": 380,
    " H": 381,
    "ill": 382,
    "ers": 383,
    " he": 384,
    "od": 385,
    " was": 386,
    "th": 387,
    " or": 388,
    "ist": 389,
    "â": 390,
    "ate": 391,
    "us": 392,
    "ment": 393,
    " we": 394,
    " W": 395,
    " 2": 396,
    "op": 397,
    "ri": 398,
    " de": 399,
    " D": 400,
    "est": 401,
    " com": 402,
    "ac": 403,
    " R": 404,
    " at": 405,
    "ab": 406,
    "ess": 407,
    "ke": 408,
    "ore": 409,
    "um": 410,
    "and": 411,
    "pe": 412,
    "rom": 413,
    "ld": 414,
    " ex": 415,
    " F": 416,
    "ity": 417,
    " by": 418,
    "res": 419,
    "em": 420,
    " se": 421,
    " v": 422,
    "un": 423,
    " L": 424,
    "ain": 425,
    "os": 426,
    "igh": 427,
    " E": 428,
    " G": 429,
    " N": 430,
    "ies": 431,
    "qu": 432,
    "ant": 433,
    " ha": 434,
    "ive": 435,
    " su": 436,
    " from": 437,
    "oc": 438,
    "nt": 439,
    "pp": 440,
    "ort": 441,
    " ne": 442,
    "art": 443,
    "ud": 444,
    " ch": 445,
    " r": 446,
    "iv": 447,
    " not": 448,
    " can": 449,
    " â": 450,
    " have": 451,
    "red": 452,
    "all": 453,
    " le": 454,
    " sh": 455,
    "ial": 456,
    "ust": 457,
    "ect": 458,
    " J": 459,
    " this": 460,
    "ard": 461,
    " O": 462,
    "ight": 463,
    "our": 464,
    "ich": 465,
    "ure": 466,
    "gh": 467,
    "The": 468,
    "rou": 469,
    " pl": 470,
    "ost": 471,
    "ome": 472,
    "'s": 473,
    "og": 474,
    "ould": 475,
    " wor": 476,
    "ical": 477,
    "pt": 478,
    " ab": 479,
    "out": 480,
    "ag": 481,
    "ine": 482,
    "ated": 483,
    "ast": 484,
    "per": 485,
    "ions": 486,
    "ell": 487,
    "ak": 488,
    "ide": 489,
    " U": 490,
    "te": 491,
    "ther": 492,
    "ie": 493,
    " your": 494,
    "ff": 495,
    "pl": 496,
    " k": 497,
    "age": 498,
    " whe": 499,
    "ans": 500,
    " us": 501,
    " all": 502,
    "ong": 503,
    " their": 504,
    " has": 505,
    " will": 506,
    " which": 507,
    "ia": 508,
    "ber": 509,
    "ear": 510,
    "ous": 511,
    " In": 512,
    " en": 513,
    " im": 514,
    "ok": 515,
    " comp": 516,
    " ad": 517,
    "act": 518,
    "du": 519,
    " K": 520,
    "ip": 521,
    " they": 522,
    "iz": 523,
    "cc": 524,
    " but": 525,
    " his": 526,
    "ack": 527,
    "ary": 528,
    " \"": 529,
    " inc": 530,
    "so": 531,
    "ru": 532,
    " j": 533,
    " do": 534,
    "ood": 535,
    "ry": 536,
    " cont": 537,
    "ice": 538,
    " cl": 539,
    "ap": 540,
    "are": 541,
    " more": 542,
    "ult": 543,
    " res": 544,
    " me": 545,
    "ally": 546,
    "orm": 547,
    " were": 548,
    " Th": 549,
    "ame": 550,
    " te": 551,
    "able": 552,
    "ations": 553,
    "ind": 554,
    " one": 555,
    "â": 556,
    "ign": 557,
    " man": 558,
    "ib": 559,
    " int": 560,
    "one": 561,
    " out": 562,
    "vel": 563,
    " dis": 564,
    "ime": 565,
    "ance": 566,
    "ake": 567,
    " who": 568,
    " also": 569,
    " St": 570,
    "ub": 571,
    " so": 572,
    " other": 573,
    "ach": 574,
    "av": 575,
    "ence": 576,
    " per": 577,
    "ord": 578,
    "ass": 579,
    " Ch": 580,
    "ction": 581,
    "ater": 582,
    "very": 583,
    "ite": 584,
    "ire": 585,
    "ild": 586,
    " un": 587,
    "au": 588,
    " up": 589,
    "ish": 590,
    "ress": 591,
    "ue": 592,
    " ar": 593,
    "ian": 594,
    "ree": 595,
    "ook": 596,
    "ace": 597,
    "ition": 598,
    "ount": 599,
    " about": 600,
    "ase": 601,
    "ose": 602,
    "fe": 603,
    "port": 604,
    " part": 605,
    "ks": 606,
    "ew": 607,
    " V": 608,
    "ren": 609,
    "ike": 610,
    " It": 611,
    "reat": 612,
    "mer": 613,
    " â": 614,
    " ev": 615,
    "ens": 616,
    "ents": 617,
    "ile": 618,
    "own": 619,
    "ll": 620,
    "ail": 621,
    "ound": 622,
    "ory": 623,
    " go": 624,
    " had": 625,
    "ond": 626,
    " year": 627,
    "ep": 628,
    " sc": 629,
    " sp": 630,
    "ang": 631,
    " pe": 632,
    " qu": 633,
    " Y": 634,
    " been": 635,
    ").": 636,
    " them": 637,
    "vers": 638,
    "ings": 639,
    "ors": 640,
    " ag": 641,
    "erv": 642,
    " bec": 643,
    "irst": 644,
    "form": 645,
    " spe": 646,
    "ric": 647,
    " 3": 648,
    " rec": 649,
    "nder": 650,
    "ays": 651,
    " sa": 652,
    " some": 653,
    " its": 654,
    "ces": 655,
    "ough": 656,
    " time": 657,
    "low": 658,
    "ove": 659,
    " pre": 660,
    " tra": 661,
    " work": 662,
    " when": 663,
    " kn": 664,
    " over": 665,
    " there": 666,
    " than": 667,
    " ro": 668,
    " our": 669,
    "ates": 670,
    "rit": 671,
    "int": 672,
    " tw": 673,
    " into": 674,
    " app": 675,
    " He": 676,
    "ople": 677,
    " would": 678,
    " new": 679,
    " off": 680,
    " comm": 681,
    "fter": 682,
    "wn": 683,
    "lud": 684,
    "ph": 685,
    "ark": 686,
    " like": 687,
    " first": 688,
    "ons": 689,
    " des": 690,
    " stud": 691,
    "lic": 692,
    "ov": 693,
    "hed": 694,
    " any": 695,
    " ra": 696,
    "tern": 697,
    "rough": 698,
    "we": 699,
    "ob": 700,
    " her": 701,
    "old": 702,
    " sy": 703,
    "ck": 704,
    "olog": 705,
    " may": 706,
    " acc": 707,
    " people": 708,
    " Un": 709,
    "ual": 710,
    "ious": 711,
    "),": 712,
    " how": 713,
    " bet": 714,
    " ind": 715,
    " most": 716,
    " if": 717,
    "ational": 718,
    "lect": 719,
    " cons": 720,
    " act": 721,
    " includ": 722,
    "ne": 723,
    " This": 724,
    "les": 725,
    "ning": 726,
    "rent": 727,
    "amp": 728,
    " two": 729,
    " under": 730,
    " what": 731,
    " col": 732,
    "ause": 733,
    "erm": 734,
    " no": 735,
    " my": 736,
    "ments": 737,
    " fe": 738,
    " am": 739,
    "ced": 740,
    " â": 741,
    " need": 742,
    "ool": 743,
    " bl": 744,
    "ject": 745,
    " only": 746,
    " these": 747,
    " tr": 748,
    "ys": 749,
    "ating": 750,
    " dif": 751,
    " use": 752,
    "ick": 753,
    "ram": 754,
    "round": 755,
    "ific": 756,
    "ities": 757,
    "ath": 758,
    " rel": 759,
    " -": 760,
    "In": 761,
    " bu": 762,
    "ft": 763,
    " get": 764,
    " prov": 765,
    "uring": 766,
    "iss": 767,
    "ied": 768,
    "ink": 769,
    " produ": 770,
    " 4": 771,
    " ph": 772,
    " through": 773,
    "ise": 774,
    "hen": 775,
    " such": 776,
    " hel": 777,
    "ased": 778,
    "oth": 779,
    " Re": 780,
    " po": 781,
    " co": 782,
    "als": 783,
    "land": 784,
    " reg": 785,
    "ade": 786,
    " imp": 787,
    "ful": 788,
    " after": 789,
    "cial": 790,
    "ative": 791,
    "ular": 792,
    "rib": 793,
    "oy": 794,
    "aw": 795,
    " help": 796,
    " add": 797,
    "velop": 798,
    "cess": 799,
    " em": 800,
    " she": 801,
    "bs": 802,
    "ng": 803,
    " many": 804,
    "ts": 805,
    " 5": 806,
    "stem": 807,
    " dec": 808,
    " said": 809,
    " gen": 810,
    " ass": 811,
    "ss": 812,
    "ics": 813,
    "oss": 814,
    " just": 815,
    "fore": 816,
    " well": 817,
    "alth": 818,
    "ient": 819,
    "row": 820,
    "sel": 821,
    " ac": 822,
    " rem": 823,
    " years": 824,
    "ting": 825,
    " eff": 826,
    "ited": 827,
    "eth": 828,
    " inv": 829,
    "ife": 830,
    " where": 831,
    " supp": 832,
    " att": 833,
    "gan": 834,
    "ident": 835,
    " used": 836,
    "ily": 837,
    " fl": 838,
    " pr": 839,
    "xt": 840,
    "ange": 841,
    "arch": 842,
    "ert": 843,
    "urn": 844,
    " make": 845,
    "ures": 846,
    "ont": 847,
    "ract": 848,
    " could": 849,
    "ivers": 850,
    "ible": 851,
    "hes": 852,
    " form": 853,
    " pres": 854,
    "ween": 855,
    "uch": 856,
    " develop": 857,
    "ower": 858,
    "iet": 859,
    " We": 860,
    "ility": 861,
    " know": 862,
    " diffe": 863,
    " pol": 864,
    " sm": 865,
    "meric": 866,
    " sec": 867,
    " child": 868,
    "ward": 869,
    " then": 870,
    "ble": 871,
    " sur": 872,
    "chool": 873,
    "ec": 874,
    "pect": 875,
    " play": 876,
    "cy": 877,
    " should": 878,
    " loc": 879,
    "ten": 880,
    "end": 881,
    "ict": 882,
    " system": 883,
    "its": 884,
    " between": 885,
    "iew": 886,
    "any": 887,
    " serv": 888,
    " very": 889,
    " ear": 890,
    " high": 891,
    "ever": 892,
    " him": 893,
    "â": 894,
    " back": 895,
    " every": 896,
    " inst": 897,
    "hip": 898,
    " sub": 899,
    " trans": 900,
    "..": 901,
    "Th": 902,
    "other": 903,
    "io": 904,
    "aking": 905,
    " pers": 906,
    " see": 907,
    " even": 908,
    " Com": 909,
    "ines": 910,
    " num": 911,
    "ork": 912,
    " Al": 913,
    " mod": 914,
    " pub": 915,
    " Americ": 916,
    "ars": 917,
    "tle": 918,
    "ution": 919,
    "get": 920,
    " being": 921,
    " Wh": 922,
    "ience": 923,
    " found": 924,
    "ollow": 925,
    " $": 926,
    " way": 927,
    " because": 928,
    "ins": 929,
    " long": 930,
    "orn": 931,
    " ent": 932,
    " inter": 933,
    " exper": 934,
    " 6": 935,
    " own": 936,
    " inf": 937,
    " cent": 938,
    " disc": 939,
    "up": 940,
    "ty": 941,
    " call": 942,
    " set": 943,
    " Ar": 944,
    " again": 945,
    " sim": 946,
    " count": 947,
    "ism": 948,
    " New": 949,
    "arm": 950,
    " ke": 951,
    "ants": 952,
    "ock": 953,
    "ix": 954,
    " med": 955,
    " end": 956,
    " ed": 957,
    "ually": 958,
    "led": 959,
    " mon": 960,
    "chn": 961,
    "ince": 962,
    " made": 963,
    "uc": 964,
    " world": 965,
    " fam": 966,
    " look": 967,
    "ists": 968,
    "cept": 969,
    "roup": 970,
    " those": 971,
    " car": 972,
    "ale": 973,
    " lar": 974,
    " Pro": 975,
    "ural": 976,
    "ices": 977,
    " fin": 978,
    "ology": 979,
    " much": 980,
    "ouse": 981,
    " min": 982,
    " exp": 983,
    "vern": 984,
    "und": 985,
    "iversity": 986,
    " lead": 987,
    " gra": 988,
    "ved": 989,
    " right": 990,
    " before": 991,
    " water": 992,
    " now": 993,
    " art": 994,
    "ues": 995,
    "ted": 996,
    "ven": 997,
    " As": 998,
    "ank": 999,
    "ather": 1000,
    "formation": 1001,
    " ins": 1002,
    " sign": 1003,
    "air": 1004,
    " mem": 1005,
    "de": 1006,
    "iel": 1007,
    " different": 1008,
    "ives": 1009,
    " follow": 1010,
    "ah": 1011,
    " De": 1012,
    " during": 1013,
    "oh": 1014,
    " det": 1015,
    " import": 1016,
    " show": 1017,
    "imes": 1018,
    " prog": 1019,
    "the": 1020,
    "ason": 1021,
    "ness": 1022,
    " spec": 1023,
    " good": 1024,
    " each": 1025,
    " gener": 1026,
    "ically": 1027,
    " dist": 1028,
    "day": 1029,
    " cre": 1030,
    "ata": 1031,
    "ature": 1032,
    "ral": 1033,
    " start": 1034,
    " health": 1035,
    "oun": 1036,
    "ash": 1037,
    " requ": 1038,
    "ax": 1039,
    " rep": 1040,
    " var": 1041,
    " inte": 1042,
    " while": 1043,
    "way": 1044,
    "'t": 1045,
    " same": 1046,
    " does": 1047,
    "ished": 1048,
    " life": 1049,
    " find": 1050,
    " did": 1051,
    " ap": 1052,
    " An": 1053,
    " three": 1054,
    " both": 1055,
    "ier": 1056,
    " ty": 1057,
    "ages": 1058,
    "cer": 1059,
    " read": 1060,
    "gg": 1061,
    "rest": 1062,
    "vent": 1063,
    " ser": 1064,
    " down": 1065,
    " ob": 1066,
    "irect": 1067,
    ".\"": 1068,
    " Le": 1069,
    " br": 1070,
    " Ind": 1071,
    "man": 1072,
    " gu": 1073,
    " comple": 1074,
    " cur": 1075,
    "ized": 1076,
    "cent": 1077,
    "der": 1078,
    " Sh": 1079,
    " commun": 1080,
    " person": 1081,
    " design": 1082,
    " You": 1083,
    "ving": 1084,
    " rese": 1085,
    " day": 1086,
    " 7": 1087,
    " result": 1088,
    " ret": 1089,
    "ene": 1090,
    " aut": 1091,
    "gy": 1092,
    " Se": 1093,
    "com": 1094,
    " ca": 1095,
    " che": 1096,
    " incre": 1097,
    " av": 1098,
    " op": 1099,
    " They": 1100,
    "az": 1101,
    "ision": 1102,
    "ner": 1103,
    " effect": 1104,
    "ters": 1105,
    " fact": 1106,
    " char": 1107,
    " take": 1108,
    " want": 1109,
    "ined": 1110,
    " partic": 1111,
    " group": 1112,
    "ody": 1113,
    "ute": 1114,
    "ruct": 1115,
    " state": 1116,
    "ull": 1117,
    "rop": 1118,
    " And": 1119,
    " ref": 1120,
    " If": 1121,
    " 8": 1122,
    "self": 1123,
    " pat": 1124,
    "iness": 1125,
    "ality": 1126,
    " lear": 1127,
    "con": 1128,
    "outh": 1129,
    " soc": 1130,
    " great": 1131,
    " process": 1132,
    " For": 1133,
    "pr": 1134,
    "ield": 1135,
    " point": 1136,
    "ize": 1137,
    " build": 1138,
    " school": 1139,
    "read": 1140,
    ".â": 1141,
    "omen": 1142,
    " main": 1143,
    " ext": 1144,
    " Sc": 1145,
    " str": 1146,
    " lit": 1147,
    " around": 1148,
    " techn": 1149,
    "ave": 1150,
    "aj": 1151,
    "ug": 1152,
    " information": 1153,
    " pop": 1154,
    " support": 1155,
    "ury": 1156,
    " &": 1157,
    "ple": 1158,
    " hum": 1159,
    "akes": 1160,
    " sk": 1161,
    "ross": 1162,
    "ton": 1163,
    " hand": 1164,
    " def": 1165,
    "uss": 1166,
    " don": 1167,
    "ases": 1168,
    "ex": 1169,
    " small": 1170,
    " hist": 1171,
    " 9": 1172,
    " number": 1173,
    " bo": 1174,
    " think": 1175,
    "ional": 1176,
    " best": 1177,
    " important": 1178,
    "ves": 1179,
    " including": 1180,
    " bus": 1181,
    "orth": 1182,
    " provid": 1183,
    " team": 1184,
    "ets": 1185,
    " home": 1186,
    " bel": 1187,
    " though": 1188,
    " How": 1189,
    "cl": 1190,
    " care": 1191,
    " using": 1192,
    " children": 1193,
    "ired": 1194,
    "ik": 1195,
    " level": 1196,
    "blem": 1197,
    " place": 1198,
    " program": 1199,
    " expl": 1200,
    " But": 1201,
    " University": 1202,
    " mat": 1203,
    "ron": 1204,
    " val": 1205,
    " resp": 1206,
    " Is": 1207,
    " organ": 1208,
    " still": 1209,
    " sol": 1210,
    " est": 1211,
    " govern": 1212,
    " last": 1213,
    " gl": 1214,
    "alk": 1215,
    "ger": 1216,
    " poss": 1217,
    "iron": 1218,
    " cour": 1219,
    " writ": 1220,
    "pend": 1221,
    "line": 1222,
    "ared": 1223,
    " book": 1224,
    " Cl": 1225,
    "ien": 1226,
    " som": 1227,
    "ina": 1228,
    "ample": 1229,
    "ames": 1230,
    " contin": 1231,
    " cle": 1232,
    " fun": 1233,
    "iqu": 1234,
    "Wh": 1235,
    " report": 1236,
    "bers": 1237,
    "inal": 1238,
    "me": 1239,
    "ains": 1240,
    " mark": 1241,
    " data": 1242,
    "oot": 1243,
    "ium": 1244,
    " problem": 1245,
    "ital": 1246,
    " vis": 1247,
    " class": 1248,
    "stand": 1249,
    " conf": 1250,
    " second": 1251,
    " public": 1252,
    "dition": 1253,
    " prot": 1254,
    " power": 1255,
    " plan": 1256,
    " test": 1257,
    "This": 1258,
    "rol": 1259,
    ",â": 1260,
    " Q": 1261,
    " adv": 1262,
    "els": 1263,
    "imate": 1264,
    "ivid": 1265,
    ".,": 1266,
    " fil": 1267,
    " elect": 1268,
    " direct": 1269,
    " prof": 1270,
    " students": 1271,
    " here": 1272,
    " .": 1273,
    " di": 1274,
    " allow": 1275,
    " American": 1276,
    "â": 1277,
    " must": 1278,
    " const": 1279,
    " food": 1280,
    "iving": 1281,
    " against": 1282,
    " sl": 1283,
    " few": 1284,
    "ential": 1285,
    " There": 1286,
    " eas": 1287,
    " appe": 1288,
    " less": 1289,
    "be": 1290,
    " product": 1291,
    " known": 1292,
    " occ": 1293,
    "view": 1294,
    "||": 1295,
    " pur": 1296,
    " Eng": 1297,
    "ior": 1298,
    "ran": 1299,
    "iety": 1300,
    " often": 1301,
    " grow": 1302,
    " run": 1303,
    "â": 1304,
    "osed": 1305,
    " met": 1306,
    "It": 1307,
    " Col": 1308,
    "ering": 1309,
    " Con": 1310,
    " cor": 1311,
    " large": 1312,
    " list": 1313,
    "to": 1314,
    "ries": 1315,
    "illion": 1316,
    "lish": 1317,
    " open": 1318,
    " stand": 1319,
    "reen": 1320,
    " mus": 1321,
    " unt": 1322,
    " Z": 1323,
    " pass": 1324,
    "ird": 1325,
    "ining": 1326,
    " bro": 1327,
    " iss": 1328,
    " wee": 1329,
    "oci": 1330,
    "uro": 1331,
    " rele": 1332,
    "ulation": 1333,
    "ording": 1334,
    " rest": 1335,
    " equ": 1336,
    " called": 1337,
    " Ad": 1338,
    "less": 1339,
    " family": 1340,
    "rence": 1341,
    " quest": 1342,
    " another": 1343,
    " area": 1344,
    " say": 1345,
    " project": 1346,
    " ide": 1347,
    " top": 1348,
    " Pl": 1349,
    " since": 1350,
    " without": 1351,
    "viron": 1352,
    "ense": 1353,
    "ways": 1354,
    " four": 1355,
    " perform": 1356,
    " aff": 1357,
    " pri": 1358,
    " study": 1359,
    " On": 1360,
    " activ": 1361,
    "ived": 1362,
    "ats": 1363,
    "eng": 1364,
    "ling": 1365,
    " ele": 1366,
    " appro": 1367,
    " Ph": 1368,
    " eng": 1369,
    " oper": 1370,
    "itions": 1371,
    "rist": 1372,
    "ration": 1373,
    "raph": 1374,
    " too": 1375,
    " business": 1376,
    "ained": 1377,
    " land": 1378,
    " opp": 1379,
    " real": 1380,
    " within": 1381,
    " might": 1382,
    " present": 1383,
    " sit": 1384,
    "ccess": 1385,
    "eral": 1386,
    " United": 1387,
    "ote": 1388,
    " pos": 1389,
    "ret": 1390,
    " At": 1391,
    " Be": 1392,
    " post": 1393,
    " law": 1394,
    "ohn": 1395,
    " â": 1396,
    " She": 1397,
    " 0": 1398,
    " beh": 1399,
    " dep": 1400,
    "ertain": 1401,
    " interest": 1402,
    " ve": 1403,
    " dem": 1404,
    " research": 1405,
    "ern": 1406,
    " treat": 1407,
    "ajor": 1408,
    "We": 1409,
    "conom": 1410,
    " old": 1411,
    "ption": 1412,
    "ator": 1413,
    " rece": 1414,
    " body": 1415,
    "inc": 1416,
    "ley": 1417,
    " air": 1418,
    " mar": 1419,
    "ization": 1420,
    " term": 1421,
    "lished": 1422,
    "ised": 1423,
    " â": 1424,
    "ered": 1425,
    " par": 1426,
    " word": 1427,
    "gin": 1428,
    " head": 1429,
    " del": 1430,
    "ission": 1431,
    " later": 1432,
    " orig": 1433,
    "iver": 1434,
    " light": 1435,
    " ris": 1436,
    "ned": 1437,
    " pract": 1438,
    " until": 1439,
    " Can": 1440,
    "ards": 1441,
    " avail": 1442,
    " belie": 1443,
    " chang": 1444,
    " Bl": 1445,
    " sever": 1446,
    "vironment": 1447,
    "gen": 1448,
    " government": 1449,
    " name": 1450,
    " happ": 1451,
    " women": 1452,
    "acter": 1453,
    "ently": 1454,
    "ection": 1455,
    "ified": 1456,
    " redu": 1457,
    " month": 1458,
    " example": 1459,
    "iven": 1460,
    "med": 1461,
    "mber": 1462,
    "ians": 1463,
    " cap": 1464,
    " near": 1465,
    " prom": 1466,
    " human": 1467,
    " Comm": 1468,
    "atic": 1469,
    " early": 1470,
    "ump": 1471,
    " bre": 1472,
    " Sp": 1473,
    " keep": 1474,
    " sing": 1475,
    "ured": 1476,
    " bas": 1477,
    " better": 1478,
    ",\"": 1479,
    "ember": 1480,
    " bra": 1481,
    "hor": 1482,
    "ids": 1483,
    " change": 1484,
    " things": 1485,
    " common": 1486,
    " free": 1487,
    "iod": 1488,
    " leg": 1489,
    "riend": 1490,
    " cost": 1491,
    "une": 1492,
    " proper": 1493,
    " Ex": 1494,
    " several": 1495,
    " going": 1496,
    "co": 1497,
    " understand": 1498,
    "hers": 1499,
    "cing": 1500,
    " order": 1501,
    " cr": 1502,
    "ination": 1503,
    "oint": 1504,
    "aterial": 1505,
    "ividual": 1506,
    "oad": 1507,
    "itive": 1508,
    " come": 1509,
    " Cent": 1510,
    " Te": 1511,
    "of": 1512,
    " el": 1513,
    "ploy": 1514,
    " pain": 1515,
    " cell": 1516,
    " mov": 1517,
    " current": 1518,
    " mil": 1519,
    " tem": 1520,
    "\r\n\r\n": 1521,
    " All": 1522,
    "ention": 1523,
    "arent": 1524,
    " available": 1525,
    " pot": 1526,
    " major": 1527,
    " [": 1528,
    "rodu": 1529,
    " really": 1530,
    " John": 1531,
    " put": 1532,
    "oms": 1533,
    " game": 1534,
    " record": 1535,
    " tri": 1536,
    " educ": 1537,
    "ider": 1538,
    " feel": 1539,
    " war": 1540,
    "here": 1541,
    "sc": 1542,
    " include": 1543,
    "ware": 1544,
    " become": 1545,
    " Or": 1546,
    " social": 1547,
    " Res": 1548,
    " addition": 1549,
    " lot": 1550,
    " dra": 1551,
    " move": 1552,
    "por": 1553,
    "ething": 1554,
    "ged": 1555,
    " little": 1556,
    " impro": 1557,
    "ably": 1558,
    " ann": 1559,
    "ify": 1560,
    " able": 1561,
    "used": 1562,
    " invest": 1563,
    " next": 1564,
    " Mar": 1565,
    " let": 1566,
    " fac": 1567,
    " development": 1568,
    " individual": 1569,
    "ternational": 1570,
    "orld": 1571,
    " dri": 1572,
    "use": 1573,
    " '": 1574,
    " along": 1575,
    " typ": 1576,
    "resent": 1577,
    " States": 1578,
    " es": 1579,
    "ergy": 1580,
    " These": 1581,
    "ograph": 1582,
    "ability": 1583,
    "tend": 1584,
    "par": 1585,
    " local": 1586,
    " provide": 1587,
    "rid": 1588,
    "ients": 1589,
    " US": 1590,
    " National": 1591,
    " success": 1592,
    "by": 1593,
    " following": 1594,
    "ann": 1595,
    " company": 1596,
    "ee": 1597,
    " However": 1598,
    " case": 1599,
    " never": 1600,
    " country": 1601,
    " low": 1602,
    " offic": 1603,
    " ident": 1604,
    " material": 1605,
    "crib": 1606,
    " based": 1607,
    " Tr": 1608,
    "angu": 1609,
    "mb": 1610,
    " control": 1611,
    "ories": 1612,
    " turn": 1613,
    " non": 1614,
    " always": 1615,
    " ant": 1616,
    " dev": 1617,
    " men": 1618,
    "ead": 1619,
    " econom": 1620,
    "ope": 1621,
    "son": 1622,
    " Euro": 1623,
    " hard": 1624,
    " something": 1625,
    "ills": 1626,
    "thing": 1627,
    " phys": 1628,
    " view": 1629,
    " line": 1630,
    "ery": 1631,
    " anal": 1632,
    " Christ": 1633,
    " short": 1634,
    " fore": 1635,
    "let": 1636,
    " times": 1637,
    "atch": 1638,
    "ott": 1639,
    "ox": 1640,
    " history": 1641,
    "icle": 1642,
    "ode": 1643,
    "vious": 1644,
    "work": 1645,
    " cult": 1646,
    "--": 1647,
    " invol": 1648,
    "ources": 1649,
    " try": 1650,
    " tre": 1651,
    " says": 1652,
    " When": 1653,
    "ides": 1654,
    " polit": 1655,
    " Car": 1656,
    " hig": 1657,
    "ethod": 1658,
    " profess": 1659,
    " dise": 1660,
    " house": 1661,
    " among": 1662,
    " special": 1663,
    " making": 1664,
    "ilar": 1665,
    "ober": 1666,
    " win": 1667,
    " age": 1668,
    " days": 1669,
    "\r\n\r\n\r\n\r": 1670,
    " others": 1671,
    " city": 1672,
    "aster": 1673,
    " May": 1674,
    " possible": 1675,
    "\".": 1676,
    " seem": 1677,
    " left": 1678,
    "atural": 1679,
    "ected": 1680,
    " environment": 1681,
    " mean": 1682,
    "ones": 1683,
    "aim": 1684,
    " access": 1685,
    "though": 1686,
    "ource": 1687,
    "ush": 1688,
    "lu": 1689,
    " cho": 1690,
    " bene": 1691,
    "oney": 1692,
    " South": 1693,
    " became": 1694,
    "min": 1695,
    " means": 1696,
    " meas": 1697,
    " et": 1698,
    "agn": 1699,
    " big": 1700,
    " season": 1701,
    " percent": 1702,
    " Europe": 1703,
    "pecial": 1704,
    "fic": 1705,
    " particular": 1706,
    "As": 1707,
    "oman": 1708,
    "If": 1709,
    "irc": 1710,
    " experience": 1711,
    " War": 1712,
    " side": 1713,
    " sw": 1714,
    " ask": 1715,
    " So": 1716,
    "ental": 1717,
    "ai": 1718,
    " give": 1719,
    " Man": 1720,
    "eb": 1721,
    " energy": 1722,
    "augh": 1723,
    " period": 1724,
    "ourn": 1725,
    " lim": 1726,
    "ilt": 1727,
    "ances": 1728,
    "urs": 1729,
    "ales": 1730,
    "omm": 1731,
    "ours": 1732,
    " market": 1733,
    "iam": 1734,
    "yl": 1735,
    "urther": 1736,
    "urch": 1737,
    " Germ": 1738,
    " event": 1739,
    "side": 1740,
    "elf": 1741,
    " due": 1742,
    "ane": 1743,
    "ately": 1744,
    " certain": 1745,
    "idd": 1746,
    " million": 1747,
    "ored": 1748,
    " Go": 1749,
    " To": 1750,
    " conn": 1751,
    " full": 1752,
    " indust": 1753,
    " World": 1754,
    "idence": 1755,
    "ole": 1756,
    " creat": 1757,
    "alf": 1758,
    "ortun": 1759,
    "ples": 1760,
    " field": 1761,
    " friend": 1762,
    " past": 1763,
    "aper": 1764,
    "ustom": 1765,
    "ring": 1766,
    "ither": 1767,
    "ological": 1768,
    "ps": 1769,
    "abor": 1770,
    "osp": 1771,
    "rict": 1772,
    " community": 1773,
    "He": 1774,
    " foc": 1775,
    "ung": 1776,
    "Ã©": 1777,
    " Aust": 1778,
    " hy": 1779,
    " working": 1780,
    "sh": 1781,
    "ued": 1782,
    " pay": 1783,
    "fer": 1784,
    " colle": 1785,
    " toget": 1786,
    " together": 1787,
    "ison": 1788,
    "ots": 1789,
    " mult": 1790,
    "aut": 1791,
    "wards": 1792,
    " love": 1793,
    " far": 1794,
    "ream": 1795,
    "ister": 1796,
    " away": 1797,
    " course": 1798,
    "over": 1799,
    "mit": 1800,
    " young": 1801,
    " film": 1802,
    " method": 1803,
    "ogn": 1804,
    " having": 1805,
    "ler": 1806,
    "aken": 1807,
    "ney": 1808,
    "ches": 1809,
    " North": 1810,
    " given": 1811,
    "wh": 1812,
    " service": 1813,
    " sure": 1814,
    " press": 1815,
    " signific": 1816,
    " Pr": 1817,
    " comb": 1818,
    "aring": 1819,
    "hern": 1820,
    " la": 1821,
    "ony": 1822,
    "ipp": 1823,
    "stit": 1824,
    " vol": 1825,
    "mp": 1826,
    " York": 1827,
    "utes": 1828,
    "enn": 1829,
    " ess": 1830,
    " tru": 1831,
    " fre": 1832,
    "rap": 1833,
    "ball": 1834,
    " members": 1835,
    "tt": 1836,
    " works": 1837,
    " kind": 1838,
    "most": 1839,
    " species": 1840,
    " today": 1841,
    "iting": 1842,
    "ape": 1843,
    "app": 1844,
    "uture": 1845,
    " complete": 1846,
    "ublic": 1847,
    " ce": 1848,
    " Sy": 1849,
    " anim": 1850,
    "agement": 1851,
    " why": 1852,
    " story": 1853,
    " langu": 1854,
    " Brit": 1855,
    " blood": 1856,
    " crit": 1857,
    " return": 1858,
    "oid": 1859,
    " camp": 1860,
    " risk": 1861,
    " phot": 1862,
    " That": 1863,
    "On": 1864,
    "aps": 1865,
    "oph": 1866,
    " least": 1867,
    " estab": 1868,
    "...": 1869,
    " Af": 1870,
    " areas": 1871,
    "ray": 1872,
    " site": 1873,
    " meet": 1874,
    " author": 1875,
    " took": 1876,
    "olution": 1877,
    "yle": 1878,
    " feat": 1879,
    "val": 1880,
    " employ": 1881,
    "ique": 1882,
    " character": 1883,
    "not": 1884,
    "ront": 1885,
    "ggest": 1886,
    " dr": 1887,
    "aining": 1888,
    "ively": 1889,
    " associ": 1890,
    "ae": 1891,
    " Me": 1892,
    " space": 1893,
    " across": 1894,
    " series": 1895,
    " Ge": 1896,
    "ising": 1897,
    " God": 1898,
    " death": 1899,
    " X": 1900,
    "ready": 1901,
    " clear": 1902,
    " enough": 1903,
    "What": 1904,
    "ges": 1905,
    " services": 1906,
    " week": 1907,
    "ffic": 1908,
    "for": 1909,
    " cause": 1910,
    "There": 1911,
    "ference": 1912,
    "my": 1913,
    " five": 1914,
    "ctor": 1915,
    "che": 1916,
    " single": 1917,
    " With": 1918,
    " expect": 1919,
    " create": 1920,
    " struct": 1921,
    " Med": 1922,
    " cond": 1923,
    " represent": 1924,
    " describ": 1925,
    " suggest": 1926,
    " cal": 1927,
    "ried": 1928,
    " strong": 1929,
    "St": 1930,
    " similar": 1931,
    " What": 1932,
    " rad": 1933,
    "iber": 1934,
    " prop": 1935,
    " needs": 1936,
    " gr": 1937,
    " won": 1938,
    "itor": 1939,
    " building": 1940,
    " account": 1941,
    " vers": 1942,
    " opt": 1943,
    " came": 1944,
    " heart": 1945,
    " exam": 1946,
    " fund": 1947,
    " century": 1948,
    " applic": 1949,
    " custom": 1950,
    "cle": 1951,
    " learn": 1952,
    " however": 1953,
    "aff": 1954,
    " Ass": 1955,
    " music": 1956,
    "ateg": 1957,
    " various": 1958,
    " net": 1959,
    " already": 1960,
    " Gu": 1961,
    " type": 1962,
    "ruction": 1963,
    " object": 1964,
    "uck": 1965,
    " begin": 1966,
    "aces": 1967,
    "sw": 1968,
    " plant": 1969,
    " future": 1970,
    " z": 1971,
    " relations": 1972,
    "ument": 1973,
    " exist": 1974,
    " significant": 1975,
    " flow": 1976,
    " sum": 1977,
    "ression": 1978,
    " En": 1979,
    " gre": 1980,
    " State": 1981,
    " above": 1982,
    " natural": 1983,
    " amount": 1984,
    "uses": 1985,
    " enc": 1986,
    "artment": 1987,
    " i": 1988,
    "ched": 1989,
    "amed": 1990,
    " job": 1991,
    " tot": 1992,
    " compet": 1993,
    " obs": 1994,
    " ,": 1995,
    " Min": 1996,
    "verage": 1997,
    " benef": 1998,
    " national": 1999,
    " makes": 2000,
    " Cal": 2001,
    " money": 2002,
    " live": 2003,
    " polic": 2004,
    " seen": 2005,
    "ledge": 2006,
    "asing": 2007,
    " close": 2008,
    " results": 2009,
    "ster": 2010,
    " discuss": 2011,
    " general": 2012,
    " once": 2013,
    " One": 2014,
    " hold": 2015,
    " Ne": 2016,
    "af": 2017,
    "ators": 2018,
    " got": 2019,
    "illed": 2020,
    " dam": 2021,
    "pecially": 2022,
    " ey": 2023,
    " Co": 2024,
    "For": 2025,
    " Ju": 2026,
    " disease": 2027,
    " No": 2028,
    " likely": 2029,
    "yn": 2030,
    "atory": 2031,
    " tell": 2032,
    " done": 2033,
    " School": 2034,
    " circ": 2035,
    " Ste": 2036,
    " mot": 2037,
    " bat": 2038,
    " online": 2039,
    " His": 2040,
    "ficult": 2041,
    " products": 2042,
    "acy": 2043,
    " prim": 2044,
    " wr": 2045,
    " deb": 2046,
    " potential": 2047,
    " claim": 2048,
    "oll": 2049,
    " quality": 2050,
    " port": 2051,
    " respons": 2052,
    " further": 2053,
    "utions": 2054,
    " impact": 2055,
    " repl": 2056,
    "ivil": 2057,
    " technology": 2058,
    " prevent": 2059,
    " attack": 2060,
    " question": 2061,
    " scient": 2062,
    " countries": 2063,
    " key": 2064,
    "now": 2065,
    "ww": 2066,
    " role": 2067,
    " Am": 2068,
    "rown": 2069,
    " determ": 2070,
    " wind": 2071,
    " mind": 2072,
    "face": 2073,
    "oor": 2074,
    " concer": 2075,
    "urity": 2076,
    " ever": 2077,
    "selves": 2078,
    " learning": 2079,
    "oon": 2080,
    " reason": 2081,
    " parent": 2082,
    "ication": 2083,
    " er": 2084,
    "rie": 2085,
    "ilities": 2086,
    " detail": 2087,
    " function": 2088,
    " require": 2089,
    "An": 2090,
    " began": 2091,
    "ER": 2092,
    "sy": 2093,
    "apan": 2094,
    "ification": 2095,
    " treatment": 2096,
    "obal": 2097,
    " problems": 2098,
    "ency": 2099,
    " comput": 2100,
    " City": 2101,
    "ask": 2102,
    " Per": 2103,
    " whether": 2104,
    " After": 2105,
    " Fl": 2106,
    "omes": 2107,
    " ill": 2108,
    " difficult": 2109,
    " necess": 2110,
    " Pe": 2111,
    " Jan": 2112,
    " six": 2113,
    "ese": 2114,
    " ground": 2115,
    " population": 2116,
    " Austral": 2117,
    " cut": 2118,
    " webs": 2119,
    "chie": 2120,
    "reg": 2121,
    " fall": 2122,
    " thing": 2123,
    "\",": 2124,
    " vide": 2125,
    " consum": 2126,
    "eter": 2127,
    " night": 2128,
    " Count": 2129,
    "fact": 2130,
    " Su": 2131,
    " step": 2132,
    " init": 2133,
    " sent": 2134,
    "aced": 2135,
    " fail": 2136,
    "ze": 2137,
    " increase": 2138,
    " \\": 2139,
    "bo": 2140,
    " prob": 2141,
    " official": 2142,
    "ma": 2143,
    " black": 2144,
    "uary": 2145,
    " thought": 2146,
    " levels": 2147,
    "rad": 2148,
    " Par": 2149,
    " usually": 2150,
    " red": 2151,
    "cri": 2152,
    " =": 2153,
    " town": 2154,
    " Aug": 2155,
    " former": 2156,
    " Afric": 2157,
    "duct": 2158,
    "ands": 2159,
    " bi": 2160,
    "ites": 2161,
    " consider": 2162,
    "lement": 2163,
    " education": 2164,
    " systems": 2165,
    " model": 2166,
    "overed": 2167,
    "iol": 2168,
    "erc": 2169,
    " changes": 2170,
    "Ch": 2171,
    " Pres": 2172,
    "apt": 2173,
    " higher": 2174,
    " priv": 2175,
    " built": 2176,
    "ms": 2177,
    "rug": 2178,
    "roll": 2179,
    " ens": 2180,
    " engine": 2181,
    "You": 2182,
    " influ": 2183,
    " Comp": 2184,
    "rated": 2185,
    " Rep": 2186,
    "pril": 2187,
    " ter": 2188,
    " subject": 2189,
    " value": 2190,
    " imm": 2191,
    " collect": 2192,
    " below": 2193,
    " range": 2194,
    "ival": 2195,
    "aves": 2196,
    " English": 2197,
    " comes": 2198,
    " half": 2199,
    " stop": 2200,
    " actually": 2201,
    " news": 2202,
    " especially": 2203,
    "How": 2204,
    " either": 2205,
    "go": 2206,
    " Ab": 2207,
    " self": 2208,
    " Will": 2209,
    "itary": 2210,
    " language": 2211,
    " held": 2212,
    " Bar": 2213,
    " published": 2214,
    "aching": 2215,
    "istic": 2216,
    " March": 2217,
    " bar": 2218,
    "icro": 2219,
    " tool": 2220,
    " Canad": 2221,
    " created": 2222,
    " specific": 2223,
    " ste": 2224,
    " according": 2225,
    "rate": 2226,
    "iation": 2227,
    " tax": 2228,
    " foot": 2229,
    " doc": 2230,
    " months": 2231,
    " chall": 2232,
    " started": 2233,
    " super": 2234,
    " improve": 2235,
    " tradition": 2236,
    " Gen": 2237,
    "ensive": 2238,
    " Gra": 2239,
    "eds": 2240,
    " entire": 2241,
    " jo": 2242,
    "ibility": 2243,
    "alt": 2244,
    " text": 2245,
    " stat": 2246,
    "arc": 2247,
    " Japan": 2248,
    " ge": 2249,
    " white": 2250,
    "isc": 2251,
    "ournal": 2252,
    "ows": 2253,
    " whole": 2254,
    " sound": 2255,
    " effort": 2256,
    " words": 2257,
    " vir": 2258,
    " Ear": 2259,
    " Part": 2260,
    "hem": 2261,
    " particip": 2262,
    " rather": 2263,
    " talk": 2264,
    " By": 2265,
    " previous": 2266,
    " quick": 2267,
    " taken": 2268,
    " Oct": 2269,
    " situ": 2270,
    "ables": 2271,
    " ri": 2272,
    " living": 2273,
    "ened": 2274,
    " personal": 2275,
    " China": 2276,
    " America": 2277,
    "reme": 2278,
    " deg": 2279,
    "ires": 2280,
    "aged": 2281,
    " Sept": 2282,
    "etimes": 2283,
    "ights": 2284,
    " contrib": 2285,
    "ino": 2286,
    "â¦": 2287,
    " inde": 2288,
    " introdu": 2289,
    " soft": 2290,
    " almost": 2291,
    " production": 2292,
    "empt": 2293,
    " opportun": 2294,
    "ysis": 2295,
    " behav": 2296,
    " went": 2297,
    "gest": 2298,
    " July": 2299,
    " travel": 2300,
    " June": 2301,
    " Soc": 2302,
    " issues": 2303,
    " yet": 2304,
    "ips": 2305,
    "fect": 2306,
    "lease": 2307,
    "rel": 2308,
    "When": 2309,
    " upon": 2310,
    " appear": 2311,
    " review": 2312,
    "ules": 2313,
    " Fr": 2314,
    " Mc": 2315,
    " lower": 2316,
    "ume": 2317,
    " dom": 2318,
    " recogn": 2319,
    "ana": 2320,
    " August": 2321,
    "uted": 2322,
    " Ed": 2323,
    "hing": 2324,
    " original": 2325,
    " third": 2326,
    " April": 2327,
    " cases": 2328,
    " political": 2329,
    "cil": 2330,
    " conditions": 2331,
    " King": 2332,
    " Har": 2333,
    " cou": 2334,
    "ris": 2335,
    "iple": 2336,
    " teac": 2337,
    " oil": 2338,
    " Some": 2339,
    " check": 2340,
    "ift": 2341,
    " neg": 2342,
    " wide": 2343,
    " histor": 2344,
    " abs": 2345,
    " norm": 2346,
    "ille": 2347,
    " released": 2348,
    " House": 2349,
    "ief": 2350,
    " looking": 2351,
    " cy": 2352,
    " position": 2353,
    " Sec": 2354,
    " fav": 2355,
    "raft": 2356,
    "Al": 2357,
    "idered": 2358,
    "att": 2359,
    " achie": 2360,
    " occur": 2361,
    "joy": 2362,
    " compan": 2363,
    " popular": 2364,
    " deal": 2365,
    " bring": 2366,
    "lam": 2367,
    " mass": 2368,
    "ude": 2369,
    "back": 2370,
    " easy": 2371,
    " idea": 2372,
    "iddle": 2373,
    "ovember": 2374,
    " offer": 2375,
    " groups": 2376,
    "ibr": 2377,
    " temper": 2378,
    " address": 2379,
    " size": 2380,
    " depend": 2381,
    "ommend": 2382,
    "umb": 2383,
    "ply": 2384,
    " Sw": 2385,
    "rew": 2386,
    "estern": 2387,
    " tit": 2388,
    " cop": 2389,
    " ways": 2390,
    " Tra": 2391,
    " dest": 2392,
    "ha": 2393,
    " Dep": 2394,
    " loss": 2395,
    "ging": 2396,
    " Pol": 2397,
    "ule": 2398,
    "org": 2399,
    " arch": 2400,
    " Hist": 2401,
    "right": 2402,
    "urb": 2403,
    " indic": 2404,
    "lex": 2405,
    " West": 2406,
    " dig": 2407,
    " doing": 2408,
    " taking": 2409,
    "minist": 2410,
    "hold": 2411,
    " song": 2412,
    " II": 2413,
    " led": 2414,
    " member": 2415,
    "like": 2416,
    " included": 2417,
    "sequ": 2418,
    " pred": 2419,
    " recommend": 2420,
    " sens": 2421,
    " knowledge": 2422,
    "elt": 2423,
    " fire": 2424,
    " mor": 2425,
    "But": 2426,
    " visit": 2427,
    "hib": 2428,
    " ep": 2429,
    "etic": 2430,
    " questions": 2431,
    " total": 2432,
    " Do": 2433,
    " respect": 2434,
    " Her": 2435,
    "vert": 2436,
    " Mus": 2437,
    "ague": 2438,
    " September": 2439,
    " simple": 2440,
    " considered": 2441,
    " relationship": 2442,
    "ham": 2443,
    " media": 2444,
    " doesn": 2445,
    " final": 2446,
    " cells": 2447,
    " farm": 2448,
    " received": 2449,
    " Stud": 2450,
    "AS": 2451,
    "uk": 2452,
    " contact": 2453,
    " arg": 2454,
    "ores": 2455,
    " British": 2456,
    "adem": 2457,
    " Park": 2458,
    " protect": 2459,
    " hours": 2460,
    " modern": 2461,
    "fully": 2462,
    "na": 2463,
    "ening": 2464,
    "bsp": 2465,
    " coll": 2466,
    " patients": 2467,
    "rect": 2468,
    " Qu": 2469,
    " website": 2470,
    " industry": 2471,
    "aving": 2472,
    " paper": 2473,
    " late": 2474,
    "mon": 2475,
    "'re": 2476,
    " told": 2477,
    " El": 2478,
    " itself": 2479,
    "ES": 2480,
    " article": 2481,
    "mpt": 2482,
    " required": 2483,
    "reet": 2484,
    " pie": 2485,
    "ided": 2486,
    "hel": 2487,
    " Â": 2488,
    " break": 2489,
    " Cont": 2490,
    " developed": 2491,
    " states": 2492,
    " India": 2493,
    " lay": 2494,
    " famil": 2495,
    " growth": 2496,
    "aging": 2497,
    " buy": 2498,
    "ington": 2499,
    " rate": 2500,
    "cember": 2501,
    " color": 2502,
    " Act": 2503,
    " effects": 2504,
    "amb": 2505,
    " October": 2506,
    " getting": 2507,
    " games": 2508,
    " types": 2509,
    " November": 2510,
    " writing": 2511,
    "oe": 2512,
    "irl": 2513,
    " lo": 2514,
    " located": 2515,
    "anks": 2516,
    " cannot": 2517,
    " fig": 2518,
    "ports": 2519,
    " medical": 2520,
    " focus": 2521,
    " themselves": 2522,
    "earch": 2523,
    " points": 2524,
    " needed": 2525,
    " dou": 2526,
    "ama": 2527,
    "pro": 2528,
    " sat": 2529,
    "ership": 2530,
    " front": 2531,
    " events": 2532,
    " physical": 2533,
    " January": 2534,
    "//": 2535,
    " div": 2536,
    " practice": 2537,
    "uel": 2538,
    " answ": 2539,
    "ederal": 2540,
    "And": 2541,
    "nbsp": 2542,
    "nds": 2543,
    " experien": 2544,
    " activities": 2545,
    " host": 2546,
    " intern": 2547,
    " wall": 2548,
    " regard": 2549,
    "sych": 2550,
    " coun": 2551,
    " video": 2552,
    " matter": 2553,
    "ached": 2554,
    " \r\n": 2555,
    " App": 2556,
    " room": 2557,
    " training": 2558,
    " fem": 2559,
    "ald": 2560,
    " companies": 2561,
    " added": 2562,
    "To": 2563,
    " My": 2564,
    " believe": 2565,
    "oura": 2566,
    "rs": 2567,
    " inj": 2568,
    "ops": 2569,
    " share": 2570,
    "erve": 2571,
    "bum": 2572,
    " played": 2573,
    "medi": 2574,
    " science": 2575,
    "ondon": 2576,
    " reported": 2577,
    " bit": 2578,
    " face": 2579,
    " throughout": 2580,
    " provides": 2581,
    "play": 2582,
    "AR": 2583,
    " region": 2584,
    "izing": 2585,
    " source": 2586,
    " studies": 2587,
    " separ": 2588,
    "AT": 2589,
    " clean": 2590,
    " management": 2591,
    " Russ": 2592,
    " brain": 2593,
    " accept": 2594,
    "onst": 2595,
    " maint": 2596,
    " lat": 2597,
    " purp": 2598,
    "ancial": 2599,
    " content": 2600,
    " includes": 2601,
    " shows": 2602,
    "ccording": 2603,
    " Feb": 2604,
    "room": 2605,
    " minutes": 2606,
    " attempt": 2607,
    "irm": 2608,
    " enjoy": 2609,
    " commit": 2610,
    " action": 2611,
    " Dr": 2612,
    " conc": 2613,
    "ctions": 2614,
    " issue": 2615,
    " German": 2616,
    " designed": 2617,
    "year": 2618,
    " exc": 2619,
    " drug": 2620,
    "ground": 2621,
    " suff": 2622,
    " Gl": 2623,
    "cies": 2624,
    " parts": 2625,
    " heav": 2626,
    " Health": 2627,
    " President": 2628,
    " stra": 2629,
    " written": 2630,
    "put": 2631,
    " origin": 2632,
    "ety": 2633,
    " nature": 2634,
    "AN": 2635,
    "urg": 2636,
    "__": 2637,
    "astic": 2638,
    " compl": 2639,
    "lt": 2640,
    " Tw": 2641,
    "ems": 2642,
    " chem": 2643,
    "book": 2644,
    "nding": 2645,
    " provided": 2646,
    " rights": 2647,
    " performance": 2648,
    " complex": 2649,
    " recent": 2650,
    " associated": 2651,
    " Ag": 2652,
    " link": 2653,
    " Sch": 2654,
    "uff": 2655,
    " relig": 2656,
    "iction": 2657,
    " Art": 2658,
    "iment": 2659,
    " rev": 2660,
    "cell": 2661,
    " pict": 2662,
    "imately": 2663,
    " Des": 2664,
    " December": 2665,
    "IN": 2666,
    " announ": 2667,
    " concept": 2668,
    " hot": 2669,
    " sle": 2670,
    "lin": 2671,
    " tar": 2672,
    "arden": 2673,
    " regular": 2674,
    "ror": 2675,
    " page": 2676,
    "erous": 2677,
    " mom": 2678,
    " plants": 2679,
    " County": 2680,
    " defe": 2681,
    " features": 2682,
    " observ": 2683,
    "based": 2684,
    "lying": 2685,
    " international": 2686,
    " outside": 2687,
    " longer": 2688,
    "ufact": 2689,
    "hood": 2690,
    "erson": 2691,
    "ises": 2692,
    " simply": 2693,
    " wa": 2694,
    " related": 2695,
    " ability": 2696,
    " International": 2697,
    " Reg": 2698,
    "chan": 2699,
    " Colle": 2700,
    " true": 2701,
    "bor": 2702,
    " sun": 2703,
    " student": 2704,
    "://": 2705,
    " Press": 2706,
    " squ": 2707,
    " sold": 2708,
    " cover": 2709,
    " evidence": 2710,
    " Sm": 2711,
    " style": 2712,
    "rench": 2713,
    " frequ": 2714,
    " assist": 2715,
    "onse": 2716,
    " activity": 2717,
    "ivity": 2718,
    "Re": 2719,
    "osing": 2720,
    " select": 2721,
    " cat": 2722,
    " didn": 2723,
    "):": 2724,
    " terms": 2725,
    " pressure": 2726,
    "ruary": 2727,
    "ford": 2728,
    "rote": 2729,
    "ari": 2730,
    " mess": 2731,
    " economic": 2732,
    " probably": 2733,
    "inese": 2734,
    " Dav": 2735,
    "usion": 2736,
    "useum": 2737,
    " average": 2738,
    "aur": 2739,
    " walk": 2740,
    "anced": 2741,
    " surface": 2742,
    " Mon": 2743,
    "leb": 2744,
    " named": 2745,
    " mach": 2746,
    " Im": 2747,
    "uge": 2748,
    " lab": 2749,
    "bon": 2750,
    " stay": 2751,
    " someone": 2752,
    " resources": 2753,
    " London": 2754,
    "ences": 2755,
    " global": 2756,
    "ades": 2757,
    " pan": 2758,
    " vac": 2759,
    " aud": 2760,
    "aid": 2761,
    " viol": 2762,
    " increased": 2763,
    "load": 2764,
    " behind": 2765,
    "atives": 2766,
    "unch": 2767,
    "rences": 2768,
    "ns": 2769,
    "where": 2770,
    " parents": 2771,
    " emer": 2772,
    "icles": 2773,
    "cul": 2774,
    " England": 2775,
    " Char": 2776,
    " involved": 2777,
    "ON": 2778,
    " album": 2779,
    "mptoms": 2780,
    " road": 2781,
    " pack": 2782,
    " necessary": 2783,
    " Center": 2784,
    "aily": 2785,
    " born": 2786,
    "rought": 2787,
    " ||": 2788,
    " While": 2789,
    " soon": 2790,
    " safe": 2791,
    "eration": 2792,
    "rem": 2793,
    " Cor": 2794,
    " |": 2795,
    " liter": 2796,
    " military": 2797,
    " lost": 2798,
    "head": 2799,
    " sense": 2800,
    " cancer": 2801,
    " policy": 2802,
    " emb": 2803,
    " miss": 2804,
    "reng": 2805,
    " approach": 2806,
    " beaut": 2807,
    " European": 2808,
    " log": 2809,
    " network": 2810,
    " friends": 2811,
    "IS": 2812,
    " avoid": 2813,
    " mother": 2814,
    " investig": 2815,
    "dom": 2816,
    " /": 2817,
    "itch": 2818,
    " skin": 2819,
    "gar": 2820,
    " Serv": 2821,
    " ago": 2822,
    " professional": 2823,
    " quite": 2824,
    " analysis": 2825,
    " standard": 2826,
    " skills": 2827,
    " Instit": 2828,
    "aries": 2829,
    " affect": 2830,
    "oses": 2831,
    " green": 2832,
    "BC": 2833,
    "elling": 2834,
    "iforn": 2835,
    "aign": 2836,
    "osition": 2837,
    " condition": 2838,
    " researc": 2839,
    ".)": 2840,
    " draw": 2841,
    " dog": 2842,
    " Bra": 2843,
    "inary": 2844,
    "ky": 2845,
    " property": 2846,
    "dd": 2847,
    " react": 2848,
    "aly": 2849,
    " vill": 2850,
    " reduce": 2851,
    "ications": 2852,
    "asons": 2853,
    " base": 2854,
    "li": 2855,
    " version": 2856,
    "oved": 2857,
    " February": 2858,
    "lands": 2859,
    " path": 2860,
    " son": 2861,
    " Bo": 2862,
    " Ke": 2863,
    " x": 2864,
    "ocr": 2865,
    " cred": 2866,
    " search": 2867,
    "oles": 2868,
    " cross": 2869,
    " fight": 2870,
    "nov": 2871,
    " takes": 2872,
    " ut": 2873,
    "arily": 2874,
    " purch": 2875,
    " bur": 2876,
    " security": 2877,
    "cks": 2878,
    " stress": 2879,
    "ming": 2880,
    "verse": 2881,
    " effective": 2882,
    "itation": 2883,
    " bad": 2884,
    " San": 2885,
    " office": 2886,
    "order": 2887,
    "pite": 2888,
    " Associ": 2889,
    " conduct": 2890,
    " continue": 2891,
    " etc": 2892,
    " party": 2893,
    " Indian": 2894,
    "ifornia": 2895,
    " deep": 2896,
    "rim": 2897,
    " --": 2898,
    " lives": 2899,
    " produced": 2900,
    "ding": 2901,
    " install": 2902,
    " capt": 2903,
    " manufact": 2904,
    " reading": 2905,
    "lier": 2906,
    " Chinese": 2907,
    " weight": 2908,
    " surv": 2909,
    " sometimes": 2910,
    " president": 2911,
    "key": 2912,
    " agree": 2913,
    " Dem": 2914,
    "ellow": 2915,
    "vey": 2916,
    " instead": 2917,
    " wood": 2918,
    " father": 2919,
    " died": 2920,
    " materials": 2921,
    " perfect": 2922,
    " schools": 2923,
    " princ": 2924,
    "ager": 2925,
    " worked": 2926,
    " Not": 2927,
    " William": 2928,
    " flu": 2929,
    " consist": 2930,
    " :": 2931,
    " defin": 2932,
    " buildings": 2933,
    "omp": 2934,
    " independ": 2935,
    "aches": 2936,
    "uth": 2937,
    "irth": 2938,
    " response": 2939,
    " everything": 2940,
    " fa": 2941,
    " image": 2942,
    "ara": 2943,
    " computer": 2944,
    " nut": 2945,
    " established": 2946,
    " refer": 2947,
    " target": 2948,
    " measure": 2949,
    " stri": 2950,
    " adult": 2951,
    "orks": 2952,
    " sus": 2953,
    " ful": 2954,
    " understanding": 2955,
    " leading": 2956,
    " individuals": 2957,
    "cient": 2958,
    " effic": 2959,
    " broad": 2960,
    "oud": 2961,
    "light": 2962,
    " financial": 2963,
    "ography": 2964,
    "ension": 2965,
    " distrib": 2966,
    " hous": 2967,
    " High": 2968,
    "aul": 2969,
    "oes": 2970,
    " subst": 2971,
    " integ": 2972,
    " sex": 2973,
    " essential": 2974,
    " wrote": 2975,
    " variety": 2976,
    "ought": 2977,
    "ength": 2978,
    "olic": 2979,
    " civil": 2980,
    "lev": 2981,
    " himself": 2982,
    "fort": 2983,
    "ceed": 2984,
    " vari": 2985,
    " climate": 2986,
    " served": 2987,
    " track": 2988,
    " Republic": 2989,
    " California": 2990,
    " anything": 2991,
    " lack": 2992,
    " speak": 2993,
    " books": 2994,
    " north": 2995,
    " mix": 2996,
    " programs": 2997,
    " extra": 2998,
    "time": 2999,
    " else": 3000,
    " diet": 3001,
    " gas": 3002,
    " Ac": 3003,
    " positive": 3004,
    " price": 3005,
    "illing": 3006,
    " inside": 3007,
    "ID": 3008,
    " Em": 3009,
    " force": 3010,
    " increasing": 3011,
    " seems": 3012,
    "ampions": 3013,
    " Cour": 3014,
    " contract": 3015,
    " saw": 3016,
    "ests": 3017,
    " ensure": 3018,
    " hope": 3019,
    " symptoms": 3020,
    " unique": 3021,
    "off": 3022,
    " sil": 3023,
    " mount": 3024,
    " card": 3025,
    " healthy": 3026,
    " attention": 3027,
    "atur": 3028,
    " private": 3029,
    " attend": 3030,
    " Phil": 3031,
    "isions": 3032,
    " Department": 3033,
    " assess": 3034,
    " goal": 3035,
    "lied": 3036,
    " connect": 3037,
    " Don": 3038,
    " society": 3039,
    " additional": 3040,
    " document": 3041,
    " streng": 3042,
    " arri": 3043,
    " structure": 3044,
    "rael": 3045,
    " administ": 3046,
    "So": 3047,
    "icated": 3048,
    " River": 3049,
    " shown": 3050,
    " vict": 3051,
    " Int": 3052,
    " hon": 3053,
    "su": 3054,
    "rast": 3055,
    " culture": 3056,
    " staff": 3057,
    " reve": 3058,
    " heat": 3059,
    "ees": 3060,
    " interact": 3061,
    " fat": 3062,
    "het": 3063,
    " slow": 3064,
    "oke": 3065,
    " produce": 3066,
    "lim": 3067,
    " serious": 3068,
    " exerc": 3069,
    " round": 3070,
    " First": 3071,
    "outhern": 3072,
    "airs": 3073,
    " prior": 3074,
    " threat": 3075,
    "vere": 3076,
    " decision": 3077,
    " fish": 3078,
    " pattern": 3079,
    " French": 3080,
    " table": 3081,
    " exec": 3082,
    " uses": 3083,
    " immedi": 3084,
    " vot": 3085,
    " East": 3086,
    " prep": 3087,
    "rig": 3088,
    " campaign": 3089,
    " jud": 3090,
    "amin": 3091,
    " sal": 3092,
    " Our": 3093,
    "haps": 3094,
    " Earth": 3095,
    " extreme": 3096,
    " towards": 3097,
    " church": 3098,
    "ã": 3099,
    " ideas": 3100,
    "rick": 3101,
    " traditional": 3102,
    " feed": 3103,
    " prec": 3104,
    "imum": 3105,
    " fit": 3106,
    "ius": 3107,
    "OR": 3108,
    "text": 3109,
    "era": 3110,
    " trying": 3111,
    " Cons": 3112,
    "ira": 3113,
    "oming": 3114,
    " nothing": 3115,
    "come": 3116,
    "lection": 3117,
    " Black": 3118,
    " Coun": 3119,
    " described": 3120,
    " legal": 3121,
    "sp": 3122,
    "irit": 3123,
    " gradu": 3124,
    " meaning": 3125,
    "orthern": 3126,
    "istics": 3127,
    " htt": 3128,
    " asked": 3129,
    " benefits": 3130,
    " although": 3131,
    "ressed": 3132,
    " From": 3133,
    "At": 3134,
    " disp": 3135,
    " Mich": 3136,
    " College": 3137,
    "iful": 3138,
    "inks": 3139,
    " south": 3140,
    " coming": 3141,
    "NA": 3142,
    " Jew": 3143,
    " Ang": 3144,
    " movement": 3145,
    " animals": 3146,
    " Wash": 3147,
    "rag": 3148,
    " Church": 3149,
    " mid": 3150,
    "osis": 3151,
    " quickly": 3152,
    " implement": 3153,
    " caused": 3154,
    "ulations": 3155,
    "oring": 3156,
    " instit": 3157,
    " relative": 3158,
    " web": 3159,
    "cast": 3160,
    "orge": 3161,
    " micro": 3162,
    " Research": 3163,
    "rial": 3164,
    " numbers": 3165,
    " ball": 3166,
    " mechan": 3167,
    "nded": 3168,
    "ropri": 3169,
    " Ob": 3170,
    " career": 3171,
    "pper": 3172,
    " contain": 3173,
    " saf": 3174,
    " encoura": 3175,
    "resh": 3176,
    " cand": 3177,
    " damage": 3178,
    " wond": 3179,
    " moved": 3180,
    "**": 3181,
    " exact": 3182,
    " bal": 3183,
    "'ve": 3184,
    " poor": 3185,
    " band": 3186,
    " und": 3187,
    "hest": 3188,
    " challeng": 3189,
    " decl": 3190,
    " initial": 3191,
    " offers": 3192,
    " der": 3193,
    " spread": 3194,
    "nes": 3195,
    " ten": 3196,
    " multiple": 3197,
    " kids": 3198,
    " Ant": 3199,
    " easily": 3200,
    " particularly": 3201,
    " White": 3202,
    " pick": 3203,
    " sleep": 3204,
    " researchers": 3205,
    "urance": 3206,
    "arr": 3207,
    " software": 3208,
    " Canada": 3209,
    " Just": 3210,
    " factors": 3211,
    " tou": 3212,
    "ica": 3213,
    " print": 3214,
    "sec": 3215,
    " Sen": 3216,
    " Cong": 3217,
    " whose": 3218,
    "pped": 3219,
    " Your": 3220,
    "itect": 3221,
    "field": 3222,
    "After": 3223,
    " except": 3224,
    " weeks": 3225,
    " Red": 3226,
    " club": 3227,
    " rout": 3228,
    " ver": 3229,
    "ils": 3230,
    " obt": 3231,
    " woman": 3232,
    " celeb": 3233,
    " release": 3234,
    " hor": 3235,
    "iles": 3236,
    " contains": 3237,
    " block": 3238,
    " Israel": 3239,
    " currently": 3240,
    " More": 3241,
    " Institute": 3242,
    "ibrary": 3243,
    "ipment": 3244,
    " forward": 3245,
    " growing": 3246,
    " listed": 3247,
    " plat": 3248,
    " compon": 3249,
    "duc": 3250,
    " Bro": 3251,
    " center": 3252,
    " court": 3253,
    "mercial": 3254,
    "lation": 3255,
    " isn": 3256,
    " rock": 3257,
    " thus": 3258,
    " fast": 3259,
    " correct": 3260,
    " Val": 3261,
    "ecause": 3262,
    " lif": 3263,
    " via": 3264,
    " generally": 3265,
    " #": 3266,
    " email": 3267,
    "ament": 3268,
    "ronic": 3269,
    "Ã¡": 3270,
    "asc": 3271,
    "abit": 3272,
    "itiz": 3273,
    "tee": 3274,
    " helps": 3275,
    " Govern": 3276,
    " Fin": 3277,
    " everyone": 3278,
    " answer": 3279,
    "iff": 3280,
    " date": 3281,
    "ym": 3282,
    " allows": 3283,
    " section": 3284,
    " highly": 3285,
    " leave": 3286,
    " primary": 3287,
    " directly": 3288,
    " temperature": 3289,
    "unt": 3290,
    "ston": 3291,
    " recently": 3292,
    "ED": 3293,
    "oly": 3294,
    " mention": 3295,
    " veh": 3296,
    " forms": 3297,
    " running": 3298,
    " reflect": 3299,
    "udd": 3300,
    " psych": 3301,
    "IC": 3302,
    "'m": 3303,
    " favor": 3304,
    " safety": 3305,
    " stage": 3306,
    "omb": 3307,
    "One": 3308,
    " wild": 3309,
    "AC": 3310,
    "ricult": 3311,
    " cook": 3312,
    " greater": 3313,
    "istry": 3314,
    " Pal": 3315,
    " Washington": 3316,
    "ties": 3317,
    "Ã¼": 3318,
    " surround": 3319,
    " Pat": 3320,
    " normal": 3321,
    " central": 3322,
    " hands": 3323,
    " watch": 3324,
    " beginning": 3325,
    " promot": 3326,
    " application": 3327,
    " active": 3328,
    " UK": 3329,
    " Sim": 3330,
    " demonst": 3331,
    " player": 3332,
    " feet": 3333,
    " summer": 3334,
    " brought": 3335,
    " autom": 3336,
    "omas": 3337,
    " gave": 3338,
    " Air": 3339,
    " daily": 3340,
    " Most": 3341,
    " dark": 3342,
    " collection": 3343,
    " Day": 3344,
    " fram": 3345,
    " station": 3346,
    "iers": 3347,
    " Pre": 3348,
    " extend": 3349,
    "EN": 3350,
    "wise": 3351,
    " projects": 3352,
    " Mr": 3353,
    " construction": 3354,
    " Ber": 3355,
    "gency": 3356,
    " nation": 3357,
    "nown": 3358,
    " police": 3359,
    " environmental": 3360,
    "ords": 3361,
    " largest": 3362,
    " methods": 3363,
    "idents": 3364,
    " basic": 3365,
    " costs": 3366,
    "ners": 3367,
    " qual": 3368,
    " continued": 3369,
    " families": 3370,
    " players": 3371,
    " thous": 3372,
    " Ser": 3373,
    " hit": 3374,
    "undred": 3375,
    "ett": 3376,
    " wanted": 3377,
    "mar": 3378,
    " Australia": 3379,
    " aim": 3380,
    "bit": 3381,
    "opp": 3382,
    " mag": 3383,
    " receive": 3384,
    " sea": 3385,
    " chemical": 3386,
    "la": 3387,
    "ij": 3388,
    " behavior": 3389,
    " situation": 3390,
    " warm": 3391,
    "yond": 3392,
    "urt": 3393,
    " neigh": 3394,
    "reek": 3395,
    " altern": 3396,
    " announced": 3397,
    "With": 3398,
    " estim": 3399,
    " carry": 3400,
    " Christian": 3401,
    " shall": 3402,
    " eight": 3403,
    " Fran": 3404,
    "aled": 3405,
    "iring": 3406,
    "arter": 3407,
    " stru": 3408,
    "ael": 3409,
    " ones": 3410,
    " aware": 3411,
    " achieve": 3412,
    "obile": 3413,
    "aint": 3414,
    "roy": 3415,
    " Trans": 3416,
    " girl": 3417,
    " Law": 3418,
    " write": 3419,
    " trade": 3420,
    "ampionship": 3421,
    " federal": 3422,
    " organization": 3423,
    " electric": 3424,
    " opportunity": 3425,
    " rank": 3426,
    " tour": 3427,
    " code": 3428,
    " compared": 3429,
    " Dis": 3430,
    "'ll": 3431,
    "king": 3432,
    " resist": 3433,
    " emot": 3434,
    " title": 3435,
    " location": 3436,
    " moment": 3437,
    "cription": 3438,
    " acqu": 3439,
    " History": 3440,
    " Many": 3441,
    " pen": 3442,
    " earth": 3443,
    "itude": 3444,
    "inated": 3445,
    "omet": 3446,
    " screen": 3447,
    " nearly": 3448,
    " details": 3449,
    "using": 3450,
    " speed": 3451,
    " limited": 3452,
    "alu": 3453,
    " box": 3454,
    " race": 3455,
    " larger": 3456,
    " adj": 3457,
    "ico": 3458,
    "ospital": 3459,
    " eat": 3460,
    " choose": 3461,
    " sources": 3462,
    " Association": 3463,
    " La": 3464,
    " followed": 3465,
    "ancy": 3466,
    " den": 3467,
    " eating": 3468,
    " election": 3469,
    " gold": 3470,
    "men": 3471,
    " Science": 3472,
    " length": 3473,
    "II": 3474,
    " fru": 3475,
    " users": 3476,
    " places": 3477,
    " Council": 3478,
    " theory": 3479,
    " prote": 3480,
    " _": 3481,
    " establish": 3482,
    "utive": 3483,
    " Court": 3484,
    " appoint": 3485,
    " gives": 3486,
    " novel": 3487,
    " ult": 3488,
    " yourself": 3489,
    " worth": 3490,
    " therefore": 3491,
    "ander": 3492,
    "icine": 3493,
    " dead": 3494,
    " difference": 3495,
    " harm": 3496,
    "born": 3497,
    " eye": 3498,
    " General": 3499,
    " board": 3500,
    "hy": 3501,
    "aught": 3502,
    " successful": 3503,
    " playing": 3504,
    "uments": 3505,
    " Bu": 3506,
    " Us": 3507,
    " Inc": 3508,
    "ogle": 3509,
    " Other": 3510,
    " expected": 3511,
    " magn": 3512,
    "aughter": 3513,
    " bed": 3514,
    " earlier": 3515,
    " allowed": 3516,
    " Africa": 3517,
    " purpose": 3518,
    "bl": 3519,
    " upd": 3520,
    "ounds": 3521,
    " Mat": 3522,
    " progress": 3523,
    "rab": 3524,
    "enty": 3525,
    "see": 3526,
    " birth": 3527,
    "wood": 3528,
    "iding": 3529,
    " sust": 3530,
    " Che": 3531,
    " ang": 3532,
    "iter": 3533,
    " anti": 3534,
    " identify": 3535,
    " Of": 3536,
    "uries": 3537,
    " elements": 3538,
    "ida": 3539,
    " swe": 3540,
    "que": 3541,
    "rapy": 3542,
    " middle": 3543,
    "ux": 3544,
    " Commun": 3545,
    " tools": 3546,
    " analy": 3547,
    " capital": 3548,
    "inct": 3549,
    " causes": 3550,
    "aling": 3551,
    "mission": 3552,
    " bird": 3553,
    " providing": 3554,
    " remain": 3555,
    "ously": 3556,
    " match": 3557,
    " ir": 3558,
    " completely": 3559,
    "vention": 3560,
    "pid": 3561,
    " Mor": 3562,
    "ã": 3563,
    "AL": 3564,
    " developing": 3565,
    " transport": 3566,
    " demand": 3567,
    " reach": 3568,
    "oul": 3569,
    " Now": 3570,
    "uman": 3571,
    " insp": 3572,
    "gra": 3573,
    "hens": 3574,
    "oice": 3575,
    " Party": 3576,
    " sites": 3577,
    " Dist": 3578,
    " sn": 3579,
    " useful": 3580,
    " equipment": 3581,
    " Book": 3582,
    " goes": 3583,
    "lear": 3584,
    "osure": 3585,
    " James": 3586,
    " bab": 3587,
    " device": 3588,
    "â.": 3589,
    " dry": 3590,
    "ellig": 3591,
    " plans": 3592,
    " lines": 3593,
    "All": 3594,
    "ula": 3595,
    " commercial": 3596,
    "reed": 3597,
    " store": 3598,
    " Mark": 3599,
    " female": 3600,
    " patient": 3601,
    " Educ": 3602,
    " forces": 3603,
    " Net": 3604,
    " Sal": 3605,
    " Arch": 3606,
    "tery": 3607,
    "ridge": 3608,
    " organiz": 3609,
    " bank": 3610,
    " hundred": 3611,
    " cool": 3612,
    " mis": 3613,
    " thinking": 3614,
    " degree": 3615,
    " display": 3616,
    " Sun": 3617,
    " Roman": 3618,
    " ox": 3619,
    "arian": 3620,
    " decided": 3621,
    " respond": 3622,
    " Here": 3623,
    " dang": 3624,
    " seven": 3625,
    " During": 3626,
    " Trump": 3627,
    " communities": 3628,
    " appropri": 3629,
    "ervation": 3630,
    " bott": 3631,
    " soil": 3632,
    " Port": 3633,
    " beautiful": 3634,
    " blog": 3635,
    " forest": 3636,
    " Great": 3637,
    "IT": 3638,
    " basis": 3639,
    " IS": 3640,
    " poll": 3641,
    " remains": 3642,
    " critical": 3643,
    "oyal": 3644,
    " solution": 3645,
    " meeting": 3646,
    ");": 3647,
    "leg": 3648,
    "part": 3649,
    " options": 3650,
    " ready": 3651,
    " David": 3652,
    " Off": 3653,
    " corn": 3654,
    "ibly": 3655,
    " director": 3656,
    "icip": 3657,
    " Div": 3658,
    " Rober": 3659,
    " Germany": 3660,
    "itz": 3661,
    " aspect": 3662,
    " Je": 3663,
    " Techn": 3664,
    " influence": 3665,
    " tree": 3666,
    " diagn": 3667,
    " Jes": 3668,
    " drink": 3669,
    "ste": 3670,
    " Inst": 3671,
    " inform": 3672,
    " +": 3673,
    "zz": 3674,
    " workers": 3675,
    " creating": 3676,
    " efforts": 3677,
    "iar": 3678,
    " eth": 3679,
    " subs": 3680,
    "iate": 3681,
    "rec": 3682,
    "ya": 3683,
    "ago": 3684,
    " categ": 3685,
    "enge": 3686,
    " fresh": 3687,
    " Mod": 3688,
    " choice": 3689,
    " continu": 3690,
    " veget": 3691,
    " placed": 3692,
    " wife": 3693,
    " phone": 3694,
    " accur": 3695,
    "anish": 3696,
    "Sh": 3697,
    " fair": 3698,
    "ville": 3699,
    " Br": 3700,
    "ipl": 3701,
    " anyone": 3702,
    "Be": 3703,
    "Ã¤": 3704,
    "izes": 3705,
    " Although": 3706,
    "atin": 3707,
    " interview": 3708,
    " brother": 3709,
    " enter": 3710,
    " recorded": 3711,
    " tend": 3712,
    "term": 3713,
    "semb": 3714,
    "cean": 3715,
    " Street": 3716,
    "ams": 3717,
    " Society": 3718,
    " adop": 3719,
    " concent": 3720,
    " billion": 3721,
    " trees": 3722,
    "ã": 3723,
    " giving": 3724,
    "house": 3725,
    "olid": 3726,
    " advant": 3727,
    " interesting": 3728,
    " saying": 3729,
    " values": 3730,
    "berg": 3731,
    "!!": 3732,
    " changed": 3733,
    " animal": 3734,
    " images": 3735,
    "itable": 3736,
    " People": 3737,
    " pric": 3738,
    " Mart": 3739,
    "Un": 3740,
    "gram": 3741,
    "mitted": 3742,
    " Union": 3743,
    " overall": 3744,
    " award": 3745,
    " Mal": 3746,
    " citiz": 3747,
    " highest": 3748,
    " rates": 3749,
    "odes": 3750,
    " sort": 3751,
    " user": 3752,
    "band": 3753,
    "ros": 3754,
    " hyd": 3755,
    " determine": 3756,
    " eyes": 3757,
    "ek": 3758,
    "rees": 3759,
    " unit": 3760,
    "vest": 3761,
    " Paul": 3762,
    "abet": 3763,
    " formed": 3764,
    "AP": 3765,
    " Child": 3766,
    " sett": 3767,
    " stories": 3768,
    "ession": 3769,
    " star": 3770,
    " Then": 3771,
    " alone": 3772,
    " park": 3773,
    "iques": 3774,
    " expand": 3775,
    " rules": 3776,
    "oo": 3777,
    "orders": 3778,
    " football": 3779,
    " Bel": 3780,
    "ulate": 3781,
    " strateg": 3782,
    " teams": 3783,
    " negative": 3784,
    "vant": 3785,
    " file": 3786,
    " cold": 3787,
    "rant": 3788,
    " cast": 3789,
    " majority": 3790,
    " mer": 3791,
    " chance": 3792,
    "more": 3793,
    " Tex": 3794,
    " Mex": 3795,
    " older": 3796,
    " drive": 3797,
    " becomes": 3798,
    "ech": 3799,
    " journal": 3800,
    " mill": 3801,
    " transfer": 3802,
    " items": 3803,
    "ying": 3804,
    " scientists": 3805,
    " proced": 3806,
    " Ã": 3807,
    " huge": 3808,
    " platform": 3809,
    "aker": 3810,
    " pret": 3811,
    " Green": 3812,
    " digital": 3813,
    " pow": 3814,
    " approx": 3815,
    " fully": 3816,
    " reb": 3817,
    " phil": 3818,
    " Vir": 3819,
    "ulated": 3820,
    " Are": 3821,
    " remember": 3822,
    " responsible": 3823,
    "That": 3824,
    " beyond": 3825,
    "iable": 3826,
    "lor": 3827,
    " labor": 3828,
    " religious": 3829,
    " goals": 3830,
    "unk": 3831,
    "Ex": 3832,
    " architect": 3833,
    "vin": 3834,
    " sem": 3835,
    " village": 3836,
    " save": 3837,
    "ero": 3838,
    " Rec": 3839,
    " candid": 3840,
    "igned": 3841,
    " imag": 3842,
    " doctor": 3843,
    " Pri": 3844,
    " devices": 3845,
    " spent": 3846,
    " Que": 3847,
    "Ph": 3848,
    "wide": 3849,
    "cript": 3850,
    " reasons": 3851,
    " African": 3852,
    " Intern": 3853,
    "bert": 3854,
    "ocks": 3855,
    " sch": 3856,
    " ancient": 3857,
    " capac": 3858,
    " CO": 3859,
    " Prof": 3860,
    " rare": 3861,
    " Mary": 3862,
    " adapt": 3863,
    " district": 3864,
    "board": 3865,
    " ren": 3866,
    " surpr": 3867,
    " wrong": 3868,
    " Aut": 3869,
    " evalu": 3870,
    " exhib": 3871,
    " impl": 3872,
    " turned": 3873,
    " Even": 3874,
    " cru": 3875,
    " supply": 3876,
    " bul": 3877,
    " cam": 3878,
    " carbon": 3879,
    "eg": 3880,
    " please": 3881,
    "known": 3882,
    " cra": 3883,
    " ple": 3884,
    " moving": 3885,
    " constit": 3886,
    "Ã¶": 3887,
    " Sur": 3888,
    " Inter": 3889,
    "irection": 3890,
    " piece": 3891,
    "imal": 3892,
    "osen": 3893,
    " college": 3894,
    "ST": 3895,
    " George": 3896,
    " starting": 3897,
    " Journal": 3898,
    " customers": 3899,
    " scientific": 3900,
    " requires": 3901,
    "antly": 3902,
    "mark": 3903,
    "olec": 3904,
    " ded": 3905,
    " har": 3906,
    " Western": 3907,
    "erg": 3908,
    "orial": 3909,
    "While": 3910,
    " attract": 3911,
    " feature": 3912,
    " Mac": 3913,
    "istan": 3914,
    " fix": 3915,
    "ault": 3916,
    " comfort": 3917,
    " decre": 3918,
    " fear": 3919,
    " spirit": 3920,
    " Congress": 3921,
    " names": 3922,
    " Americans": 3923,
    " Central": 3924,
    " Rich": 3925,
    " offe": 3926,
    "rief": 3927,
    " foods": 3928,
    " couple": 3929,
    " System": 3930,
    " League": 3931,
    "AM": 3932,
    "iency": 3933,
    " miles": 3934,
    " innov": 3935,
    "col": 3936,
    " repe": 3937,
    "oma": 3938,
    " vacc": 3939,
    " academ": 3940,
    " Museum": 3941,
    "EC": 3942,
    "estic": 3943,
    " serve": 3944,
    "iny": 3945,
    " According": 3946,
    "set": 3947,
    " leaves": 3948,
    " benefit": 3949,
    " smaller": 3950,
    " mental": 3951,
    " passed": 3952,
    " France": 3953,
    " clin": 3954,
    "ologies": 3955,
    " sen": 3956,
    "lies": 3957,
    " egg": 3958,
    " max": 3959,
    "inate": 3960,
    "urning": 3961,
    "craft": 3962,
    " mission": 3963,
    " models": 3964,
    " convers": 3965,
    " killed": 3966,
    " Vol": 3967,
    " controll": 3968,
    "iot": 3969,
    "De": 3970,
    " Democr": 3971,
    " income": 3972,
    " interp": 3973,
    " protection": 3974,
    "fficient": 3975,
    " Japanese": 3976,
    " strength": 3977,
    " beg": 3978,
    " teachers": 3979,
    " tests": 3980,
    "Ã­": 3981,
    " appears": 3982,
    "overy": 3983,
    "place": 3984,
    " Kore": 3985,
    " severe": 3986,
    " teaching": 3987,
    " Miss": 3988,
    " foreign": 3989,
    " Met": 3990,
    " completed": 3991,
    "Pro": 3992,
    " machine": 3993,
    " pretty": 3994,
    "cious": 3995,
    "oday": 3996,
    "well": 3997,
    " powerful": 3998,
    " exercise": 3999,
    " immediately": 4000,
    "change": 4001,
    " doub": 4002,
    "apter": 4003,
    "asion": 4004,
    " applications": 4005,
    "By": 4006,
    " grand": 4007,
    " Ret": 4008,
    " Fore": 4009,
    " memory": 4010,
    " importance": 4011,
    " coast": 4012,
    "rian": 4013,
    " Since": 4014,
    "yp": 4015,
    " Island": 4016,
    "force": 4017,
    " economy": 4018,
    " eventually": 4019,
    "ares": 4020,
    " Australian": 4021,
    " wonder": 4022,
    " occup": 4023,
    " Hall": 4024,
    " looks": 4025,
    " prem": 4026,
    " quant": 4027,
    " picture": 4028,
    "anc": 4029,
    " sequ": 4030,
    " reports": 4031,
    " performed": 4032,
    "www": 4033,
    " trib": 4034,
    " pet": 4035,
    " perhaps": 4036,
    " TV": 4037,
    "orage": 4038,
    "ria": 4039,
    " returned": 4040,
    "iant": 4041,
    "gal": 4042,
    " bud": 4043,
    " note": 4044,
    "Is": 4045,
    " leader": 4046,
    " Bay": 4047,
    " Jesus": 4048,
    " strugg": 4049,
    " construct": 4050,
    " cultural": 4051,
    " ice": 4052,
    " acid": 4053,
    " applied": 4054,
    " ec": 4055,
    " trust": 4056,
    " arr": 4057,
    "with": 4058,
    " Sl": 4059,
    "rac": 4060,
    " blue": 4061,
    "ny": 4062,
    " Thomas": 4063,
    "olf": 4064,
    "porary": 4065,
    " instru": 4066,
    " morning": 4067,
    " request": 4068,
    "och": 4069,
    " compar": 4070,
    " slight": 4071,
    "osoph": 4072,
    "ken": 4073,
    " Also": 4074,
    " fine": 4075,
    " laws": 4076,
    " Gold": 4077,
    " peace": 4078,
    " statement": 4079,
    "odies": 4080,
    " Let": 4081,
    " waste": 4082,
    " credit": 4083,
    " felt": 4084,
    " rail": 4085,
    "ped": 4086,
    " conflic": 4087,
    "â¢": 4088,
    " bound": 4089,
    " appropriate": 4090,
    " incor": 4091,
    " household": 4092,
    " typically": 4093,
    " Ice": 4094,
    " Mount": 4095,
    "Ðµ": 4096,
    "water": 4097,
    " floor": 4098,
    " Direct": 4099,
    " Spe": 4100,
    "oration": 4101,
    "ube": 4102,
    " symb": 4103,
    " Group": 4104,
    " leaders": 4105,
    " Texas": 4106,
    " drop": 4107,
    " battle": 4108,
    "RE": 4109,
    " Jack": 4110,
    "Ar": 4111,
    " monitor": 4112,
    " excell": 4113,
    " annual": 4114,
    " garden": 4115,
    " becoming": 4116,
    "isation": 4117,
    " gets": 4118,
    " enh": 4119,
    " nuc": 4120,
    "ocol": 4121,
    "itc": 4122,
    " Company": 4123,
    " fuel": 4124,
    "iated": 4125,
    " rapid": 4126,
    " communication": 4127,
    " option": 4128,
    " touch": 4129,
    "ao": 4130,
    "ka": 4131,
    " illust": 4132,
    " Hol": 4133,
    "iance": 4134,
    " cities": 4135,
    " tal": 4136,
    " joined": 4137,
    "ishing": 4138,
    "They": 4139,
    " figure": 4140,
    " river": 4141,
    " existing": 4142,
    "cont": 4143,
    " command": 4144,
    " happen": 4145,
    " ord": 4146,
    " toward": 4147,
    " appeared": 4148,
    " cry": 4149,
    " status": 4150,
    " copy": 4151,
    " showed": 4152,
    " rat": 4153,
    "ipe": 4154,
    " http": 4155,
    " opened": 4156,
    " testing": 4157,
    " hair": 4158,
    "eles": 4159,
    " wel": 4160,
    "aste": 4161,
    "equ": 4162,
    "ingu": 4163,
    " ast": 4164,
    "ios": 4165,
    "resp": 4166,
    " destroy": 4167,
    "mm": 4168,
    " rule": 4169,
    " door": 4170,
    "olar": 4171,
    " Education": 4172,
    "icate": 4173,
    " heavy": 4174,
    " spot": 4175,
    " direction": 4176,
    " independent": 4177,
    " ur": 4178,
    " discovered": 4179,
    " rise": 4180,
    " dim": 4181,
    " collabor": 4182,
    " rob": 4183,
    " heard": 4184,
    "can": 4185,
    " previously": 4186,
    " Found": 4187,
    " Nor": 4188,
    " Service": 4189,
    " solar": 4190,
    " Carol": 4191,
    " voc": 4192,
    "inter": 4193,
    "ansas": 4194,
    " shape": 4195,
    " standards": 4196,
    " happy": 4197,
    "tra": 4198,
    " Lou": 4199,
    " teacher": 4200,
    " Mag": 4201,
    " introduced": 4202,
    " Develop": 4203,
    " finally": 4204,
    " lic": 4205,
    " planning": 4206,
    " separate": 4207,
    "gn": 4208,
    " married": 4209,
    "iences": 4210,
    " roll": 4211,
    "add": 4212,
    "inn": 4213,
    "acters": 4214,
    " comment": 4215,
    " Tur": 4216,
    " hop": 4217,
    " hom": 4218,
    " News": 4219,
    " examples": 4220,
    " ban": 4221,
    " sustain": 4222,
    "ressive": 4223,
    " legis": 4224,
    "OT": 4225,
    " historical": 4226,
    " king": 4227,
    "These": 4228,
    " humans": 4229,
    " secret": 4230,
    " calcul": 4231,
    " Flor": 4232,
    " practices": 4233,
    " agricult": 4234,
    "Ad": 4235,
    "van": 4236,
    " weather": 4237,
    " extremely": 4238,
    "levision": 4239,
    " background": 4240,
    " techniques": 4241,
    "des": 4242,
    "rical": 4243,
    "iat": 4244,
    " numerous": 4245,
    "urban": 4246,
    "Ã³": 4247,
    " Women": 4248,
    " download": 4249,
    "PA": 4250,
    "isms": 4251,
    " apply": 4252,
    " helped": 4253,
    " exactly": 4254,
    " bacter": 4255,
    "ini": 4256,
    " presented": 4257,
    " essay": 4258,
    " Year": 4259,
    "clus": 4260,
    " hear": 4261,
    " Jer": 4262,
    "rich": 4263,
    "azine": 4264,
    " ...": 4265,
    " esc": 4266,
    " reached": 4267,
    "HE": 4268,
    " replace": 4269,
    " Mil": 4270,
    "ii": 4271,
    " gun": 4272,
    " virt": 4273,
    "itter": 4274,
    "raw": 4275,
    " covered": 4276,
    " processes": 4277,
    " sche": 4278,
    "rupt": 4279,
    " presence": 4280,
    "amm": 4281,
    "rates": 4282,
    " Robert": 4283,
    " maintain": 4284,
    " colon": 4285,
    "encies": 4286,
    " insurance": 4287,
    "ensity": 4288,
    " load": 4289,
    "ga": 4290,
    " Public": 4291,
    "vis": 4292,
    " Read": 4293,
    " rich": 4294,
    "IV": 4295,
    " Ir": 4296,
    "ician": 4297,
    "inger": 4298,
    " Commission": 4299,
    " assum": 4300,
    " radio": 4301,
    " famous": 4302,
    " operations": 4303,
    "down": 4304,
    " stream": 4305,
    " scale": 4306,
    " consequ": 4307,
    " message": 4308,
    " adults": 4309,
    " limit": 4310,
    " properties": 4311,
    "idge": 4312,
    " dram": 4313,
    " opin": 4314,
    " Their": 4315,
    "Some": 4316,
    "ona": 4317,
    " dyn": 4318,
    " male": 4319,
    " Over": 4320,
    "ctors": 4321,
    " minor": 4322,
    " Cath": 4323,
    " steps": 4324,
    " tiss": 4325,
    " interested": 4326,
    " latest": 4327,
    " Jose": 4328,
    " objects": 4329,
    "za": 4330,
    " Internet": 4331,
    " tried": 4332,
    " Ð": 4333,
    " reduced": 4334,
    " bill": 4335,
    " lived": 4336,
    "ki": 4337,
    " requirements": 4338,
    "life": 4339,
    " Out": 4340,
    " stone": 4341,
    "OS": 4342,
    " employees": 4343,
    " sugar": 4344,
    " glass": 4345,
    "ternal": 4346,
    " affected": 4347,
    " explore": 4348,
    " gar": 4349,
    ".[": 4350,
    "cles": 4351,
    " learned": 4352,
    " opportunities": 4353,
    " Russian": 4354,
    " double": 4355,
    " firm": 4356,
    " letter": 4357,
    " hour": 4358,
    "lant": 4359,
    " opening": 4360,
    " Ro": 4361,
    " approximately": 4362,
    " Op": 4363,
    " expert": 4364,
    "uty": 4365,
    " Civil": 4366,
    " actual": 4367,
    " unf": 4368,
    " pp": 4369,
    " ing": 4370,
    " winter": 4371,
    " mostly": 4372,
    " sav": 4373,
    "mat": 4374,
    "ado": 4375,
    " mut": 4376,
    " whom": 4377,
    " Army": 4378,
    "mas": 4379,
    " cup": 4380,
    "burg": 4381,
    " instruct": 4382,
    " characters": 4383,
    " charge": 4384,
    " guide": 4385,
    " Wind": 4386,
    " element": 4387,
    "issions": 4388,
    " District": 4389,
    " daughter": 4390,
    " Program": 4391,
    " Its": 4392,
    " bran": 4393,
    " scen": 4394,
    "ias": 4395,
    " Alex": 4396,
    " organizations": 4397,
    " Lord": 4398,
    " distance": 4399,
    " paid": 4400,
    " sell": 4401,
    "coh": 4402,
    "omy": 4403,
    "apers": 4404,
    "ta": 4405,
    " west": 4406,
    " units": 4407,
    "unction": 4408,
    " habit": 4409,
    " Smith": 4410,
    "rows": 4411,
    "My": 4412,
    " Division": 4413,
    " wat": 4414,
    " offered": 4415,
    "azing": 4416,
    "oper": 4417,
    " joint": 4418,
    "ship": 4419,
    " Rev": 4420,
    " capacity": 4421,
    " trou": 4422,
    "bour": 4423,
    "which": 4424,
    "olute": 4425,
    "rep": 4426,
    "Our": 4427,
    " rain": 4428,
    " breat": 4429,
    " prefer": 4430,
    " Michael": 4431,
    "ception": 4432,
    " transl": 4433,
    " feeling": 4434,
    " click": 4435,
    " graph": 4436,
    " hus": 4437,
    " predict": 4438,
    "sey": 4439,
    " stock": 4440,
    " knew": 4441,
    " records": 4442,
    " spring": 4443,
    " Championship": 4444,
    " sales": 4445,
    "bre": 4446,
    " spect": 4447,
    " signed": 4448,
    "abetes": 4449,
    "US": 4450,
    " bottom": 4451,
    " despite": 4452,
    "ifically": 4453,
    " Government": 4454,
    " Franc": 4455,
    " Islam": 4456,
    " actions": 4457,
    "ada": 4458,
    " Mem": 4459,
    "riage": 4460,
    " Because": 4461,
    " behavi": 4462,
    " rul": 4463,
    " measures": 4464,
    " vit": 4465,
    " believed": 4466,
    " dat": 4467,
    " Dec": 4468,
    " visual": 4469,
    "iples": 4470,
    " carried": 4471,
    " molec": 4472,
    " Rem": 4473,
    " arm": 4474,
    "edia": 4475,
    " Dan": 4476,
    " ign": 4477,
    " Under": 4478,
    "ala": 4479,
    " thousands": 4480,
    " task": 4481,
    "atures": 4482,
    " truth": 4483,
    "ogen": 4484,
    " solutions": 4485,
    "bb": 4486,
    " Rel": 4487,
    " epis": 4488,
    " consult": 4489,
    "acing": 4490,
    " belong": 4491,
    "ferences": 4492,
    "spe": 4493,
    " $\\": 4494,
    " relatively": 4495,
    "itis": 4496,
    " map": 4497,
    " challenge": 4498,
    " guid": 4499,
    " setting": 4500,
    " easier": 4501,
    " Ken": 4502,
    " counter": 4503,
    " certainly": 4504,
    " Academ": 4505,
    " faith": 4506,
    "gypt": 4507,
    " Sam": 4508,
    "pective": 4509,
    "road": 4510,
    " mobile": 4511,
    " Sub": 4512,
    " equal": 4513,
    " Chic": 4514,
    "liam": 4515,
    " Ben": 4516,
    "Con": 4517,
    " manufacture": 4518,
    "elligence": 4519,
    "attle": 4520,
    "No": 4521,
    " citizens": 4522,
    " diseases": 4523,
    " Why": 4524,
    " Google": 4525,
    " Hen": 4526,
    " kept": 4527,
    " metal": 4528,
    " noted": 4529,
    " belief": 4530,
    " fol": 4531,
    " aw": 4532,
    " cert": 4533,
    " efficient": 4534,
    " baby": 4535,
    " sam": 4536,
    " instance": 4537,
    " functions": 4538,
    " send": 4539,
    " territ": 4540,
    " identified": 4541,
    " â": 4542,
    " decades": 4543,
    " prison": 4544,
    " stated": 4545,
    " manager": 4546,
    "gl": 4547,
    "west": 4548,
    " voice": 4549,
    "ye": 4550,
    " reality": 4551,
    " experienced": 4552,
    " Up": 4553,
    " homes": 4554,
    " Minister": 4555,
    " poly": 4556,
    " unc": 4557,
    " wasn": 4558,
    " Hill": 4559,
    " Tom": 4560,
    "works": 4561,
    " Sum": 4562,
    "care": 4563,
    "hemat": 4564,
    " freed": 4565,
    "anging": 4566,
    " Road": 4567,
    " Commit": 4568,
    " liber": 4569,
    " mist": 4570,
    " budget": 4571,
    "â": 4572,
    " mig": 4573,
    "alian": 4574,
    "rain": 4575,
    "ita": 4576,
    " regarding": 4577,
    "ses": 4578,
    " gain": 4579,
    " critic": 4580,
    " dream": 4581,
    " grant": 4582,
    " vote": 4583,
    " hyp": 4584,
    " challenges": 4585,
    " straight": 4586,
    " Florida": 4587,
    "ipped": 4588,
    " seat": 4589,
    "estival": 4590,
    " train": 4591,
    " rot": 4592,
    "rations": 4593,
    " officials": 4594,
    " raised": 4595,
    " tim": 4596,
    "liament": 4597,
    "ady": 4598,
    "gery": 4599,
    "hi": 4600,
    "oser": 4601,
    "rd": 4602,
    " advantage": 4603,
    "According": 4604,
    " connection": 4605,
    " infection": 4606,
    "gu": 4607,
    "ota": 4608,
    "rehens": 4609,
    "erved": 4610,
    " Tor": 4611,
    " prices": 4612,
    " ble": 4613,
    " reference": 4614,
    " protein": 4615,
    " Frank": 4616,
    " Plan": 4617,
    " Del": 4618,
    " island": 4619,
    " Di": 4620,
    "umn": 4621,
    " Class": 4622,
    " profession": 4623,
    " shoot": 4624,
    " differences": 4625,
    "enth": 4626,
    " mentioned": 4627,
    "CC": 4628,
    " Ev": 4629,
    " storage": 4630,
    "AD": 4631,
    " Each": 4632,
    " kill": 4633,
    " occurs": 4634,
    " shot": 4635,
    " express": 4636,
    " master": 4637,
    " crop": 4638,
    " Prot": 4639,
    " factor": 4640,
    " Water": 4641,
    "tered": 4642,
    " context": 4643,
    " Post": 4644,
    " east": 4645,
    " Av": 4646,
    " commonly": 4647,
    " excellent": 4648,
    " Well": 4649,
    " Cur": 4650,
    " competition": 4651,
    "phas": 4652,
    " meant": 4653,
    " remained": 4654,
    " Arab": 4655,
    "astern": 4656,
    " elim": 4657,
    " spend": 4658,
    "rition": 4659,
    " chief": 4660,
    " connected": 4661,
    " lik": 4662,
    " balance": 4663,
    "eal": 4664,
    "itors": 4665,
    "mosp": 4666,
    "Now": 4667,
    "fin": 4668,
    " Life": 4669,
    " generation": 4670,
    " operation": 4671,
    " Play": 4672,
    " founded": 4673,
    "ET": 4674,
    "----": 4675,
    " injury": 4676,
    " Rob": 4677,
    " corpor": 4678,
    " Wall": 4679,
    " investment": 4680,
    " solid": 4681,
    " supported": 4682,
    " util": 4683,
    " forced": 4684,
    " Kh": 4685,
    " Office": 4686,
    " adjust": 4687,
    "ixt": 4688,
    "â,": 4689,
    " strate": 4690,
    " fif": 4691,
    "lo": 4692,
    " planet": 4693,
    " strategy": 4694,
    " Den": 4695,
    " pieces": 4696,
    " purchase": 4697,
    "related": 4698,
    " du": 4699,
    "icians": 4700,
    " dro": 4701,
    "PS": 4702,
    "nel": 4703,
    " experiences": 4704,
    " industrial": 4705,
    "ancing": 4706,
    " hospital": 4707,
    " paint": 4708,
    " university": 4709,
    "ially": 4710,
    " Two": 4711,
    "ooth": 4712,
    "standing": 4713,
    " sports": 4714,
    "yd": 4715,
    " Every": 4716,
    " remove": 4717,
    " native": 4718,
    " Fe": 4719,
    " survey": 4720,
    "cohol": 4721,
    " Pet": 4722,
    " Star": 4723,
    "lymp": 4724,
    " drugs": 4725,
    " removed": 4726,
    " Russia": 4727,
    "venue": 4728,
    " subsequ": 4729,
    " ship": 4730,
    " clearly": 4731,
    " shared": 4732,
    " finished": 4733,
    " incorpor": 4734,
    " Lake": 4735,
    " obvious": 4736,
    "lick": 4737,
    " Cup": 4738,
    " Jewish": 4739,
    " helping": 4740,
    " houses": 4741,
    "ola": 4742,
    " policies": 4743,
    "ishes": 4744,
    "itar": 4745,
    "atically": 4746,
    "onic": 4747,
    " Hel": 4748,
    " symbol": 4749,
    "igure": 4750,
    " Royal": 4751,
    " Super": 4752,
    "arrow": 4753,
    " jobs": 4754,
    " appearance": 4755,
    " Social": 4756,
    " laun": 4757,
    " Asia": 4758,
    " spl": 4759,
    " remov": 4760,
    " businesses": 4761,
    " Mass": 4762,
    " brief": 4763,
    " Bi": 4764,
    " sand": 4765,
    " satis": 4766,
    " Wil": 4767,
    " explain": 4768,
    " quarter": 4769,
    "iling": 4770,
    "itage": 4771,
    " happened": 4772,
    " List": 4773,
    " fort": 4774,
    " originally": 4775,
    " pul": 4776,
    " emp": 4777,
    " looked": 4778,
    "itely": 4779,
    " Francis": 4780,
    " Work": 4781,
    " Iceland": 4782,
    " defined": 4783,
    " notes": 4784,
    "ifying": 4785,
    " structures": 4786,
    "omin": 4787,
    " Egypt": 4788,
    " Committee": 4789,
    " Greek": 4790,
    " television": 4791,
    " vision": 4792,
    " components": 4793,
    "She": 4794,
    " distribution": 4795,
    " therapy": 4796,
    "enced": 4797,
    "body": 4798,
    "respond": 4799,
    " leaving": 4800,
    " mouth": 4801,
    " Muslim": 4802,
    " divid": 4803,
    " failure": 4804,
    " advanced": 4805,
    " Sk": 4806,
    " finding": 4807,
    " thick": 4808,
    "oto": 4809,
    " univers": 4810,
    " Canadian": 4811,
    " Scott": 4812,
    " Project": 4813,
    " regions": 4814,
    " Chicago": 4815,
    " Budd": 4816,
    "sect": 4817,
    " claims": 4818,
    "atever": 4819,
    " Bus": 4820,
    " Sund": 4821,
    " Old": 4822,
    "annel": 4823,
    " vehicle": 4824,
    "abilities": 4825,
    " fields": 4826,
    "rating": 4827,
    " weap": 4828,
    "Cl": 4829,
    " significantly": 4830,
    "ourney": 4831,
    " observed": 4832,
    " score": 4833,
    " walls": 4834,
    " transform": 4835,
    " Vict": 4836,
    "alle": 4837,
    "point": 4838,
    "zy": 4839,
    " bond": 4840,
    " Virgin": 4841,
    " prepar": 4842,
    " Olymp": 4843,
    " continues": 4844,
    " notice": 4845,
    "ean": 4846,
    " customer": 4847,
    " division": 4848,
    "alled": 4849,
    " classes": 4850,
    "iled": 4851,
    " Development": 4852,
    "IA": 4853,
    " Profess": 4854,
    " alternative": 4855,
    " victim": 4856,
    " husband": 4857,
    " iron": 4858,
    "akers": 4859,
    "ologist": 4860,
    " Mexico": 4861,
    " plastic": 4862,
    " bow": 4863,
    " closed": 4864,
    " conducted": 4865,
    " doll": 4866,
    " Brown": 4867,
    " northern": 4868,
    " contrast": 4869,
    " Times": 4870,
    " Mo": 4871,
    " Sing": 4872,
    " proposed": 4873,
    " regist": 4874,
    "ev": 4875,
    "iments": 4876,
    " administration": 4877,
    "den": 4878,
    " fruit": 4879,
    " changing": 4880,
    "othes": 4881,
    " Lear": 4882,
    "____": 4883,
    " onto": 4884,
    " Face": 4885,
    " aren": 4886,
    "ype": 4887,
    " internal": 4888,
    "hors": 4889,
    " Bill": 4890,
    " concerns": 4891,
    "emic": 4892,
    " brand": 4893,
    "Pl": 4894,
    "arant": 4895,
    " die": 4896,
    " combination": 4897,
    " mo": 4898,
    " referred": 4899,
    " volume": 4900,
    " Mad": 4901,
    " pros": 4902,
    " Human": 4903,
    " teach": 4904,
    "New": 4905,
    " decisions": 4906,
    " smart": 4907,
    "ript": 4908,
    "OM": 4909,
    "rogen": 4910,
    " professor": 4911,
    " Pac": 4912,
    "math": 4913,
    " liqu": 4914,
    " settle": 4915,
    "aped": 4916,
    " photos": 4917,
    "ensus": 4918,
    " diss": 4919,
    " estimated": 4920,
    "cel": 4921,
    "itchen": 4922,
    " core": 4923,
    " neighbor": 4924,
    " selected": 4925,
    " detect": 4926,
    "iced": 4927,
    " cloud": 4928,
    " square": 4929,
    " patterns": 4930,
    " Mel": 4931,
    "uit": 4932,
    " wants": 4933,
    "osa": 4934,
    " distinct": 4935,
    " pages": 4936,
    " Home": 4937,
    " artist": 4938,
    " southern": 4939,
    " Good": 4940,
    " Music": 4941,
    "do": 4942,
    " Cross": 4943,
    "reland": 4944,
    " restaur": 4945,
    "ortunately": 4946,
    " deliver": 4947,
    " tick": 4948,
    " nor": 4949,
    " dial": 4950,
    " runs": 4951,
    "bed": 4952,
    " kid": 4953,
    " fourth": 4954,
    " Ap": 4955,
    " academic": 4956,
    " nice": 4957,
    " tro": 4958,
    " pregn": 4959,
    "Here": 4960,
    " evolution": 4961,
    " *": 4962,
    "From": 4963,
    "ester": 4964,
    " Best": 4965,
    " join": 4966,
    "amic": 4967,
    "cher": 4968,
    " UN": 4969,
    " happens": 4970,
    "Â°": 4971,
    "ails": 4972,
    " slightly": 4973,
    "enses": 4974,
    "olved": 4975,
    " Som": 4976,
    "amil": 4977,
    "However": 4978,
    " Mont": 4979,
    "rum": 4980,
    " discussion": 4981,
    " teeth": 4982,
    " Once": 4983,
    " pal": 4984,
    "what": 4985,
    " engineering": 4986,
    " ended": 4987,
    " urban": 4988,
    " educational": 4989,
    "inet": 4990,
    " Econom": 4991,
    " Louis": 4992,
    " creation": 4993,
    "level": 4994,
    " Wood": 4995,
    " circum": 4996,
    " phen": 4997,
    " parties": 4998,
    " emphas": 4999,
    " wish": 5000,
    "Americ": 5001,
    "anda": 5002,
    "icks": 5003,
    " weak": 5004,
    " flood": 5005,
    "ented": 5006,
    " Mer": 5007,
    " Ter": 5008,
    " entry": 5009,
    " Ann": 5010,
    " literature": 5011,
    " showing": 5012,
    "icy": 5013,
    " atmosp": 5014,
    " speech": 5015,
    "EM": 5016,
    "amily": 5017,
    " Bur": 5018,
    " cas": 5019,
    " absolute": 5020,
    " agreement": 5021,
    " upper": 5022,
    " widely": 5023,
    "lig": 5024,
    " Carolina": 5025,
    "ario": 5026,
    " calls": 5027,
    " operating": 5028,
    "oral": 5029,
    " Bank": 5030,
    " frequently": 5031,
    " infect": 5032,
    " philosoph": 5033,
    " residents": 5034,
    " coach": 5035,
    "ani": 5036,
    "aud": 5037,
    " resource": 5038,
    "ras": 5039,
    " advance": 5040,
    "arsh": 5041,
    " songs": 5042,
    "rust": 5043,
    "riday": 5044,
    "ructure": 5045,
    " combined": 5046,
    " driving": 5047,
    " Spanish": 5048,
    " motor": 5049,
    " agg": 5050,
    " internet": 5051,
    " suggests": 5052,
    " sexual": 5053,
    " trip": 5054,
    "etry": 5055,
    "ographic": 5056,
    " Histor": 5057,
    " attacks": 5058,
    " talking": 5059,
    " aid": 5060,
    " Charles": 5061,
    " signs": 5062,
    "char": 5063,
    " marketing": 5064,
    " perman": 5065,
    "unte": 5066,
    " studied": 5067,
    " surrounding": 5068,
    " Elect": 5069,
    " landsc": 5070,
    " increases": 5071,
    " favorite": 5072,
    " exposure": 5073,
    " movie": 5074,
    " sac": 5075,
    " Second": 5076,
    " wealth": 5077,
    "uration": 5078,
    " focused": 5079,
    "irt": 5080,
    " mur": 5081,
    " tow": 5082,
    "ded": 5083,
    "ffect": 5084,
    "eding": 5085,
    " discover": 5086,
    " Web": 5087,
    " fell": 5088,
    " bag": 5089,
    " intended": 5090,
    " violence": 5091,
    " experts": 5092,
    " birds": 5093,
    "lamm": 5094,
    " Bas": 5095,
    " grade": 5096,
    "=\"": 5097,
    "bar": 5098,
    "itt": 5099,
    "inner": 5100,
    " bath": 5101,
    "During": 5102,
    "IL": 5103,
    " prepared": 5104,
    "no": 5105,
    " CD": 5106,
    " Land": 5107,
    " conv": 5108,
    "erate": 5109,
    " Long": 5110,
    " manage": 5111,
    " treated": 5112,
    " root": 5113,
    " Paris": 5114,
    " ahead": 5115,
    " leadership": 5116,
    " writer": 5117,
    " Lu": 5118,
    " topic": 5119,
    " nav": 5120,
    " push": 5121,
    " plays": 5122,
    " bodies": 5123,
    " sample": 5124,
    " Club": 5125,
    " Environment": 5126,
    " Award": 5127,
    " immig": 5128,
    "rm": 5129,
    " scene": 5130,
    " clients": 5131,
    "olars": 5132,
    " resistance": 5133,
    " Atlant": 5134,
    " Obama": 5135,
    " leads": 5136,
    "rus": 5137,
    " aspects": 5138,
    "sembly": 5139,
    " Thus": 5140,
    "ato": 5141,
    " Academy": 5142,
    "that": 5143,
    "bal": 5144,
    "fit": 5145,
    "orter": 5146,
    " Catholic": 5147,
    " army": 5148,
    "rier": 5149,
    "thlet": 5150,
    "ilding": 5151,
    " Camp": 5152,
    "omic": 5153,
    " street": 5154,
    " virus": 5155,
    " excess": 5156,
    " otherwise": 5157,
    " articles": 5158,
    "icit": 5159,
    " Britain": 5160,
    " launch": 5161,
    " technical": 5162,
    " facilities": 5163,
    " recommended": 5164,
    "EL": 5165,
    " Spr": 5166,
    "aks": 5167,
    " Foundation": 5168,
    " cycle": 5169,
    " myself": 5170,
    "isted": 5171,
    " adding": 5172,
    "inent": 5173,
    " Free": 5174,
    " replaced": 5175,
    "dered": 5176,
    "iveness": 5177,
    " manner": 5178,
    "ashion": 5179,
    "rete": 5180,
    "rieved": 5181,
    " Library": 5182,
    " sides": 5183,
    " Labor": 5184,
    " allowing": 5185,
    " medium": 5186,
    " remaining": 5187,
    "tion": 5188,
    " pictures": 5189,
    "ali": 5190,
    " mort": 5191,
    " coal": 5192,
    " youth": 5193,
    " Middle": 5194,
    " USA": 5195,
    " snow": 5196,
    " Both": 5197,
    " Peter": 5198,
    " amazing": 5199,
    " mainly": 5200,
    "arp": 5201,
    "ansion": 5202,
    " determined": 5203,
    " experiment": 5204,
    " Children": 5205,
    " Use": 5206,
    " cris": 5207,
    " failed": 5208,
    "rome": 5209,
    "stone": 5210,
    " Joseph": 5211,
    " correspond": 5212,
    " freedom": 5213,
    " pun": 5214,
    " Swed": 5215,
    " launched": 5216,
    "opy": 5217,
    " seek": 5218,
    " Martin": 5219,
    " flat": 5220,
    " pump": 5221,
    " disorders": 5222,
    " ideal": 5223,
    " degrees": 5224,
    " technologies": 5225,
    " Board": 5226,
    " anx": 5227,
    " Grand": 5228,
    "asp": 5229,
    "asure": 5230,
    "itness": 5231,
    " Big": 5232,
    " illness": 5233,
    " views": 5234,
    "SA": 5235,
    "ora": 5236,
    "pg": 5237,
    "win": 5238,
    " conver": 5239,
    "yer": 5240,
    " Sant": 5241,
    "aine": 5242,
    "othing": 5243,
    " Oh": 5244,
    " <": 5245,
    " attrib": 5246,
    " resulting": 5247,
    " traffic": 5248,
    " window": 5249,
    " output": 5250,
    " Det": 5251,
    " collected": 5252,
    " keeping": 5253,
    " trial": 5254,
    "ava": 5255,
    " Bet": 5256,
    " cars": 5257,
    " advice": 5258,
    " fab": 5259,
    " coord": 5260,
    " documents": 5261,
    " Rad": 5262,
    " vary": 5263,
    " Italian": 5264,
    " Organ": 5265,
    " flex": 5266,
    " sector": 5267,
    " â¦": 5268,
    " motion": 5269,
    "rans": 5270,
    "'d": 5271,
    " See": 5272,
    " mel": 5273,
    "DA": 5274,
    " promote": 5275,
    "fl": 5276,
    " Kansas": 5277,
    "eline": 5278,
    " mal": 5279,
    " elected": 5280,
    "iverse": 5281,
    "Do": 5282,
    " Southern": 5283,
    " senior": 5284,
    " Ireland": 5285,
    " trig": 5286,
    "but": 5287,
    " follows": 5288,
    "going": 5289,
    " gone": 5290,
    " primarily": 5291,
    " selection": 5292,
    " Secret": 5293,
    " contem": 5294,
    " Los": 5295,
    " identity": 5296,
    "orrow": 5297,
    " alcohol": 5298,
    " secure": 5299,
    "ompl": 5300,
    " amb": 5301,
    " causing": 5302,
    " god": 5303,
    " Ha": 5304,
    " partner": 5305,
    "pping": 5306,
    " clim": 5307,
    " furn": 5308,
    "isher": 5309,
    " Time": 5310,
    " Liber": 5311,
    " Christmas": 5312,
    " initi": 5313,
    "ena": 5314,
    " arrest": 5315,
    " diabetes": 5316,
    " afford": 5317,
    " Mill": 5318,
    " burn": 5319,
    " Kar": 5320,
    "eed": 5321,
    "osite": 5322,
    " Food": 5323,
    " ranked": 5324,
    " reaction": 5325,
    "agon": 5326,
    " concern": 5327,
    " links": 5328,
    " specifically": 5329,
    "itan": 5330,
    "Ð°": 5331,
    " revealed": 5332,
    "apes": 5333,
    " salt": 5334,
    " biggest": 5335,
    "oviet": 5336,
    " AN": 5337,
    " Test": 5338,
    " stim": 5339,
    " wait": 5340,
    " involve": 5341,
    " relevant": 5342,
    " stars": 5343,
    " Â£": 5344,
    " craft": 5345,
    " represented": 5346,
    " edition": 5347,
    " hun": 5348,
    "alls": 5349,
    " Nav": 5350,
    " Review": 5351,
    " conflict": 5352,
    " absor": 5353,
    " journey": 5354,
    " enem": 5355,
    " Sil": 5356,
    "ulf": 5357,
    " authors": 5358,
    " Friday": 5359,
    " relationships": 5360,
    " appointed": 5361,
    " vent": 5362,
    " apparent": 5363,
    " nuclear": 5364,
    "EO": 5365,
    "igen": 5366,
    "Sc": 5367,
    " encourage": 5368,
    " strategies": 5369,
    " medicine": 5370,
    " portion": 5371,
    "uting": 5372,
    "ossible": 5373,
    " datab": 5374,
    "ING": 5375,
    "phone": 5376,
    " largely": 5377,
    " seeing": 5378,
    "stitution": 5379,
    "Ð¾": 5380,
    " taught": 5381,
    "ipping": 5382,
    "oking": 5383,
    "raction": 5384,
    " audience": 5385,
    " ran": 5386,
    "rey": 5387,
    " depression": 5388,
    " commission": 5389,
    " responsibility": 5390,
    "illa": 5391,
    "essel": 5392,
    " Fil": 5393,
    " centre": 5394,
    " inh": 5395,
    " conference": 5396,
    "CA": 5397,
    "ffee": 5398,
    " chart": 5399,
    " isol": 5400,
    " storm": 5401,
    "otic": 5402,
    " Facebook": 5403,
    "icken": 5404,
    " directed": 5405,
    "nic": 5406,
    "ano": 5407,
    "bu": 5408,
    " conclud": 5409,
    " stuff": 5410,
    " bacteria": 5411,
    " Technology": 5412,
    "night": 5413,
    " DNA": 5414,
    " Rock": 5415,
    " consumption": 5416,
    " lose": 5417,
    "umber": 5418,
    " dedicated": 5419,
    "asks": 5420,
    "amental": 5421,
    " apprec": 5422,
    " institutions": 5423,
    "IP": 5424,
    "under": 5425,
    " Step": 5426,
    " san": 5427,
    "writ": 5428,
    " Sunday": 5429,
    " latter": 5430,
    " managed": 5431,
    " wear": 5432,
    "oughly": 5433,
    " advert": 5434,
    "Don": 5435,
    "ua": 5436,
    " improved": 5437,
    " truly": 5438,
    " Victor": 5439,
    " begins": 5440,
    " Italy": 5441,
    " nine": 5442,
    " stick": 5443,
    "bur": 5444,
    " Cap": 5445,
    " Emp": 5446,
    " accompl": 5447,
    " comprehens": 5448,
    " greatest": 5449,
    " gall": 5450,
    " phase": 5451,
    " properly": 5452,
    " sets": 5453,
    " Supp": 5454,
    " museum": 5455,
    " Mond": 5456,
    " department": 5457,
    " funding": 5458,
    " layer": 5459,
    "anged": 5460,
    "pet": 5461,
    " Mu": 5462,
    " chair": 5463,
    " Engine": 5464,
    " crim": 5465,
    " pil": 5466,
    " pool": 5467,
    " serving": 5468,
    "gment": 5469,
    " newsp": 5470,
    " Bre": 5471,
    " label": 5472,
    " alg": 5473,
    " surgery": 5474,
    "ilit": 5475,
    " Conf": 5476,
    " Town": 5477,
    " mere": 5478,
    " Form": 5479,
    " flag": 5480,
    " Micro": 5481,
    " fle": 5482,
    " mountain": 5483,
    " entirely": 5484,
    " bright": 5485,
    " spok": 5486,
    "met": 5487,
    " exchange": 5488,
    "look": 5489,
    " Inf": 5490,
    " height": 5491,
    "oston": 5492,
    "zen": 5493,
    " owner": 5494,
    " authority": 5495,
    " maximum": 5496,
    " dangerous": 5497,
    "uan": 5498,
    " sweet": 5499,
    " Ox": 5500,
    " hero": 5501,
    "va": 5502,
    " Like": 5503,
    " Pan": 5504,
    " expensive": 5505,
    "stein": 5506,
    " guarant": 5507,
    " tells": 5508,
    " oxy": 5509,
    " crow": 5510,
    " winning": 5511,
    " valu": 5512,
    " files": 5513,
    " multi": 5514,
    "hetic": 5515,
    "ivery": 5516,
    "rog": 5517,
    "while": 5518,
    "Se": 5519,
    " apart": 5520,
    " linked": 5521,
    "anges": 5522,
    " antib": 5523,
    " suggested": 5524,
    " comments": 5525,
    " girls": 5526,
    " Northern": 5527,
    " Tem": 5528,
    "File": 5529,
    " Ver": 5530,
    " Design": 5531,
    " sale": 5532,
    "Bl": 5533,
    "osal": 5534,
    " tissue": 5535,
    " interests": 5536,
    " milk": 5537,
    " muscle": 5538,
    " Power": 5539,
    " Pacific": 5540,
    " organic": 5541,
    "pan": 5542,
    " creative": 5543,
    " Kingdom": 5544,
    " rent": 5545,
    "inating": 5546,
    "iture": 5547,
    " reform": 5548,
    "BS": 5549,
    " brown": 5550,
    " formation": 5551,
    " Cy": 5552,
    "_,": 5553,
    " artists": 5554,
    " figures": 5555,
    " Gal": 5556,
    " expression": 5557,
    " offering": 5558,
    "Res": 5559,
    "free": 5560,
    " effectively": 5561,
    " findings": 5562,
    "Many": 5563,
    "ette": 5564,
    " bone": 5565,
    " hearing": 5566,
    " wid": 5567,
    " Columb": 5568,
    "UR": 5569,
    "ban": 5570,
    " Ma": 5571,
    " mixed": 5572,
    "atre": 5573,
    "ingly": 5574,
    " Soviet": 5575,
    "SP": 5576,
    " fill": 5577,
    " valid": 5578,
    " Haw": 5579,
    " tox": 5580,
    "IG": 5581,
    " Cat": 5582,
    " Scot": 5583,
    " photo": 5584,
    "OL": 5585,
    "zil": 5586,
    " input": 5587,
    " Ol": 5588,
    " housing": 5589,
    "aming": 5590,
    " Sea": 5591,
    " Director": 5592,
    " Ill": 5593,
    " occurred": 5594,
    "ads": 5595,
    "rics": 5596,
    " participants": 5597,
    "irmed": 5598,
    " Conn": 5599,
    " advoc": 5600,
    " assessment": 5601,
    " ingred": 5602,
    "IR": 5603,
    "Le": 5604,
    " sharing": 5605,
    " Satur": 5606,
    " clinical": 5607,
    "alse": 5608,
    " agency": 5609,
    " Wild": 5610,
    " lots": 5611,
    " accomp": 5612,
    " obtained": 5613,
    "elines": 5614,
    " genetic": 5615,
    " editor": 5616,
    " starts": 5617,
    " Irish": 5618,
    " depending": 5619,
    " nom": 5620,
    " ped": 5621,
    " familiar": 5622,
    "Why": 5623,
    " goods": 5624,
    " opinion": 5625,
    " western": 5626,
    " risks": 5627,
    "kin": 5628,
    " Business": 5629,
    "tenance": 5630,
    " Jud": 5631,
    " Latin": 5632,
    " existence": 5633,
    " library": 5634,
    " practical": 5635,
    "eria": 5636,
    " Lab": 5637,
    " yellow": 5638,
    "top": 5639,
    " dogs": 5640,
    "TS": 5641,
    "ih": 5642,
    " Information": 5643,
    "igan": 5644,
    " Virginia": 5645,
    " interpret": 5646,
    " issued": 5647,
    " renew": 5648,
    " pray": 5649,
    " Get": 5650,
    " revolution": 5651,
    "stream": 5652,
    " Management": 5653,
    " accepted": 5654,
    "Â­": 5655,
    " Henry": 5656,
    " motiv": 5657,
    " minimum": 5658,
    " Wed": 5659,
    "MS": 5660,
    " Please": 5661,
    "icon": 5662,
    "ittle": 5663,
    " concerned": 5664,
    " depart": 5665,
    " emergency": 5666,
    "opping": 5667,
    "FL": 5668,
    "iana": 5669,
    " processing": 5670,
    "pass": 5671,
    " roof": 5672,
    "aked": 5673,
    " gender": 5674,
    " immune": 5675,
    "Des": 5676,
    " Whe": 5677,
    " camera": 5678,
    " purposes": 5679,
    " suc": 5680,
    "à¤": 5681,
    " format": 5682,
    " reducing": 5683,
    " Senate": 5684,
    "dule": 5685,
    " AP": 5686,
    "teen": 5687,
    " Gall": 5688,
    " claimed": 5689,
    " faster": 5690,
    " instrument": 5691,
    " describe": 5692,
    " officers": 5693,
    "CS": 5694,
    "osh": 5695,
    " consid": 5696,
    "ker": 5697,
    " letters": 5698,
    "hand": 5699,
    " maybe": 5700,
    " seed": 5701,
    " technique": 5702,
    "jpg": 5703,
    " Angeles": 5704,
    " Retrieved": 5705,
    " principles": 5706,
    "ef": 5707,
    "Although": 5708,
    "Not": 5709,
    " catch": 5710,
    " simpl": 5711,
    " Services": 5712,
    " arrived": 5713,
    "lets": 5714,
    " arrange": 5715,
    " cash": 5716,
    " recognized": 5717,
    "sell": 5718,
    " kinds": 5719,
    "Ste": 5720,
    " border": 5721,
    " client": 5722,
    " syn": 5723,
    "inding": 5724,
    " ocean": 5725,
    " languages": 5726,
    " soldiers": 5727,
    " Space": 5728,
    " featured": 5729,
    "iox": 5730,
    "ystem": 5731,
    "lar": 5732,
    " breast": 5733,
    " Medical": 5734,
    "BA": 5735,
    " Garden": 5736,
    " agreed": 5737,
    " Richard": 5738,
    " nutri": 5739,
    "kins": 5740,
    " hundreds": 5741,
    " pair": 5742,
    "ologists": 5743,
    "war": 5744,
    "ishop": 5745,
    " Valley": 5746,
    " explained": 5747,
    " sport": 5748,
    "roid": 5749,
    " accident": 5750,
    "Can": 5751,
    "left": 5752,
    " flav": 5753,
    " Georg": 5754,
    " steel": 5755,
    " boy": 5756,
    "roph": 5757,
    " pull": 5758,
    " filled": 5759,
    "obe": 5760,
    "ollowing": 5761,
    " consists": 5762,
    "DF": 5763,
    "nergy": 5764,
    " divided": 5765,
    " shut": 5766,
    " vessel": 5767,
    "icious": 5768,
    " Boston": 5769,
    " sounds": 5770,
    " Gr": 5771,
    " religion": 5772,
    "wo": 5773,
    "ensions": 5774,
    " Studies": 5775,
    "from": 5776,
    " Penn": 5777,
    "ieties": 5778,
    " entered": 5779,
    "rance": 5780,
    "rastructure": 5781,
    " grass": 5782,
    " kitchen": 5783,
    " tele": 5784,
    " holid": 5785,
    "nership": 5786,
    " funds": 5787,
    "Ind": 5788,
    " flowers": 5789,
    " ST": 5790,
    " reject": 5791,
    " component": 5792,
    " involves": 5793,
    "unicip": 5794,
    "Go": 5795,
    " meat": 5796,
    " whatever": 5797,
    "].": 5798,
    "state": 5799,
    " Mur": 5800,
    " ju": 5801,
    "ION": 5802,
    "Sp": 5803,
    " Any": 5804,
    " executive": 5805,
    " tun": 5806,
    " thoughts": 5807,
    "ighter": 5808,
    " IN": 5809,
    " Phys": 5810,
    " depos": 5811,
    " jump": 5812,
    "appe": 5813,
    " doubt": 5814,
    " Republican": 5815,
    " reprodu": 5816,
    "box": 5817,
    " marriage": 5818,
    " candidate": 5819,
    "clusion": 5820,
    " extended": 5821,
    " twice": 5822,
    " definitely": 5823,
    " smooth": 5824,
    "sm": 5825,
    " owners": 5826,
    " domestic": 5827,
    "Most": 5828,
    " regional": 5829,
    "Ne": 5830,
    " Camb": 5831,
    " elev": 5832,
    "Since": 5833,
    " Cast": 5834,
    " mathemat": 5835,
    " typical": 5836,
    "}$": 5837,
    " occasion": 5838,
    "agram": 5839,
    "dden": 5840,
    "inf": 5841,
    " decor": 5842,
    " volunte": 5843,
    " vs": 5844,
    ".;": 5845,
    " Sand": 5846,
    " locations": 5847,
    "inder": 5848,
    " Open": 5849,
    " Therefore": 5850,
    " disorder": 5851,
    " detailed": 5852,
    " finish": 5853,
    " vast": 5854,
    " vul": 5855,
    "acc": 5856,
    " Ep": 5857,
    " PC": 5858,
    " resident": 5859,
    " constant": 5860,
    " knows": 5861,
    " sufficient": 5862,
    "coming": 5863,
    " regularly": 5864,
    "idden": 5865,
    " decide": 5866,
    " definition": 5867,
    " rid": 5868,
    "ournament": 5869,
    " Add": 5870,
    " beat": 5871,
    " nations": 5872,
    " substant": 5873,
    "Te": 5874,
    " horse": 5875,
    "agers": 5876,
    "edy": 5877,
    " Hot": 5878,
    " Pers": 5879,
    " Vis": 5880,
    " synt": 5881,
    "kes": 5882,
    " alt": 5883,
    " plate": 5884,
    " officer": 5885,
    " possibly": 5886,
    " AD": 5887,
    " Team": 5888,
    " classroom": 5889,
    " edge": 5890,
    " emotional": 5891,
    " yield": 5892,
    "....": 5893,
    " Rail": 5894,
    " Str": 5895,
    " flight": 5896,
    " nurs": 5897,
    " thanks": 5898,
    " unlike": 5899,
    " cards": 5900,
    " tips": 5901,
    "eper": 5902,
    "oted": 5903,
    " Att": 5904,
    " colour": 5905,
    " Du": 5906,
    "iology": 5907,
    " Today": 5908,
    " closely": 5909,
    " centuries": 5910,
    " indicate": 5911,
    " draft": 5912,
    " Federal": 5913,
    " dust": 5914,
    " Johnson": 5915,
    " liquid": 5916,
    " shel": 5917,
    " situations": 5918,
    " seeds": 5919,
    " raise": 5920,
    "ndom": 5921,
    "?â": 5922,
    "ulum": 5923,
    " Another": 5924,
    " colors": 5925,
    " conscious": 5926,
    "osc": 5927,
    " characteristics": 5928,
    " fighting": 5929,
    " Centre": 5930,
    "net": 5931,
    " Saturday": 5932,
    " estate": 5933,
    " switch": 5934,
    "ella": 5935,
    " Iran": 5936,
    "ogue": 5937,
    " sudden": 5938,
    " )": 5939,
    " THE": 5940,
    ".â": 5941,
    "umin": 5942,
    " circumst": 5943,
    "ograp": 5944,
    "zing": 5945,
    " grew": 5946,
    "isters": 5947,
    "cers": 5948,
    "lers": 5949,
    " Care": 5950,
    "luding": 5951,
    "BN": 5952,
    "wing": 5953,
    "real": 5954,
    " insect": 5955,
    " spending": 5956,
    "asy": 5957,
    "pected": 5958,
    " stret": 5959,
    "ucky": 5960,
    "upp": 5961,
    "ulty": 5962,
    " Dar": 5963,
    "heast": 5964,
    " Fort": 5965,
    " markets": 5966,
    " guitar": 5967,
    " pure": 5968,
    "iration": 5969,
    " nearby": 5970,
    " Jul": 5971,
    " Global": 5972,
    " coffee": 5973,
    " driver": 5974,
    " era": 5975,
    " narrow": 5976,
    " cab": 5977,
    " eggs": 5978,
    " amounts": 5979,
    " Acc": 5980,
    " perspective": 5981,
    " plus": 5982,
    " transition": 5983,
    " Stand": 5984,
    " assign": 5985,
    " intelligence": 5986,
    " van": 5987,
    "weight": 5988,
    " Sol": 5989,
    " Tre": 5990,
    " containing": 5991,
    "utch": 5992,
    "verty": 5993,
    " holding": 5994,
    " increasingly": 5995,
    " vehicles": 5996,
    "ds": 5997,
    " gather": 5998,
    "CO": 5999,
    " Loc": 6000,
    " crisis": 6001,
    " supposed": 6002,
    " Brazil": 6003,
    " electricity": 6004,
    " loved": 6005,
    "onym": 6006,
    " Jo": 6007,
    " conven": 6008,
    "ican": 6009,
    "Im": 6010,
    " Dou": 6011,
    " defense": 6012,
    " poverty": 6013,
    " capable": 6014,
    " judge": 6015,
    " wire": 6016,
    " aircraft": 6017,
    " corner": 6018,
    " massive": 6019,
    " extent": 6020,
    " oxygen": 6021,
    " facts": 6022,
    " investigation": 6023,
    " parish": 6024,
    "ushed": 6025,
    " extensive": 6026,
    "ASA": 6027,
    " alle": 6028,
    " Fed": 6029,
    " arms": 6030,
    " exposed": 6031,
    " farmers": 6032,
    " repair": 6033,
    " awarded": 6034,
    "nam": 6035,
    " Special": 6036,
    "Another": 6037,
    " helpful": 6038,
    " populations": 6039,
    " Korea": 6040,
    " repeated": 6041,
    " stre": 6042,
    "etime": 6043,
    " procedure": 6044,
    " speaking": 6045,
    " Sar": 6046,
    " facility": 6047,
    "heim": 6048,
    " minute": 6049,
    " subjects": 6050,
    "celer": 6051,
    " frag": 6052,
    "ht": 6053,
    " temperatures": 6054,
    " Pub": 6055,
    " Zeal": 6056,
    " incred": 6057,
    " sister": 6058,
    " Make": 6059,
    " earn": 6060,
    " depth": 6061,
    " external": 6062,
    " gene": 6063,
    " rural": 6064,
    " sole": 6065,
    " delivery": 6066,
    " owned": 6067,
    " prepare": 6068,
    "tes": 6069,
    " Nations": 6070,
    " Monday": 6071,
    " justice": 6072,
    " Arts": 6073,
    " Color": 6074,
    " fly": 6075,
    " readers": 6076,
    " Blue": 6077,
    "gers": 6078,
    " Love": 6079,
    " accurate": 6080,
    " atmosphere": 6081,
    " sed": 6082,
    " sched": 6083,
    "aska": 6084,
    "aturally": 6085,
    " Instead": 6086,
    " ultimately": 6087,
    " valuable": 6088,
    "iform": 6089,
    " chronic": 6090,
    " initially": 6091,
    " shop": 6092,
    "gend": 6093,
    "ums": 6094,
    " crucial": 6095,
    " fert": 6096,
    " fashion": 6097,
    " Prov": 6098,
    " concepts": 6099,
    " protected": 6100,
    "flow": 6101,
    " county": 6102,
    " scholars": 6103,
    "ulating": 6104,
    " crime": 6105,
    " phenomen": 6106,
    "American": 6107,
    "kend": 6108,
    "uts": 6109,
    " ends": 6110,
    "Ab": 6111,
    " formal": 6112,
    " grown": 6113,
    " maintenance": 6114,
    " impossible": 6115,
    " walking": 6116,
    "orith": 6117,
    " reduction": 6118,
    "hist": 6119,
    "long": 6120,
    " bot": 6121,
    " episode": 6122,
    "oned": 6123,
    " Exp": 6124,
    " accounts": 6125,
    " random": 6126,
    " posted": 6127,
    " supporting": 6128,
    " broken": 6129,
    " relax": 6130,
    "abil": 6131,
    " attended": 6132,
    "Other": 6133,
    "ura": 6134,
    " Pak": 6135,
    " explains": 6136,
    " wonderful": 6137,
    " coverage": 6138,
    " Foot": 6139,
    " professionals": 6140,
    " rub": 6141,
    " rein": 6142,
    " thin": 6143,
    " optim": 6144,
    " route": 6145,
    " succeed": 6146,
    "ellect": 6147,
    " Down": 6148,
    " asking": 6149,
    " exclus": 6150,
    " debt": 6151,
    " trad": 6152,
    "ropical": 6153,
    " Lee": 6154,
    " diam": 6155,
    " monitoring": 6156,
    " permanent": 6157,
    "cons": 6158,
    "lishing": 6159,
    " Sup": 6160,
    " sty": 6161,
    "door": 6162,
    " Zealand": 6163,
    " standing": 6164,
    " unable": 6165,
    "rovers": 6166,
    "wan": 6167,
    " km": 6168,
    " Peru": 6169,
    " argument": 6170,
    " introduction": 6171,
    " split": 6172,
    " wed": 6173,
    " MP": 6174,
    " contribute": 6175,
    " successfully": 6176,
    "een": 6177,
    " category": 6178,
    "rene": 6179,
    " pra": 6180,
    "iano": 6181,
    "peror": 6182,
    " committed": 6183,
    " samples": 6184,
    "irty": 6185,
    " musical": 6186,
    " victory": 6187,
    " tested": 6188,
    "ommod": 6189,
    "ursday": 6190,
    " discussed": 6191,
    "nce": 6192,
    "roke": 6193,
    " dress": 6194,
    " ment": 6195,
    " Democratic": 6196,
    " nutrition": 6197,
    " terror": 6198,
    " Imp": 6199,
    " Mah": 6200,
    " evening": 6201,
    " kil": 6202,
    "friend": 6203,
    " cart": 6204,
    " explan": 6205,
    "how": 6206,
    " Er": 6207,
    " boost": 6208,
    " efficiency": 6209,
    " taste": 6210,
    "Ð¸": 6211,
    " organized": 6212,
    "hire": 6213,
    "mond": 6214,
    " >": 6215,
    " Ins": 6216,
    " recovery": 6217,
    " fans": 6218,
    "asty": 6219,
    " ring": 6220,
    "ditionally": 6221,
    " Wal": 6222,
    " confirmed": 6223,
    " courses": 6224,
    "First": 6225,
    " Rom": 6226,
    " aer": 6227,
    " assistance": 6228,
    " worse": 6229,
    "comes": 6230,
    "uesday": 6231,
    " negot": 6232,
    " debate": 6233,
    "_{": 6234,
    " putting": 6235,
    "erves": 6236,
    " administr": 6237,
    " couldn": 6238,
    " Only": 6239,
    " infrastructure": 6240,
    " unless": 6241,
    "ache": 6242,
    "outs": 6243,
    " planned": 6244,
    " unknown": 6245,
    "ey": 6246,
    "sen": 6247,
    " authorities": 6248,
    " expressed": 6249,
    " listen": 6250,
    " potentially": 6251,
    " server": 6252,
    "resents": 6253,
    " Empire": 6254,
    " theme": 6255,
    " Queen": 6256,
    " achieved": 6257,
    " battery": 6258,
    " tur": 6259,
    " younger": 6260,
    " Twitter": 6261,
    "ca": 6262,
    " covers": 6263,
    " crew": 6264,
    " radiation": 6265,
    "ket": 6266,
    " debut": 6267,
    " fant": 6268,
    " photograph": 6269,
    " soul": 6270,
    " willing": 6271,
    "car": 6272,
    " Jim": 6273,
    " Offic": 6274,
    " decade": 6275,
    "ifications": 6276,
    " indeed": 6277,
    " possess": 6278,
    " uns": 6279,
    "gon": 6280,
    " controlled": 6281,
    " bridge": 6282,
    " politics": 6283,
    " tasks": 6284,
    " Cam": 6285,
    " enhance": 6286,
    " proport": 6287,
    " Apple": 6288,
    " Asian": 6289,
    " Lim": 6290,
    " positions": 6291,
    "stood": 6292,
    " Further": 6293,
    " fundamental": 6294,
    " panel": 6295,
    " script": 6296,
    "elled": 6297,
    " Ast": 6298,
    " Conference": 6299,
    " Data": 6300,
    "oom": 6301,
    "kl": 6302,
    " fixed": 6303,
    "CH": 6304,
    " Chief": 6305,
    " respectively": 6306,
    " zone": 6307,
    "bra": 6308,
    " Fire": 6309,
    "inton": 6310,
    " Light": 6311,
    " emissions": 6312,
    " institution": 6313,
    "azon": 6314,
    "ework": 6315,
    " Back": 6316,
    " Top": 6317,
    " Windows": 6318,
    " anxiety": 6319,
    " equival": 6320,
    " honor": 6321,
    " visible": 6322,
    " worldwide": 6323,
    "erman": 6324,
    " Sports": 6325,
    "rix": 6326,
    " Po": 6327,
    " chosen": 6328,
    " injuries": 6329,
    " league": 6330,
    "ested": 6331,
    "IM": 6332,
    "racy": 6333,
    " marked": 6334,
    " Energy": 6335,
    " comfortable": 6336,
    " pig": 6337,
    " Card": 6338,
    "rooms": 6339,
    " abuse": 6340,
    " row": 6341,
    " spiritual": 6342,
    " Mot": 6343,
    " feelings": 6344,
    " handle": 6345,
    " stands": 6346,
    " vegetables": 6347,
    "More": 6348,
    "oga": 6349,
    " false": 6350,
    " highlight": 6351,
    "oir": 6352,
    "ati": 6353,
    " database": 6354,
    " obtain": 6355,
    " adopted": 6356,
    " error": 6357,
    " incl": 6358,
    " suitable": 6359,
    " convent": 6360,
    " awareness": 6361,
    " param": 6362,
    " schedule": 6363,
    "cknow": 6364,
    "yan": 6365,
    " designs": 6366,
    "anguage": 6367,
    "ether": 6368,
    " frequency": 6369,
    " missing": 6370,
    " Leg": 6371,
    " Professor": 6372,
    " acts": 6373,
    " seconds": 6374,
    " witness": 6375,
    " Aff": 6376,
    " Ca": 6377,
    " Force": 6378,
    " opposite": 6379,
    "ormal": 6380,
    " consequences": 6381,
    " approved": 6382,
    " particles": 6383,
    " visitors": 6384,
    "word": 6385,
    " narr": 6386,
    " Cult": 6387,
    " Ta": 6388,
    " satell": 6389,
    "arters": 6390,
    " chapter": 6391,
    " ben": 6392,
    " vulner": 6393,
    " BC": 6394,
    " foundation": 6395,
    " vital": 6396,
    "LE": 6397,
    "agues": 6398,
    " represents": 6399,
    "rants": 6400,
    " Rights": 6401,
    " Sir": 6402,
    " fold": 6403,
    " seemed": 6404,
    " myth": 6405,
    " producing": 6406,
    " suffering": 6407,
    "usal": 6408,
    " Max": 6409,
    " comprehensive": 6410,
    " cong": 6411,
    " none": 6412,
    " philosophy": 6413,
    " agencies": 6414,
    " drinking": 6415,
    " throw": 6416,
    "frac": 6417,
    " Bible": 6418,
    " plenty": 6419,
    " roles": 6420,
    "cling": 6421,
    " historic": 6422,
    "inations": 6423,
    " chain": 6424,
    " remark": 6425,
    " Through": 6426,
    " neut": 6427,
    "uls": 6428,
    " desire": 6429,
    " sustainable": 6430,
    "ione": 6431,
    " studio": 6432,
    " Rome": 6433,
    " wet": 6434,
    " IP": 6435,
    "run": 6436,
    " banks": 6437,
    " fellow": 6438,
    " turns": 6439,
    " item": 6440,
    " receiving": 6441,
    " topics": 6442,
    " fan": 6443,
    " persons": 6444,
    " swim": 6445,
    "she": 6446,
    " Def": 6447,
    "active": 6448,
    " signal": 6449,
    "gi": 6450,
    " agricultural": 6451,
    " secondary": 6452,
    " Id": 6453,
    "orney": 6454,
    " stages": 6455,
    "ints": 6456,
    " accommod": 6457,
    " agent": 6458,
    " recip": 6459,
    " twenty": 6460,
    "inity": 6461,
    " withd": 6462,
    "oves": 6463,
    " ille": 6464,
    " \r\n \r\n": 6465,
    " consumers": 6466,
    " landscape": 6467,
    "throp": 6468,
    " PM": 6469,
    " distingu": 6470,
    " haven": 6471,
    " ordered": 6472,
    "umes": 6473,
    " Hor": 6474,
    " bought": 6475,
    " installed": 6476,
    "Gen": 6477,
    " Young": 6478,
    " precise": 6479,
    " Hy": 6480,
    "ceived": 6481,
    " tight": 6482,
    " EU": 6483,
    " holds": 6484,
    " prompt": 6485,
    "eless": 6486,
    "ugh": 6487,
    " mode": 6488,
    "cest": 6489,
    "soft": 6490,
    " possibility": 6491,
    " Prim": 6492,
    " millions": 6493,
    "olve": 6494,
    " Men": 6495,
    " refers": 6496,
    "allel": 6497,
    " flo": 6498,
    " forget": 6499,
    " hotel": 6500,
    "itud": 6501,
    " tail": 6502,
    " Francisco": 6503,
    " consumer": 6504,
    " governments": 6505,
    " hur": 6506,
    "fall": 6507,
    " Pakistan": 6508,
    "pat": 6509,
    " electronic": 6510,
    " gram": 6511,
    " ru": 6512,
    " Medicine": 6513,
    " Those": 6514,
    " ages": 6515,
    " electrical": 6516,
    " Jeff": 6517,
    " manufacturing": 6518,
    " Thursday": 6519,
    " films": 6520,
    "Us": 6521,
    " Family": 6522,
    " Oper": 6523,
    " â¢": 6524,
    " remote": 6525,
    "ibilities": 6526,
    " Van": 6527,
    "UN": 6528,
    "estyle": 6529,
    " AS": 6530,
    " density": 6531,
    " wine": 6532,
    "apping": 6533,
    "aria": 6534,
    "bury": 6535,
    "rors": 6536,
    " chicken": 6537,
    " spaces": 6538,
    " Ari": 6539,
    " session": 6540,
    " calling": 6541,
    " rapidly": 6542,
    " territory": 6543,
    " wouldn": 6544,
    " Const": 6545,
    "riculum": 6546,
    " conservation": 6547,
    "nesday": 6548,
    " controvers": 6549,
    " inspired": 6550,
    " recognize": 6551,
    "organ": 6552,
    " ax": 6553,
    " facilit": 6554,
    " index": 6555,
    " restrict": 6556,
    " shift": 6557,
    " Sa": 6558,
    " Security": 6559,
    " cutting": 6560,
    " destroyed": 6561,
    " inflamm": 6562,
    " lies": 6563,
    "mann": 6564,
    "osm": 6565,
    " magazine": 6566,
    "mun": 6567,
    " Community": 6568,
    " principle": 6569,
    " Tim": 6570,
    "otes": 6571,
    " III": 6572,
    " Supreme": 6573,
    " expansion": 6574,
    " legislation": 6575,
    "PR": 6576,
    " confidence": 6577,
    " nob": 6578,
    "MA": 6579,
    "ili": 6580,
    "Ä": 6581,
    " butter": 6582,
    "ching": 6583,
    "rell": 6584,
    " engage": 6585,
    "abeth": 6586,
    " McC": 6587,
    " Network": 6588,
    " closer": 6589,
    " attached": 6590,
    " stores": 6591,
    "Cont": 6592,
    " circumstances": 6593,
    "cal": 6594,
    "eries": 6595,
    " Bal": 6596,
    " Battle": 6597,
    " acknow": 6598,
    " tea": 6599,
    " waters": 6600,
    " enable": 6601,
    " lung": 6602,
    " tooth": 6603,
    "Let": 6604,
    "igation": 6605,
    " drawing": 6606,
    " eastern": 6607,
    "ping": 6608,
    " Gre": 6609,
    " contemporary": 6610,
    " foss": 6611,
    "ivered": 6612,
    " reviews": 6613,
    "ba": 6614,
    " architecture": 6615,
    " supports": 6616,
    " windows": 6617,
    " About": 6618,
    " fib": 6619,
    " phr": 6620,
    "then": 6621,
    " Eastern": 6622,
    " Far": 6623,
    "uous": 6624,
    " Lo": 6625,
    " cogn": 6626,
    "aser": 6627,
    "onda": 6628,
    "align": 6629,
    " Control": 6630,
    " algorith": 6631,
    " gained": 6632,
    " troops": 6633,
    "aka": 6634,
    "orters": 6635,
    " Games": 6636,
    " periods": 6637,
    "?\"": 6638,
    "ears": 6639,
    "ifies": 6640,
    " diverse": 6641,
    " https": 6642,
    " ourselves": 6643,
    "osystem": 6644,
    "ounded": 6645,
    "ups": 6646,
    "Â ": 6647,
    " Berlin": 6648,
    " description": 6649,
    " painting": 6650,
    "zer": 6651,
    " Enter": 6652,
    " minister": 6653,
    " neighborhood": 6654,
    " Tuesday": 6655,
    " entertain": 6656,
    " inches": 6657,
    " ven": 6658,
    " Justice": 6659,
    " pit": 6660,
    " IT": 6661,
    " comparison": 6662,
    " deploy": 6663,
    " procedures": 6664,
    " wave": 6665,
    "eters": 6666,
    " bringing": 6667,
    " advent": 6668,
    " brings": 6669,
    " pollution": 6670,
    "mes": 6671,
    "uing": 6672,
    "â.": 6673,
    " frame": 6674,
    " alongside": 6675,
    " drawn": 6676,
    " inject": 6677,
    " waiting": 6678,
    " normally": 6679,
    " Secretary": 6680,
    " arts": 6681,
    " guard": 6682,
    "UT": 6683,
    " composed": 6684,
    "raq": 6685,
    "rive": 6686,
    " partnership": 6687,
    " satisf": 6688,
    "BI": 6689,
    "ificial": 6690,
    " Students": 6691,
    " tum": 6692,
    " OF": 6693,
    " Administ": 6694,
    " depends": 6695,
    " extract": 6696,
    " forg": 6697,
    " proceed": 6698,
    " thank": 6699,
    " visited": 6700,
    " Tri": 6701,
    " committee": 6702,
    "azz": 6703,
    "ixture": 6704,
    " Ell": 6705,
    " networks": 6706,
    " seeking": 6707,
    " tall": 6708,
    "hered": 6709,
    " tournament": 6710,
    "ervative": 6711,
    "lines": 6712,
    " beauty": 6713,
    " decrease": 6714,
    "bing": 6715,
    " matters": 6716,
    "isk": 6717,
    " Using": 6718,
    "iro": 6719,
    "ylvan": 6720,
    " Die": 6721,
    " behaviour": 6722,
    " constructed": 6723,
    " Tour": 6724,
    "%.": 6725,
    " skill": 6726,
    "ja": 6727,
    " sitting": 6728,
    " programming": 6729,
    " unp": 6730,
    "anger": 6731,
    "Pe": 6732,
    "uster": 6733,
    " participate": 6734,
    "CD": 6735,
    " Ham": 6736,
    "IF": 6737,
    "oster": 6738,
    "ficial": 6739,
    "icide": 6740,
    " describes": 6741,
    " incident": 6742,
    "eting": 6743,
    " earned": 6744,
    "uzz": 6745,
    " Jews": 6746,
    " defend": 6747,
    " eld": 6748,
    " composition": 6749,
    " recy": 6750,
    "rine": 6751,
    "xts": 6752,
    " math": 6753,
    " thor": 6754,
    " capture": 6755,
    " dism": 6756,
    " percentage": 6757,
    " Who": 6758,
    " Common": 6759,
    " Oxford": 6760,
    " acceler": 6761,
    " shell": 6762,
    " till": 6763,
    "abled": 6764,
    "ndrome": 6765,
    " Stat": 6766,
    " lowest": 6767,
    " tables": 6768,
    "mary": 6769,
    "po": 6770,
    "pm": 6771,
    " Coast": 6772,
    " Spain": 6773,
    " discovery": 6774,
    " sick": 6775,
    "Or": 6776,
    " Series": 6777,
    " Kent": 6778,
    " discipl": 6779,
    "note": 6780,
    " combat": 6781,
    " ingredients": 6782,
    " princip": 6783,
    " Bow": 6784,
    " weapons": 6785,
    "oln": 6786,
    " caught": 6787,
    " delay": 6788,
    " serves": 6789,
    "OP": 6790,
    "gent": 6791,
    " aband": 6792,
    " advis": 6793,
    " contained": 6794,
    " Report": 6795,
    " liver": 6796,
    " treatments": 6797,
    "iest": 6798,
    " council": 6799,
    " inn": 6800,
    " sin": 6801,
    "class": 6802,
    " Grade": 6803,
    " chemicals": 6804,
    " Gar": 6805,
    " recording": 6806,
    " rooms": 6807,
    "inally": 6808,
    "ulpt": 6809,
    " Cr": 6810,
    " Revolution": 6811,
    " bear": 6812,
    " universe": 6813,
    " Squ": 6814,
    " Way": 6815,
    " prove": 6816,
    " worry": 6817,
    " proof": 6818,
    " Dig": 6819,
    "aren": 6820,
    "da": 6821,
    "esh": 6822,
    " feedback": 6823,
    "}{": 6824,
    " Forest": 6825,
    " Ly": 6826,
    " moist": 6827,
    "vity": 6828,
    " Ohio": 6829,
    " delivered": 6830,
    " spons": 6831,
    " Writ": 6832,
    " hyper": 6833,
    "uled": 6834,
    "uten": 6835,
    " Bab": 6836,
    " weekend": 6837,
    " Head": 6838,
    " favour": 6839,
    " lessons": 6840,
    "athy": 6841,
    " selling": 6842,
    " somewhat": 6843,
    "df": 6844,
    " conj": 6845,
    " concentration": 6846,
    " unus": 6847,
    "ogy": 6848,
    " Lar": 6849,
    " turning": 6850,
    " conversation": 6851,
    " disappe": 6852,
    " passion": 6853,
    "ushing": 6854,
    " End": 6855,
    " payment": 6856,
    " genes": 6857,
    " agents": 6858,
    " struggle": 6859,
    " Michigan": 6860,
    " athlet": 6861,
    " sky": 6862,
    " confirm": 6863,
    "Qu": 6864,
    " fluid": 6865,
    " improving": 6866,
    "rage": 6867,
    " Viet": 6868,
    " campus": 6869,
    " carefully": 6870,
    " naturally": 6871,
    " mine": 6872,
    " choices": 6873,
    " measured": 6874,
    " understood": 6875,
    " watching": 6876,
    " acquired": 6877,
    " roots": 6878,
    "amber": 6879,
    " regulations": 6880,
    " papers": 6881,
    " trained": 6882,
    " implementation": 6883,
    "hop": 6884,
    "iner": 6885,
    " answers": 6886,
    " lights": 6887,
    "ells": 6888,
    "gs": 6889,
    " adm": 6890,
    " declared": 6891,
    " Fred": 6892,
    " tiny": 6893,
    "aya": 6894,
    " Thanks": 6895,
    " immediate": 6896,
    " studying": 6897,
    " Cle": 6898,
    " mac": 6899,
    " Dev": 6900,
    " Festival": 6901,
    " invent": 6902,
    " newly": 6903,
    "awn": 6904,
    "John": 6905,
    " healthcare": 6906,
    " retail": 6907,
    " Georgia": 6908,
    " Scotland": 6909,
    " Pop": 6910,
    " movements": 6911,
    " sight": 6912,
    "tering": 6913,
    " infections": 6914,
    " Exper": 6915,
    "Am": 6916,
    " dollars": 6917,
    " interior": 6918,
    "adium": 6919,
    "roud": 6920,
    "Ñ": 6921,
    " concrete": 6922,
    " fabric": 6923,
    " friendly": 6924,
    " channel": 6925,
    " Indust": 6926,
    " Mic": 6927,
    " PR": 6928,
    " intellect": 6929,
    " loan": 6930,
    " operate": 6931,
    " prominent": 6932,
    " Columbia": 6933,
    " Jac": 6934,
    " mining": 6935,
    " quiet": 6936,
    " solve": 6937,
    " Show": 6938,
    " powers": 6939,
    " neck": 6940,
    " undert": 6941,
    "SS": 6942,
    "fortunately": 6943,
    " videos": 6944,
    " Stephen": 6945,
    " classic": 6946,
    " hall": 6947,
    " decline": 6948,
    " captured": 6949,
    " employment": 6950,
    " Andrew": 6951,
    " Three": 6952,
    " Last": 6953,
    " sentence": 6954,
    " vaccine": 6955,
    "aven": 6956,
    " Lead": 6957,
    " Wednesday": 6958,
    " relief": 6959,
    " ton": 6960,
    " Such": 6961,
    " Take": 6962,
    " generated": 6963,
    " lesson": 6964,
    "LA": 6965,
    " therm": 6966,
    "En": 6967,
    " ì": 6968,
    " Naz": 6969,
    " sought": 6970,
    " transact": 6971,
    "elly": 6972,
    " generate": 6973,
    "jo": 6974,
    "produ": 6975,
    " Iraq": 6976,
    " branch": 6977,
    " calc": 6978,
    " childhood": 6979,
    " approaches": 6980,
    " criminal": 6981,
    " herself": 6982,
    " machines": 6983,
    " (\"": 6984,
    " Nov": 6985,
    " exists": 6986,
    " package": 6987,
    " veter": 6988,
    "FC": 6989,
    "inson": 6990,
    " Treat": 6991,
    "Man": 6992,
    "cend": 6993,
    "ureau": 6994,
    "ylvania": 6995,
    " inner": 6996,
    "operation": 6997,
    " Sciences": 6998,
    " lect": 6999,
    " necessarily": 7000,
    " instructions": 7001,
    " resolution": 7002,
    " slowly": 7003,
    " Nature": 7004,
    " Psych": 7005,
    " consistent": 7006,
    " creates": 7007,
    "igenous": 7008,
    " Mike": 7009,
    " dance": 7010,
    "iac": 7011,
    "ifts": 7012,
    "law": 7013,
    " NASA": 7014,
    " thr": 7015,
    " deaths": 7016,
    " www": 7017,
    " Before": 7018,
    " Environmental": 7019,
    " Master": 7020,
    " bigger": 7021,
    " sequence": 7022,
    " Bond": 7023,
    "adel": 7024,
    " mand": 7025,
    " teen": 7026,
    " transp": 7027,
    "rat": 7028,
    " vitamin": 7029,
    " ye": 7030,
    "etts": 7031,
    "uma": 7032,
    " attempts": 7033,
    " considering": 7034,
    " scored": 7035,
    " silver": 7036,
    " tank": 7037,
    " resulted": 7038,
    " transportation": 7039,
    "alysis": 7040,
    " Word": 7041,
    "Over": 7042,
    "imental": 7043,
    " Parliament": 7044,
    " Prime": 7045,
    " broadcast": 7046,
    " rising": 7047,
    " stopped": 7048,
    "ila": 7049,
    "oving": 7050,
    " instruction": 7051,
    " lands": 7052,
    " publication": 7053,
    "bi": 7054,
    " constantly": 7055,
    " doctors": 7056,
    "asters": 7057,
    "ogether": 7058,
    " Gree": 7059,
    " mm": 7060,
    " regul": 7061,
    " Bern": 7062,
    " Ocean": 7063,
    " corporate": 7064,
    " opposed": 7065,
    " supplies": 7066,
    " versions": 7067,
    "urrent": 7068,
    " Î": 7069,
    " Expl": 7070,
    " Prince": 7071,
    " horm": 7072,
    "Per": 7073,
    "indu": 7074,
    "name": 7075,
    "Ð½": 7076,
    " hab": 7077,
    "incoln": 7078,
    " diagnosis": 7079,
    " surf": 7080,
    " Records": 7081,
    " taxes": 7082,
    "izabeth": 7083,
    "ocracy": 7084,
    " recognition": 7085,
    " Dun": 7086,
    "TA": 7087,
    "ardens": 7088,
    " Fre": 7089,
    " routine": 7090,
    " thousand": 7091,
    "See": 7092,
    " ISBN": 7093,
    " Pen": 7094,
    " button": 7095,
    " Bob": 7096,
    " Jones": 7097,
    " Uk": 7098,
    " haz": 7099,
    " ships": 7100,
    " shock": 7101,
    "angle": 7102,
    " Kn": 7103,
    " Lew": 7104,
    " basket": 7105,
    " susp": 7106,
    "ferent": 7107,
    " bread": 7108,
    " province": 7109,
    "essions": 7110,
    " Rose": 7111,
    " facing": 7112,
    " impacts": 7113,
    " passing": 7114,
    "chers": 7115,
    "¬": 7116,
    " Four": 7117,
    " involving": 7118,
    " leaf": 7119,
    " domin": 7120,
    " HIV": 7121,
    " trend": 7122,
    " domain": 7123,
    " Comple": 7124,
    " gift": 7125,
    " legisl": 7126,
    " rice": 7127,
    " reliable": 7128,
    " suffered": 7129,
    "Every": 7130,
    "ami": 7131,
    " sensitive": 7132,
    " Stan": 7133,
    " stem": 7134,
    "acks": 7135,
    "isp": 7136,
    "ctic": 7137,
    " guess": 7138,
    "achus": 7139,
    "ailed": 7140,
    "zed": 7141,
    " employed": 7142,
    " outcomes": 7143,
    "ã": 7144,
    " ancest": 7145,
    " losing": 7146,
    " Despite": 7147,
    " boat": 7148,
    " opposition": 7149,
    " realize": 7150,
    " usual": 7151,
    "iability": 7152,
    " Indones": 7153,
    " Wales": 7154,
    " dates": 7155,
    " mit": 7156,
    " trouble": 7157,
    "MP": 7158,
    " Carl": 7159,
    " partners": 7160,
    " presentation": 7161,
    " registered": 7162,
    "ditional": 7163,
    " suffer": 7164,
    " expanded": 7165,
    "epend": 7166,
    "oven": 7167,
    " survive": 7168,
    " AR": 7169,
    " Hospital": 7170,
    " lie": 7171,
    "AA": 7172,
    "rons": 7173,
    " Field": 7174,
    " Heritage": 7175,
    " Media": 7176,
    "ela": 7177,
    "rency": 7178,
    " Where": 7179,
    " edit": 7180,
    "icted": 7181,
    " trail": 7182,
    " feels": 7183,
    "OW": 7184,
    "eping": 7185,
    "forcement": 7186,
    " Natural": 7187,
    " beach": 7188,
    " faced": 7189,
    " tub": 7190,
    " confident": 7191,
    " parallel": 7192,
    "Of": 7193,
    " boys": 7194,
    " charged": 7195,
    " improvement": 7196,
    " toler": 7197,
    " Ess": 7198,
    " equivalent": 7199,
    " metab": 7200,
    " Amazon": 7201,
    " von": 7202,
    "Your": 7203,
    " Mrs": 7204,
    " Williams": 7205,
    " framework": 7206,
    "App": 7207,
    " defeated": 7208,
    " escape": 7209,
    " surve": 7210,
    "]]": 7211,
    " Jackson": 7212,
    " config": 7213,
    "ait": 7214,
    "century": 7215,
    "everal": 7216,
    " cream": 7217,
    " ecosystem": 7218,
    " tag": 7219,
    " charges": 7220,
    " minim": 7221,
    " stations": 7222,
    "Dr": 7223,
    " Son": 7224,
    " holiday": 7225,
    " string": 7226,
    " substance": 7227,
    " toxic": 7228,
    " @": 7229,
    " engaged": 7230,
    " purchased": 7231,
    " Fair": 7232,
    " association": 7233,
    " bomb": 7234,
    " diversity": 7235,
    " messages": 7236,
    " settings": 7237,
    " strongly": 7238,
    "ghan": 7239,
    " pron": 7240,
    " amend": 7241,
    " seasons": 7242,
    " Bul": 7243,
    " Rip": 7244,
    " cheap": 7245,
    " derived": 7246,
    " Know": 7247,
    " update": 7248,
    " CB": 7249,
    " newspaper": 7250,
    "CT": 7251,
    " Cost": 7252,
    " flour": 7253,
    " ID": 7254,
    " Rh": 7255,
    " interaction": 7256,
    " moral": 7257,
    " oblig": 7258,
    " variable": 7259,
    " Little": 7260,
    " oral": 7261,
    " supplement": 7262,
    " blind": 7263,
    " crops": 7264,
    " oppon": 7265,
    " orders": 7266,
    " Game": 7267,
    " Gh": 7268,
    " electron": 7269,
    "enger": 7270,
    " Corpor": 7271,
    " fasc": 7272,
    " hole": 7273,
    " Charl": 7274,
    " forth": 7275,
    " ratio": 7276,
    "ropol": 7277,
    " Ash": 7278,
    " elections": 7279,
    " neither": 7280,
    "grade": 7281,
    "hent": 7282,
    " Yet": 7283,
    " immun": 7284,
    " meal": 7285,
    " pip": 7286,
    " peak": 7287,
    "achusetts": 7288,
    " abund": 7289,
    " anywhere": 7290,
    " lifestyle": 7291,
    "arn": 7292,
    " experiments": 7293,
    " fulf": 7294,
    " union": 7295,
    " Native": 7296,
    "ampion": 7297,
    " biological": 7298,
    " discrim": 7299,
    " absolutely": 7300,
    " brows": 7301,
    " restaurant": 7302,
    " Es": 7303,
    " writers": 7304,
    "RI": 7305,
    "othe": 7306,
    " Palest": 7307,
    " granted": 7308,
    " zero": 7309,
    " ethnic": 7310,
    " greatly": 7311,
    " carrying": 7312,
    "adow": 7313,
    "orous": 7314,
    " laid": 7315,
    "estion": 7316,
    " Constitution": 7317,
    " buying": 7318,
    " imper": 7319,
    " seats": 7320,
    "aired": 7321,
    "fred": 7322,
    " Brun": 7323,
    " Jr": 7324,
    "called": 7325,
    "fast": 7326,
    "ugg": 7327,
    " Equ": 7328,
    " ongoing": 7329,
    " sau": 7330,
    " tracks": 7331,
    "rot": 7332,
    "worth": 7333,
    " protocol": 7334,
    " updated": 7335,
    " tack": 7336,
    "Ã¢": 7337,
    " recru": 7338,
    "\")": 7339,
    "asant": 7340,
    " Early": 7341,
    " Later": 7342,
    " curriculum": 7343,
    " defic": 7344,
    " providers": 7345,
    "RA": 7346,
    " muscles": 7347,
    "arks": 7348,
    " fairly": 7349,
    "',": 7350,
    "sylvania": 7351,
    " compens": 7352,
    " fewer": 7353,
    " fruits": 7354,
    "Ed": 7355,
    "OC": 7356,
    "tical": 7357,
    "yard": 7358,
    " Fund": 7359,
    " Ram": 7360,
    " fro": 7361,
    " lock": 7362,
    " translation": 7363,
    "EP": 7364,
    "Read": 7365,
    "ador": 7366,
    "liest": 7367,
    " furniture": 7368,
    " municip": 7369,
    " victims": 7370,
    "being": 7371,
    "ulin": 7372,
    " collaboration": 7373,
    "aph": 7374,
    "oured": 7375,
    " align": 7376,
    " gal": 7377,
    " fault": 7378,
    " affects": 7379,
    " obst": 7380,
    "^{": 7381,
    "ls": 7382,
    "oz": 7383,
    "yr": 7384,
    " Ext": 7385,
    " limits": 7386,
    " performing": 7387,
    " rig": 7388,
    " stable": 7389,
    " agriculture": 7390,
    " constitution": 7391,
    "His": 7392,
    " Bang": 7393,
    " Football": 7394,
    " Ven": 7395,
    " coc": 7396,
    " fifth": 7397,
    " imagine": 7398,
    " posts": 7399,
    "mail": 7400,
    "prise": 7401,
    " assigned": 7402,
    " responses": 7403,
    "esides": 7404,
    "including": 7405,
    " Adv": 7406,
    "inction": 7407,
    " guidelines": 7408,
    " Scient": 7409,
    " finds": 7410,
    " websites": 7411,
    " worst": 7412,
    "inking": 7413,
    "unior": 7414,
    " remind": 7415,
    "%)": 7416,
    "ricts": 7417,
    " Ba": 7418,
    " automatically": 7419,
    "ML": 7420,
    " Check": 7421,
    " dating": 7422,
    " sculpt": 7423,
    "raine": 7424,
    "stract": 7425,
    "una": 7426,
    " Low": 7427,
    " bon": 7428,
    " Polit": 7429,
    " Learning": 7430,
    " accompan": 7431,
    "achel": 7432,
    " Pot": 7433,
    " heavily": 7434,
    "urches": 7435,
    " sections": 7436,
    "Just": 7437,
    "mod": 7438,
    "yal": 7439,
    " cultiv": 7440,
    " dental": 7441,
    " suit": 7442,
    " cleaning": 7443,
    " spr": 7444,
    "asive": 7445,
    "ranch": 7446,
    "riers": 7447,
    " vert": 7448,
    " fiber": 7449,
    " indu": 7450,
    " strict": 7451,
    "lements": 7452,
    " Ministry": 7453,
    " paying": 7454,
    " spin": 7455,
    "pha": 7456,
    " drivers": 7457,
    " enjoyed": 7458,
    " odd": 7459,
    " intent": 7460,
    " Holy": 7461,
    " difficulty": 7462,
    " shopping": 7463,
    "elve": 7464,
    " Age": 7465,
    " Ur": 7466,
    " independence": 7467,
    " DC": 7468,
    " empt": 7469,
    " employee": 7470,
    "onn": 7471,
    "rea": 7472,
    "teries": 7473,
    "â,": 7474,
    " Est": 7475,
    " adequ": 7476,
    " innovative": 7477,
    "cribed": 7478,
    "uation": 7479,
    " Elizabeth": 7480,
    " noise": 7481,
    " programme": 7482,
    " welcome": 7483,
    " Have": 7484,
    " ske": 7485,
    "such": 7486,
    "vi": 7487,
    "Int": 7488,
    "vironments": 7489,
    " reader": 7490,
    "icing": 7491,
    " Massachusetts": 7492,
    " maintained": 7493,
    " rear": 7494,
    " competitive": 7495,
    " happening": 7496,
    "itled": 7497,
    "otal": 7498,
    " Set": 7499,
    " bones": 7500,
    "Com": 7501,
    "hus": 7502,
    " Cambridge": 7503,
    " Lin": 7504,
    " Saf": 7505,
    " dropped": 7506,
    " matches": 7507,
    " Clinton": 7508,
    " Colorado": 7509,
    " harvest": 7510,
    " Orig": 7511,
    " duty": 7512,
    "iti": 7513,
    "opher": 7514,
    " assistant": 7515,
    " cooking": 7516,
    " proved": 7517,
    " railway": 7518,
    " returns": 7519,
    "inals": 7520,
    " Call": 7521,
    "last": 7522,
    "ml": 7523,
    " candidates": 7524,
    "izer": 7525,
    "nda": 7526,
    " Online": 7527,
    " Ut": 7528,
    " stored": 7529,
    "ospit": 7530,
    " accessible": 7531,
    " indicates": 7532,
    " subsequent": 7533,
    " encoun": 7534,
    " exciting": 7535,
    " heads": 7536,
    " transmission": 7537,
    "race": 7538,
    " ()": 7539,
    " computers": 7540,
    " spoke": 7541,
    "aret": 7542,
    " Lincoln": 7543,
    " Vill": 7544,
    " females": 7545,
    " kick": 7546,
    " statements": 7547,
    "illy": 7548,
    " clar": 7549,
    "OD": 7550,
    " influenced": 7551,
    " smoke": 7552,
    "ecutive": 7553,
    " preval": 7554,
    " Agency": 7555,
    " Building": 7556,
    " Liter": 7557,
    " colleagues": 7558,
    " compr": 7559,
    " distributed": 7560,
    " purs": 7561,
    " extension": 7562,
    " guys": 7563,
    "olk": 7564,
    " dinner": 7565,
    " diff": 7566,
    " killing": 7567,
    " Pennsylvania": 7568,
    " conventional": 7569,
    " yards": 7570,
    "inch": 7571,
    "pes": 7572,
    "tage": 7573,
    " audio": 7574,
    " challenging": 7575,
    " fract": 7576,
    " manif": 7577,
    "athan": 7578,
    "shire": 7579,
    "Ñ": 7580,
    " id": 7581,
    " Bell": 7582,
    " merely": 7583,
    " neuro": 7584,
    " prevention": 7585,
    " settlement": 7586,
    "DP": 7587,
    " ]": 7588,
    " doors": 7589,
    " acting": 7590,
    " reput": 7591,
    "ishment": 7592,
    " marine": 7593,
    " sharp": 7594,
    " Sat": 7595,
    "erry": 7596,
    " column": 7597,
    " estimate": 7598,
    " rose": 7599,
    "irms": 7600,
    "plant": 7601,
    " Alexander": 7602,
    " Books": 7603,
    " championship": 7604,
    " wheel": 7605,
    "uter": 7606,
    " batt": 7607,
    " produces": 7608,
    " survival": 7609,
    " Corn": 7610,
    " profile": 7611,
    "ruption": 7612,
    " Eth": 7613,
    " Order": 7614,
    " enemy": 7615,
    " chose": 7616,
    " conclusion": 7617,
    "hips": 7618,
    " AI": 7619,
    ",â": 7620,
    "ailing": 7621,
    "onto": 7622,
    " gro": 7623,
    " knowing": 7624,
    " roughly": 7625,
    " Atlantic": 7626,
    " Daniel": 7627,
    " Though": 7628,
    " Edward": 7629,
    " damaged": 7630,
    " resc": 7631,
    "making": 7632,
    " innovation": 7633,
    " mixture": 7634,
    "$$": 7635,
    "zona": 7636,
    "Ø§": 7637,
    " Guard": 7638,
    " disturb": 7639,
    " Santa": 7640,
    " Tai": 7641,
    " fra": 7642,
    "bel": 7643,
    "lete": 7644,
    " AM": 7645,
    " Main": 7646,
    " honest": 7647,
    " Korean": 7648,
    " provider": 7649,
    " Lady": 7650,
    " Lt": 7651,
    " nutrients": 7652,
    " proud": 7653,
    "sts": 7654,
    " mechanism": 7655,
    "Foot": 7656,
    " Donald": 7657,
    " industries": 7658,
    " integrated": 7659,
    " Dise": 7660,
    "just": 7661,
    " Look": 7662,
    "aints": 7663,
    " Spring": 7664,
    " dipl": 7665,
    " legs": 7666,
    " mob": 7667,
    "aded": 7668,
    " Police": 7669,
    "ima": 7670,
    " categories": 7671,
    " informed": 7672,
    " sheet": 7673,
    "Figure": 7674,
    " Author": 7675,
    " Hand": 7676,
    " ly": 7677,
    " streets": 7678,
    " households": 7679,
    " prev": 7680,
    "Ñ": 7681,
    "ï¼": 7682,
    " Modern": 7683,
    " astron": 7684,
    " telling": 7685,
    "you": 7686,
    " Hung": 7687,
    " af": 7688,
    "Once": 7689,
    "rane": 7690,
    " centers": 7691,
    " compare": 7692,
    " moon": 7693,
    " reporting": 7694,
    "orne": 7695,
    " aged": 7696,
    " communicate": 7697,
    "Ã³n": 7698,
    " Jon": 7699,
    " assume": 7700,
    " refuge": 7701,
    " plot": 7702,
    " sod": 7703,
    " voters": 7704,
    " Islamic": 7705,
    " Works": 7706,
    " hem": 7707,
    ".'": 7708,
    " contributed": 7709,
    " environments": 7710,
    " epid": 7711,
    " moves": 7712,
    " pregnancy": 7713,
    " subsequently": 7714,
    " trading": 7715,
    "ascular": 7716,
    "nedy": 7717,
    " Chem": 7718,
    " uniform": 7719,
    "atern": 7720,
    " gap": 7721,
    "ownt": 7722,
    " Hun": 7723,
    " accum": 7724,
    " announce": 7725,
    " raw": 7726,
    " Real": 7727,
    " intake": 7728,
    " occas": 7729,
    " pounds": 7730,
    " commitment": 7731,
    " essentially": 7732,
    " estimates": 7733,
    "orph": 7734,
    "person": 7735,
    "rend": 7736,
    " Creat": 7737,
    " infected": 7738,
    " alleged": 7739,
    " circuit": 7740,
    "rity": 7741,
    " plane": 7742,
    " smoking": 7743,
    "mad": 7744,
    " Farm": 7745,
    " Jersey": 7746,
    " Six": 7747,
    " medications": 7748,
    " officially": 7749,
    " wedding": 7750,
    "Ã±": 7751,
    " virtual": 7752,
    "inte": 7753,
    " believes": 7754,
    " complicated": 7755,
    " indicated": 7756,
    " Meg": 7757,
    " beneficial": 7758,
    "itudes": 7759,
    " Guide": 7760,
    "awa": 7761,
    " perm": 7762,
    "bec": 7763,
    " Ref": 7764,
    " connections": 7765,
    " objective": 7766,
    " blow": 7767,
    " dealing": 7768,
    " establishment": 7769,
    " refe": 7770,
    " cognitive": 7771,
    " guy": 7772,
    " stood": 7773,
    " Fact": 7774,
    " generations": 7775,
    " habits": 7776,
    "Col": 7777,
    "ading": 7778,
    "bles": 7779,
    "thew": 7780,
    " Saint": 7781,
    " equally": 7782,
    " mir": 7783,
    " relation": 7784,
    "pread": 7785,
    " Wik": 7786,
    "Today": 7787,
    "antic": 7788,
    " pharm": 7789,
    " sevent": 7790,
    " Mid": 7791,
    " designated": 7792,
    "plate": 7793,
    " prohib": 7794,
    "aning": 7795,
    " proteins": 7796,
    " illegal": 7797,
    "Even": 7798,
    "cover": 7799,
    "rox": 7800,
    "sex": 7801,
    "iger": 7802,
    " emotions": 7803,
    " laboratory": 7804,
    " manual": 7805,
    " operated": 7806,
    " retire": 7807,
    " Phot": 7808,
    " Station": 7809,
    " covering": 7810,
    " mountains": 7811,
    " scan": 7812,
    " wearing": 7813,
    "ji": 7814,
    "normal": 7815,
    "Ã¨": 7816,
    " Joe": 7817,
    " blocks": 7818,
    "Rec": 7819,
    "hav": 7820,
    "inem": 7821,
    "ito": 7822,
    " giant": 7823,
    "ere": 7824,
    " Lind": 7825,
    " Walk": 7826,
    " instruments": 7827,
    "har": 7828,
    " habitat": 7829,
    " maintaining": 7830,
    " nerv": 7831,
    " prime": 7832,
    "agan": 7833,
    "itative": 7834,
    " Rosen": 7835,
    " wing": 7836,
    "reprene": 7837,
    " Prem": 7838,
    "acher": 7839,
    "erior": 7840,
    "itzer": 7841,
    "vard": 7842,
    "was": 7843,
    " Rod": 7844,
    " theore": 7845,
    " Additionally": 7846,
    " Albert": 7847,
    " fought": 7848,
    " singer": 7849,
    "esity": 7850,
    "theless": 7851,
    " Beach": 7852,
    " Ren": 7853,
    " broke": 7854,
    " controls": 7855,
    " meters": 7856,
    "ais": 7857,
    " mild": 7858,
    " outdoor": 7859,
    "Get": 7860,
    "new": 7861,
    " Capt": 7862,
    " Os": 7863,
    " Tal": 7864,
    "'.": 7865,
    "May": 7866,
    "aylor": 7867,
    " hat": 7868,
    " personnel": 7869,
    "berry": 7870,
    " Index": 7871,
    " orient": 7872,
    "idespread": 7873,
    "imens": 7874,
    " Magazine": 7875,
    " cheese": 7876,
    " mechanical": 7877,
    "ften": 7878,
    " Ak": 7879,
    " cere": 7880,
    "rison": 7881,
    " horiz": 7882,
    "iov": 7883,
    "idae": 7884,
    " exception": 7885,
    " lighting": 7886,
    " totally": 7887,
    " CEO": 7888,
    " Dutch": 7889,
    " ending": 7890,
    " males": 7891,
    " thread": 7892,
    " unusual": 7893,
    "istent": 7894,
    " Mach": 7895,
    " Major": 7896,
    " Sign": 7897,
    " functional": 7898,
    " mamm": 7899,
    " suspect": 7900,
    "anna": 7901,
    " allerg": 7902,
    " reaching": 7903,
    " Ott": 7904,
    " Week": 7905,
    "mers": 7906,
    "oli": 7907,
    "sis": 7908,
    " Aud": 7909,
    " Invest": 7910,
    " Microsoft": 7911,
    " continuous": 7912,
    "Because": 7913,
    " forests": 7914,
    " ride": 7915,
    "LC": 7916,
    " explanation": 7917,
    " reasonable": 7918,
    " warming": 7919,
    " tut": 7920,
    "bered": 7921,
    " intervention": 7922,
    " participation": 7923,
    " superior": 7924,
    " Israeli": 7925,
    "VID": 7926,
    "oding": 7927,
    "uality": 7928,
    " writes": 7929,
    "Last": 7930,
    "rary": 7931,
    "stra": 7932,
    " define": 7933,
    "Sm": 7934,
    "omot": 7935,
    "otyp": 7936,
    " Summer": 7937,
    " replacement": 7938,
    " installation": 7939,
    " manip": 7940,
    " offices": 7941,
    " oldest": 7942,
    "Back": 7943,
    " counsel": 7944,
    " intention": 7945,
    " racial": 7946,
    "alo": 7947,
    " Trust": 7948,
    " beliefs": 7949,
    " keeps": 7950,
    "ideo": 7951,
    " Hard": 7952,
    " aqu": 7953,
    " appointment": 7954,
    " demonstrate": 7955,
    " transferred": 7956,
    "grad": 7957,
    " Chris": 7958,
    " acids": 7959,
    " argued": 7960,
    "scale": 7961,
    " Product": 7962,
    " falling": 7963,
    " sad": 7964,
    "ctive": 7965,
    " desired": 7966,
    " electro": 7967,
    " guidance": 7968,
    " removal": 7969,
    " demonstrated": 7970,
    "onia": 7971,
    " ;": 7972,
    " Prop": 7973,
    " visiting": 7974,
    "iatric": 7975,
    " frequent": 7976,
    " rarely": 7977,
    " scores": 7978,
    "Pre": 7979,
    "adelph": 7980,
    "erted": 7981,
    "ocation": 7982,
    "unning": 7983,
    " everyday": 7984,
    "ilation": 7985,
    "cycl": 7986,
    " cryst": 7987,
    "Me": 7988,
    " hypothes": 7989,
    " surprising": 7990,
    " Area": 7991,
    " bio": 7992,
    " dynamic": 7993,
    " usage": 7994,
    "iy": 7995,
    " AND": 7996,
    " Hon": 7997,
    " adds": 7998,
    " featuring": 7999,
    " syndrome": 8000,
    "burgh": 8001,
    " Sher": 8002,
    " exhibition": 8003,
    " explo": 8004,
    "Please": 8005,
    "lock": 8006,
    " flying": 8007,
    " inher": 8008,
    " magnetic": 8009,
    " waves": 8010,
    "UL": 8011,
    " Administration": 8012,
    " intense": 8013,
    " literary": 8014,
    " reward": 8015,
    " whereas": 8016,
    " Ah": 8017,
    " principal": 8018,
    " roads": 8019,
    " Access": 8020,
    " evaluation": 8021,
    " recipe": 8022,
    " Cop": 8023,
    " overw": 8024,
    " pursu": 8025,
    " Disc": 8026,
    " Li": 8027,
    " Story": 8028,
    " plug": 8029,
    " Again": 8030,
    " Bol": 8031,
    "Car": 8032,
    "noon": 8033,
    "ouses": 8034,
    " MS": 8035,
    " proven": 8036,
    " clothing": 8037,
    " crack": 8038,
    " falls": 8039,
    " genus": 8040,
    " Clin": 8041,
    " tough": 8042,
    " warning": 8043,
    "ocket": 8044,
    " Non": 8045,
    " careful": 8046,
    "gans": 8047,
    " Night": 8048,
    " expertise": 8049,
    "Also": 8050,
    "HS": 8051,
    "aza": 8052,
    "ographical": 8053,
    " Arizona": 8054,
    " encouraged": 8055,
    " gent": 8056,
    " representing": 8057,
    "regon": 8058,
    " Assembly": 8059,
    " excited": 8060,
    " statistics": 8061,
    ";\"": 8062,
    "ourse": 8063,
    " Honda": 8064,
    " Moon": 8065,
    " Study": 8066,
    " fed": 8067,
    "izz": 8068,
    "Â®": 8069,
    " Brad": 8070,
    " assets": 8071,
    " dump": 8072,
    " uncertain": 8073,
    " widespread": 8074,
    "rank": 8075,
    " desk": 8076,
    "Stud": 8077,
    " SS": 8078,
    " producer": 8079,
    " vocals": 8080,
    "adelphia": 8081,
    "rove": 8082,
    " medication": 8083,
    " significance": 8084,
    "inth": 8085,
    "uties": 8086,
    "ouri": 8087,
    "quarters": 8088,
    "unc": 8089,
    " buried": 8090,
    " focuses": 8091,
    " preparation": 8092,
    " rely": 8093,
    " fossil": 8094,
    " mood": 8095,
    " vessels": 8096,
    "aug": 8097,
    "haust": 8098,
    " Mars": 8099,
    " hardware": 8100,
    " outcome": 8101,
    " preced": 8102,
    "Co": 8103,
    "aping": 8104,
    " Governor": 8105,
    " displ": 8106,
    " fishing": 8107,
    " implemented": 8108,
    " murder": 8109,
    " poetry": 8110,
    " printed": 8111,
    " publ": 8112,
    "eness": 8113,
    " rom": 8114,
    " Hu": 8115,
    " Kennedy": 8116,
    " Lewis": 8117,
    " Never": 8118,
    " inqu": 8119,
    "anes": 8120,
    " Note": 8121,
    " dent": 8122,
    " Among": 8123,
    " Engineering": 8124,
    " Luc": 8125,
    " archae": 8126,
    " clock": 8127,
    " pilot": 8128,
    " Foreign": 8129,
    " Ho": 8130,
    " Sometimes": 8131,
    " expectations": 8132,
    " subsid": 8133,
    "hyth": 8134,
    "lected": 8135,
    " Cre": 8136,
    " Ku": 8137,
    " explos": 8138,
    "hma": 8139,
    "hol": 8140,
    "olester": 8141,
    " presents": 8142,
    "ocolate": 8143,
    " accuracy": 8144,
    " branches": 8145,
    " earliest": 8146,
    " scheduled": 8147,
    " underlying": 8148,
    "htt": 8149,
    " ?": 8150,
    " Point": 8151,
    " cust": 8152,
    " radical": 8153,
    " scheme": 8154,
    " Line": 8155,
    " Ont": 8156,
    " revenue": 8157,
    "orses": 8158,
    " Circ": 8159,
    " satellite": 8160,
    "remony": 8161,
    "mble": 8162,
    "print": 8163,
    " graduate": 8164,
    " sees": 8165,
    " Princ": 8166,
    " examine": 8167,
    " managing": 8168,
    " substantial": 8169,
    " wal": 8170,
    " Pract": 8171,
    " absence": 8172,
    " founder": 8173,
    "brid": 8174,
    " Agricult": 8175,
    " Icelandic": 8176,
    " Philipp": 8177,
    " Song": 8178,
    " temple": 8179,
    "urd": 8180,
    " Executive": 8181,
    " layers": 8182,
    " neutral": 8183,
    " towns": 8184,
    "Note": 8185,
    " maps": 8186,
    " reactions": 8187,
    "ultane": 8188,
    " Lat": 8189,
    " Place": 8190,
    " Policy": 8191,
    " apparently": 8192,
    "Tra": 8193,
    "ilst": 8194,
    " Heart": 8195,
    " arrested": 8196,
    "CP": 8197,
    "Footnote": 8198,
    "vy": 8199,
    " Islands": 8200,
    " Sus": 8201,
    " profit": 8202,
    " stead": 8203,
    " tube": 8204,
    " NBC": 8205,
    " trends": 8206,
    " alive": 8207,
    " viewed": 8208,
    " Pass": 8209,
    " circle": 8210,
    " driven": 8211,
    " mos": 8212,
    " manufacturers": 8213,
    "--------": 8214,
    " actor": 8215,
    " copies": 8216,
    " cultures": 8217,
    " qualified": 8218,
    " substit": 8219,
    "inois": 8220,
    "lyn": 8221,
    " intellectual": 8222,
    " parliament": 8223,
    " provin": 8224,
    " refused": 8225,
    " sacr": 8226,
    "aters": 8227,
    "erals": 8228,
    "osph": 8229,
    " permission": 8230,
    " AT": 8231,
    " breath": 8232,
    " districts": 8233,
    " stronger": 8234,
    " chap": 8235,
    " danger": 8236,
    "erest": 8237,
    "ennis": 8238,
    "ieval": 8239,
    " exceed": 8240,
    " rivers": 8241,
    "amps": 8242,
    "section": 8243,
    " Yes": 8244,
    " bare": 8245,
    " inflammation": 8246,
    " Turn": 8247,
    " plain": 8248,
    " votes": 8249,
    "wa": 8250,
    " examination": 8251,
    " hidden": 8252,
    " representative": 8253,
    " tom": 8254,
    "omatic": 8255,
    "rose": 8256,
    " Start": 8257,
    " Toronto": 8258,
    " Dam": 8259,
    " Independ": 8260,
    " contributions": 8261,
    " formula": 8262,
    " gate": 8263,
    " stom": 8264,
    "etary": 8265,
    "rolled": 8266,
    " AL": 8267,
    " recommendations": 8268,
    " semi": 8269,
    " settled": 8270,
    " thy": 8271,
    " apps": 8272,
    " dish": 8273,
    " evil": 8274,
    " grounds": 8275,
    "ighth": 8276,
    "ivic": 8277,
    " NY": 8278,
    " pointed": 8279,
    "foot": 8280,
    " molecules": 8281,
    " privacy": 8282,
    " crowd": 8283,
    " stake": 8284,
    "olesterol": 8285,
    " Johnston": 8286,
    " Tru": 8287,
    " tact": 8288,
    " tor": 8289,
    "andemic": 8290,
    "ocy": 8291,
    "otype": 8292,
    " CA": 8293,
    " aimed": 8294,
    " surprise": 8295,
    "eenth": 8296,
    "han": 8297,
    " courts": 8298,
    "iary": 8299,
    "oked": 8300,
    " Win": 8301,
    " residential": 8302,
    " Nic": 8303,
    " festival": 8304,
    " seriously": 8305,
    "apore": 8306,
    "oil": 8307,
    " BBC": 8308,
    " rocks": 8309,
    " vice": 8310,
    "after": 8311,
    "ifferent": 8312,
    " Him": 8313,
    " Rog": 8314,
    " busy": 8315,
    " demands": 8316,
    " interactions": 8317,
    "herent": 8318,
    " Alaska": 8319,
    " Bush": 8320,
    " Brook": 8321,
    " mold": 8322,
    " artificial": 8323,
    " churches": 8324,
    " concerning": 8325,
    " discount": 8326,
    " perfectly": 8327,
    " signals": 8328,
    " tropical": 8329,
    "atively": 8330,
    "iral": 8331,
    " Sweden": 8332,
    " listening": 8333,
    " uncom": 8334,
    "encing": 8335,
    " Py": 8336,
    " Philadelphia": 8337,
    " antibiot": 8338,
    " lists": 8339,
    "appoint": 8340,
    "imp": 8341,
    " Economic": 8342,
    " Person": 8343,
    " Tar": 8344,
    " lake": 8345,
    "GB": 8346,
    "Part": 8347,
    "ensed": 8348,
    " Sav": 8349,
    " TO": 8350,
    " concluded": 8351,
    " modified": 8352,
    "holders": 8353,
    "merce": 8354,
    " appeal": 8355,
    " ease": 8356,
    " tons": 8357,
    "Then": 8358,
    "made": 8359,
    " injured": 8360,
    " universal": 8361,
    " worship": 8362,
    "esome": 8363,
    " guarantee": 8364,
    " passage": 8365,
    "olving": 8366,
    " IV": 8367,
    " Navy": 8368,
    " engines": 8369,
    " marks": 8370,
    " wildlife": 8371,
    "roat": 8372,
    " uncle": 8373,
    "km": 8374,
    "wart": 8375,
    " shares": 8376,
    " Pur": 8377,
    " trigger": 8378,
    "eling": 8379,
    " initiative": 8380,
    " retired": 8381,
    " winner": 8382,
    "ika": 8383,
    "profit": 8384,
    " aside": 8385,
    " unex": 8386,
    "acco": 8387,
    "asts": 8388,
    "yo": 8389,
    " Ten": 8390,
    " aims": 8391,
    " continuing": 8392,
    " meetings": 8393,
    " vulnerable": 8394,
    "ko": 8395,
    "sters": 8396,
    " default": 8397,
    " harmful": 8398,
    "iversary": 8399,
    "owa": 8400,
    " proposal": 8401,
    " recept": 8402,
    " returning": 8403,
    "gian": 8404,
    "rite": 8405,
    " Creek": 8406,
    " Syd": 8407,
    " angle": 8408,
    " grades": 8409,
    " Kong": 8410,
    " Oregon": 8411,
    " basketball": 8412,
    " joy": 8413,
    " register": 8414,
    " regardless": 8415,
    " Cub": 8416,
    " governor": 8417,
    " Represent": 8418,
    " cm": 8419,
    " notable": 8420,
    "otton": 8421,
    " Prize": 8422,
    " classical": 8423,
    " fee": 8424,
    " guest": 8425,
    " observations": 8426,
    " titles": 8427,
    " constra": 8428,
    " contribution": 8429,
    "agen": 8430,
    "pending": 8431,
    " vel": 8432,
    " recover": 8433,
    "ibl": 8434,
    " celebrate": 8435,
    " sla": 8436,
    "%,": 8437,
    " Sha": 8438,
    " Spirit": 8439,
    " authent": 8440,
    " slave": 8441,
    " Digital": 8442,
    " Pay": 8443,
    " census": 8444,
    " Affairs": 8445,
    " conqu": 8446,
    "iece": 8447,
    " Stone": 8448,
    " Theatre": 8449,
    " legend": 8450,
    " preferred": 8451,
    "Ear": 8452,
    "claim": 8453,
    " Nob": 8454,
    " destruction": 8455,
    " realized": 8456,
    " temporary": 8457,
    " Bru": 8458,
    " Keep": 8459,
    "acent": 8460,
    "page": 8461,
    " Film": 8462,
    " styles": 8463,
    "Add": 8464,
    " consideration": 8465,
    " investors": 8466,
    " sessions": 8467,
    "antry": 8468,
    "requ": 8469,
    " HT": 8470,
    " Put": 8471,
    " Afghan": 8472,
    " CP": 8473,
    " proportion": 8474,
    " texts": 8475,
    "CE": 8476,
    "ocratic": 8477,
    "onsin": 8478,
    "tain": 8479,
    " Kim": 8480,
    " faculty": 8481,
    " overwhel": 8482,
    "western": 8483,
    " Fer": 8484,
    " Univers": 8485,
    " advertising": 8486,
    " criteria": 8487,
    " islands": 8488,
    " withdraw": 8489,
    "Mar": 8490,
    "Step": 8491,
    "ials": 8492,
    "pre": 8493,
    " Illinois": 8494,
    " Mult": 8495,
    " accompanied": 8496,
    " brothers": 8497,
    " enthus": 8498,
    " losses": 8499,
    " orbit": 8500,
    " personality": 8501,
    " races": 8502,
    "sk": 8503,
    " Bad": 8504,
    " Emperor": 8505,
    " considerable": 8506,
    " nerve": 8507,
    " outer": 8508,
    " panels": 8509,
    " poison": 8510,
    " sizes": 8511,
    " Syria": 8512,
    " powder": 8513,
    "Yes": 8514,
    " approval": 8515,
    " exped": 8516,
    "isconsin": 8517,
    "tic": 8518,
    " Ped": 8519,
    " separated": 8520,
    " container": 8521,
    " ham": 8522,
    " Tok": 8523,
    " compounds": 8524,
    " invited": 8525,
    " seg": 8526,
    "Sec": 8527,
    "Two": 8528,
    "appy": 8529,
    "oric": 8530,
    " Bat": 8531,
    " Sydney": 8532,
    " fiction": 8533,
    " flash": 8534,
    " impressive": 8535,
    " shooting": 8536,
    " tomat": 8537,
    "cut": 8538,
    "opes": 8539,
    " afternoon": 8540,
    " chest": 8541,
    " communications": 8542,
    " diameter": 8543,
    " entering": 8544,
    " faces": 8545,
    " nest": 8546,
    " physics": 8547,
    " argue": 8548,
    " trials": 8549,
    "sub": 8550,
    " alarm": 8551,
    " filter": 8552,
    " saving": 8553,
    "fish": 8554,
    " Trib": 8555,
    " Wilson": 8556,
    " ceremony": 8557,
    "lights": 8558,
    " bass": 8559,
    " heating": 8560,
    " spots": 8561,
    "bell": 8562,
    "bro": 8563,
    "}\\": 8564,
    " feeding": 8565,
    " passes": 8566,
    "istant": 8567,
    " Olympic": 8568,
    " engineer": 8569,
    " slavery": 8570,
    " strategic": 8571,
    "itting": 8572,
    " Following": 8573,
    " beings": 8574,
    " guests": 8575,
    " paintings": 8576,
    ".|": 8577,
    "HO": 8578,
    "axy": 8579,
    "list": 8580,
    "ordan": 8581,
    "irds": 8582,
    " presidential": 8583,
    "ioxide": 8584,
    " Cab": 8585,
    " empty": 8586,
    " pup": 8587,
    " Golden": 8588,
    " breaking": 8589,
    " jur": 8590,
    "uther": 8591,
    " Airport": 8592,
    " Ball": 8593,
    " Does": 8594,
    " Sn": 8595,
    " anticip": 8596,
    " armed": 8597,
    " regarded": 8598,
    "akh": 8599,
    "istical": 8600,
    " Dub": 8601,
    " Whether": 8602,
    " strike": 8603,
    "abs": 8604,
    "bet": 8605,
    "erly": 8606,
    "iang": 8607,
    " Federation": 8608,
    " Ltd": 8609,
    " clothes": 8610,
    " interpretation": 8611,
    " noticed": 8612,
    "agraph": 8613,
    "riv": 8614,
    "stery": 8615,
    " Wars": 8616,
    " accord": 8617,
    " adoles": 8618,
    " clos": 8619,
    "icity": 8620,
    "ictionary": 8621,
    " Organization": 8622,
    " attempted": 8623,
    " cooperation": 8624,
    " submit": 8625,
    "this": 8626,
    " converted": 8627,
    " moments": 8628,
    "apped": 8629,
    " Cook": 8630,
    " dies": 8631,
    "also": 8632,
    "rh": 8633,
    " dependent": 8634,
    " exhaust": 8635,
    " saved": 8636,
    " stomach": 8637,
    "ashed": 8638,
    " Christians": 8639,
    " Gallery": 8640,
    " chances": 8641,
    " elsewhere": 8642,
    " nit": 8643,
    "ENT": 8644,
    "break": 8645,
    "esis": 8646,
    "": 8647,
    " Plant": 8648,
    " bowl": 8649,
    " lux": 8650,
    " stability": 8651,
    "earing": 8652,
    "eller": 8653,
    " Democrats": 8654,
    " assault": 8655,
    " burning": 8656,
    " cosm": 8657,
    " yes": 8658,
    " Moreover": 8659,
    " Ontario": 8660,
    " Victoria": 8661,
    " deeply": 8662,
    " Find": 8663,
    " Broad": 8664,
    " Var": 8665,
    " cul": 8666,
    " vo": 8667,
    "TV": 8668,
    "omer": 8669,
    " frust": 8670,
    " prosec": 8671,
    "Before": 8672,
    "idity": 8673,
    " Full": 8674,
    "occ": 8675,
    " GM": 8676,
    " assemb": 8677,
    " mile": 8678,
    " sending": 8679,
    "ockey": 8680,
    "opter": 8681,
    "uscript": 8682,
    " Corporation": 8683,
    " Ford": 8684,
    " fees": 8685,
    " poem": 8686,
    "trans": 8687,
    " disaster": 8688,
    " measurement": 8689,
    " targets": 8690,
    " truck": 8691,
    " Barb": 8692,
    " SP": 8693,
    " defect": 8694,
    " elig": 8695,
    " loose": 8696,
    "._": 8697,
    "EF": 8698,
    "apse": 8699,
    " Radio": 8700,
    " errors": 8701,
    " royal": 8702,
    " Mountain": 8703,
    " spokes": 8704,
    " tip": 8705,
    "br": 8706,
    " farming": 8707,
    " shipping": 8708,
    "ogs": 8709,
    "ori": 8710,
    " representation": 8711,
    " sauce": 8712,
    " steam": 8713,
    "itarian": 8714,
    " Chair": 8715,
    " bless": 8716,
    " entreprene": 8717,
    " promoting": 8718,
    "obby": 8719,
    " hydrogen": 8720,
    " psychological": 8721,
    "duate": 8722,
    "las": 8723,
    " Thank": 8724,
    " gradually": 8725,
    " stroke": 8726,
    " voltage": 8727,
    "ographer": 8728,
    " deeper": 8729,
    " hospit": 8730,
    " insects": 8731,
    " license": 8732,
    " provision": 8733,
    "found": 8734,
    "uct": 8735,
    " entitled": 8736,
    " entrance": 8737,
    "itivity": 8738,
    " bike": 8739,
    " engagement": 8740,
    " inhabit": 8741,
    " legit": 8742,
    " platforms": 8743,
    " prospect": 8744,
    " finance": 8745,
    " insight": 8746,
    " Fox": 8747,
    " Hong": 8748,
    "criptions": 8749,
    "fire": 8750,
    "rous": 8751,
    " consciousness": 8752,
    "ocated": 8753,
    " holes": 8754,
    " hosted": 8755,
    " merch": 8756,
    " picked": 8757,
    "annels": 8758,
    " beer": 8759,
    " movies": 8760,
    " pod": 8761,
    "ptions": 8762,
    " Avenue": 8763,
    " TH": 8764,
    " phenomenon": 8765,
    " simultane": 8766,
    " overcome": 8767,
    "arma": 8768,
    "roduction": 8769,
    "terior": 8770,
    " Band": 8771,
    " Bor": 8772,
    " Contin": 8773,
    " fertil": 8774,
    "angel": 8775,
    "atal": 8776,
    " Rest": 8777,
    " Unfortunately": 8778,
    " export": 8779,
    " shapes": 8780,
    " variables": 8781,
    "aus": 8782,
    " affordable": 8783,
    "VD": 8784,
    "press": 8785,
    " Father": 8786,
    " Finally": 8787,
    " MA": 8788,
    " Right": 8789,
    " Taylor": 8790,
    " hence": 8791,
    "Up": 8792,
    "Well": 8793,
    " inhib": 8794,
    " reputation": 8795,
    "Cons": 8796,
    " Missouri": 8797,
    " unw": 8798,
    "::": 8799,
    "pled": 8800,
    " Harvard": 8801,
    " Ve": 8802,
    " assumed": 8803,
    " cholesterol": 8804,
    " enables": 8805,
    " photographs": 8806,
    " reign": 8807,
    "PN": 8808,
    " Ray": 8809,
    " Safety": 8810,
    " earthqu": 8811,
    "away": 8812,
    " Turk": 8813,
    " Without": 8814,
    " reveal": 8815,
    " spoken": 8816,
    " universities": 8817,
    " Cas": 8818,
    " Live": 8819,
    " Mun": 8820,
    " Wisconsin": 8821,
    " chrom": 8822,
    " measuring": 8823,
    "People": 8824,
    " Vietnam": 8825,
    " promoted": 8826,
    " attorney": 8827,
    " crown": 8828,
    " drain": 8829,
    " flexible": 8830,
    " monthly": 8831,
    " remarkable": 8832,
    "aze": 8833,
    "nesota": 8834,
    " Corps": 8835,
    " equipped": 8836,
    " tone": 8837,
    "Under": 8838,
    "olly": 8839,
    " Sky": 8840,
    " mice": 8841,
    "redit": 8842,
    " improvements": 8843,
    " slaves": 8844,
    " spectrum": 8845,
    " talks": 8846,
    "abul": 8847,
    "case": 8848,
    " Matthew": 8849,
    " crypt": 8850,
    "coin": 8851,
    "mend": 8852,
    " evaluate": 8853,
    "Ge": 8854,
    "Â·": 8855,
    " Front": 8856,
    " Systems": 8857,
    " hurt": 8858,
    " handling": 8859,
    "eld": 8860,
    "inian": 8861,
    "ught": 8862,
    " Connect": 8863,
    " interface": 8864,
    " obesity": 8865,
    " tower": 8866,
    "aga": 8867,
    "athered": 8868,
    " Davis": 8869,
    "Any": 8870,
    "Like": 8871,
    "Mr": 8872,
    "cific": 8873,
    "igma": 8874,
    " comprom": 8875,
    " meals": 8876,
    " mechanisms": 8877,
    " ordinary": 8878,
    " ownership": 8879,
    " strengthen": 8880,
    "dis": 8881,
    " scientist": 8882,
    " classified": 8883,
    " developers": 8884,
    " enforcement": 8885,
    " introduce": 8886,
    " Confed": 8887,
    " coastal": 8888,
    " gluc": 8889,
    " painted": 8890,
    " soph": 8891,
    "EE": 8892,
    "anth": 8893,
    " Sem": 8894,
    " restaurants": 8895,
    "Pr": 8896,
    "ipedia": 8897,
    " politician": 8898,
    " pregnant": 8899,
    " references": 8900,
    "chester": 8901,
    " Der": 8902,
    " Marsh": 8903,
    " apartment": 8904,
    " marg": 8905,
    "ieve": 8906,
    "pling": 8907,
    " Page": 8908,
    " defeat": 8909,
    " eliminate": 8910,
    " lunch": 8911,
    "gov": 8912,
    "iry": 8913,
    " flower": 8914,
    " phrase": 8915,
    " therap": 8916,
    "],": 8917,
    "ifted": 8918,
    "ricted": 8919,
    " Ban": 8920,
    " Cra": 8921,
    " Coll": 8922,
    " Norm": 8923,
    " dioxide": 8924,
    " tort": 8925,
    "HA": 8926,
    "Hist": 8927,
    " healing": 8928,
    " heritage": 8929,
    " lens": 8930,
    " Portug": 8931,
    " asp": 8932,
    " molecular": 8933,
    " cro": 8934,
    " crash": 8935,
    " narrative": 8936,
    "bourne": 8937,
    " Boy": 8938,
    " capabilities": 8939,
    " harder": 8940,
    " logic": 8941,
    " Short": 8942,
    " grid": 8943,
    " measurements": 8944,
    " membership": 8945,
    "oples": 8946,
    "outheast": 8947,
    " Exam": 8948,
    " Rub": 8949,
    " Scottish": 8950,
    " resid": 8951,
    "hesis": 8952,
    " cuts": 8953,
    " menu": 8954,
    " protest": 8955,
    "aki": 8956,
    "leep": 8957,
    " Current": 8958,
    " Kill": 8959,
    " nose": 8960,
    "front": 8961,
    "ults": 8962,
    " Language": 8963,
    " abilities": 8964,
    " flows": 8965,
    " linear": 8966,
    " spray": 8967,
    "ashes": 8968,
    " Adam": 8969,
    " Hou": 8970,
    " Moh": 8971,
    " deals": 8972,
    " factory": 8973,
    " horses": 8974,
    " minimal": 8975,
    " nervous": 8976,
    "irus": 8977,
    "obs": 8978,
    " Key": 8979,
    " experimental": 8980,
    " participated": 8981,
    " poet": 8982,
    "elesc": 8983,
    "endar": 8984,
    "hyd": 8985,
    " Code": 8986,
    " exercises": 8987,
    " reserv": 8988,
    "(\\": 8989,
    "umer": 8990,
    " Stock": 8991,
    " Try": 8992,
    " abandoned": 8993,
    " borrow": 8994,
    " champion": 8995,
    " visits": 8996,
    "Are": 8997,
    "makers": 8998,
    " accused": 8999,
    " breathing": 9000,
    " cann": 9001,
    " forming": 9002,
    "LS": 9003,
    "bes": 9004,
    "cyclop": 9005,
    "world": 9006,
    " correctly": 9007,
    " enorm": 9008,
    " pin": 9009,
    " theories": 9010,
    " Sab": 9011,
    " convenient": 9012,
    " tap": 9013,
    "swe": 9014,
    " Stra": 9015,
    " Steve": 9016,
    " strange": 9017,
    "Will": 9018,
    "inos": 9019,
    " Indians": 9020,
    " Support": 9021,
    " cav": 9022,
    " cyber": 9023,
    " diagram": 9024,
    "effect": 9025,
    " Turkey": 9026,
    " attitude": 9027,
    " dose": 9028,
    " personally": 9029,
    " suddenly": 9030,
    "cha": 9031,
    "rible": 9032,
    "uction": 9033,
    " Base": 9034,
    " organisms": 9035,
    " preventing": 9036,
    " ultimate": 9037,
    "rowing": 9038,
    " Country": 9039,
    " Girl": 9040,
    " Singapore": 9041,
    " focusing": 9042,
    " ruled": 9043,
    "itual": 9044,
    " carb": 9045,
    " copyright": 9046,
    " excessive": 9047,
    "through": 9048,
    " Hay": 9049,
    " downt": 9050,
    " inspiration": 9051,
    " phones": 9052,
    " promise": 9053,
    " talent": 9054,
    "airy": 9055,
    "bow": 9056,
    " Castle": 9057,
    " assembly": 9058,
    " discl": 9059,
    " sup": 9060,
    "DS": 9061,
    "xx": 9062,
    "Å": 9063,
    " Method": 9064,
    " scar": 9065,
    " shortly": 9066,
    " twelve": 9067,
    "Ke": 9068,
    "hu": 9069,
    "wig": 9070,
    " Must": 9071,
    " arrival": 9072,
    " pronoun": 9073,
    " threats": 9074,
    " titled": 9075,
    "Rem": 9076,
    "isdom": 9077,
    " Ross": 9078,
    " alter": 9079,
    " auto": 9080,
    " memor": 9081,
    "hard": 9082,
    "pton": 9083,
    " View": 9084,
    "ortion": 9085,
    "otten": 9086,
    " interpre": 9087,
    " manufacturer": 9088,
    " stimul": 9089,
    "CR": 9090,
    " Swedish": 9091,
    " administrative": 9092,
    " fantastic": 9093,
    " lifetime": 9094,
    " observation": 9095,
    "adi": 9096,
    "gener": 9097,
    "unct": 9098,
    " Awards": 9099,
    " Next": 9100,
    " kit": 9101,
    " regulation": 9102,
    "acon": 9103,
    "thur": 9104,
    " cats": 9105,
    " fer": 9106,
    " raising": 9107,
    " recre": 9108,
    "thod": 9109,
    " Indonesia": 9110,
    " boundaries": 9111,
    " evolved": 9112,
    " physician": 9113,
    "Sim": 9114,
    "child": 9115,
    "iah": 9116,
    "ocial": 9117,
    "vals": 9118,
    "vision": 9119,
    " dramatic": 9120,
    " mic": 9121,
    " scenes": 9122,
    "rection": 9123,
    " concert": 9124,
    " copper": 9125,
    " dismiss": 9126,
    "igate": 9127,
    "regation": 9128,
    "str": 9129,
    "yers": 9130,
    " Greg": 9131,
    " Lie": 9132,
    " breed": 9133,
    " casino": 9134,
    " displayed": 9135,
    " engaging": 9136,
    " satisfact": 9137,
    "ificate": 9138,
    " Minnesota": 9139,
    " pill": 9140,
    " propag": 9141,
    " COVID": 9142,
    " NFL": 9143,
    " drama": 9144,
    " finger": 9145,
    " hopes": 9146,
    " screening": 9147,
    " honey": 9148,
    " lip": 9149,
    " rac": 9150,
    " somewhere": 9151,
    " versus": 9152,
    "Mon": 9153,
    "who": 9154,
    " Iss": 9155,
    " Resources": 9156,
    " compound": 9157,
    " fever": 9158,
    " Ent": 9159,
    " analys": 9160,
    " pione": 9161,
    " wider": 9162,
    "Bu": 9163,
    "amics": 9164,
    "they": 9165,
    " Disease": 9166,
    " defensive": 9167,
    " designer": 9168,
    "Lear": 9169,
    " chlor": 9170,
    " engineers": 9171,
    " ensuring": 9172,
    " mathematics": 9173,
    " mineral": 9174,
    " violent": 9175,
    "!â": 9176,
    ".).": 9177,
    "eras": 9178,
    "owed": 9179,
    " Greece": 9180,
    "Comm": 9181,
    " Iron": 9182,
    " Olympics": 9183,
    " addressed": 9184,
    " compete": 9185,
    " medic": 9186,
    " tickets": 9187,
    " weapon": 9188,
    "Art": 9189,
    " Nut": 9190,
    " bell": 9191,
    " choosing": 9192,
    " reduces": 9193,
    " sor": 9194,
    " Kir": 9195,
    " py": 9196,
    " tempor": 9197,
    " Ec": 9198,
    " ampl": 9199,
    " organs": 9200,
    " shoes": 9201,
    "date": 9202,
    "employ": 9203,
    "style": 9204,
    " \r": 9205,
    " emerged": 9206,
    " magic": 9207,
    " nan": 9208,
    " physically": 9209,
    "intend": 9210,
    "ols": 9211,
    " isolated": 9212,
    " negoti": 9213,
    " occasionally": 9214,
    " sons": 9215,
    "charge": 9216,
    "rip": 9217,
    "Ð¾Ð": 9218,
    " Bon": 9219,
    " Colon": 9220,
    " Pu": 9221,
    " Raj": 9222,
    " basically": 9223,
    " diagnosed": 9224,
    " disappoint": 9225,
    " involvement": 9226,
    " resort": 9227,
    "di": 9228,
    " Furthermore": 9229,
    " attacked": 9230,
    " investigate": 9231,
    " overs": 9232,
    " parking": 9233,
    " sixth": 9234,
    " updates": 9235,
    "Where": 9236,
    "klah": 9237,
    " availability": 9238,
    " biod": 9239,
    " occupied": 9240,
    " piano": 9241,
    "erving": 9242,
    "health": 9243,
    "iological": 9244,
    " Alice": 9245,
    " Joh": 9246,
    " Log": 9247,
    " Miller": 9248,
    " deleg": 9249,
    " essays": 9250,
    " gut": 9251,
    " wooden": 9252,
    "hythm": 9253,
    " accounting": 9254,
    " airport": 9255,
    " appreciate": 9256,
    " characteristic": 9257,
    " surge": 9258,
    "BM": 9259,
    "ricks": 9260,
    "uine": 9261,
    " Emer": 9262,
    " Na": 9263,
    " everywhere": 9264,
    " traditions": 9265,
    "iva": 9266,
    " Click": 9267,
    " Christianity": 9268,
    " Muslims": 9269,
    " channels": 9270,
    " difficulties": 9271,
    " regime": 9272,
    " structural": 9273,
    " Bureau": 9274,
    " moderate": 9275,
    "there": 9276,
    " Han": 9277,
    " scope": 9278,
    ")$": 9279,
    " conservative": 9280,
    "AF": 9281,
    " Daily": 9282,
    " adequate": 9283,
    " characterized": 9284,
    " collections": 9285,
    " explicit": 9286,
    " fur": 9287,
    "cho": 9288,
    "lav": 9289,
    " Harry": 9290,
    " array": 9291,
    " arguments": 9292,
    " emphasis": 9293,
    " filed": 9294,
    " printing": 9295,
    " variation": 9296,
    "ymph": 9297,
    " MD": 9298,
    " convert": 9299,
    " quantity": 9300,
    " savings": 9301,
    " surrounded": 9302,
    "!\"": 9303,
    " Change": 9304,
    " Perform": 9305,
    " joining": 9306,
    "Phone": 9307,
    " Java": 9308,
    " identification": 9309,
    "Despite": 9310,
    " gear": 9311,
    " scr": 9312,
    "klahoma": 9313,
    "rer": 9314,
    " Sound": 9315,
    " missed": 9316,
    " unlikely": 9317,
    "ante": 9318,
    " hack": 9319,
    " obviously": 9320,
    " priority": 9321,
    " threatened": 9322,
    "angers": 9323,
    "estone": 9324,
    " chocolate": 9325,
    " lawyer": 9326,
    "apor": 9327,
    "enny": 9328,
    "erts": 9329,
    " Ult": 9330,
    " requirement": 9331,
    " villages": 9332,
    "ailable": 9333,
    "ateral": 9334,
    "urable": 9335,
    " Hotel": 9336,
    " associate": 9337,
    " pace": 9338,
    " upl": 9339,
    "color": 9340,
    "elfare": 9341,
    "oust": 9342,
    "Ãº": 9343,
    " emotion": 9344,
    " managers": 9345,
    " metres": 9346,
    " photography": 9347,
    "bean": 9348,
    "cker": 9349,
    "ropolitan": 9350,
    " arrive": 9351,
    " mg": 9352,
    " vertical": 9353,
    "season": 9354,
    " Effect": 9355,
    " cow": 9356,
    " literally": 9357,
    " permit": 9358,
    " portray": 9359,
    "def": 9360,
    "olves": 9361,
    " Cape": 9362,
    " Matt": 9363,
    " Rand": 9364,
    " effectiveness": 9365,
    " Kentucky": 9366,
    " actively": 9367,
    " incredible": 9368,
    " protecting": 9369,
    " turb": 9370,
    "izations": 9371,
    "ritis": 9372,
    " Brand": 9373,
    " Resp": 9374,
    " baseball": 9375,
    " correl": 9376,
    " submitted": 9377,
    " surprised": 9378,
    "elta": 9379,
    "host": 9380,
    "mont": 9381,
    " affil": 9382,
    " corresponding": 9383,
    " minds": 9384,
    " parameters": 9385,
    " rect": 9386,
    "NS": 9387,
    "ustain": 9388,
    " Cru": 9389,
    " combine": 9390,
    " contamin": 9391,
    " HD": 9392,
    " Term": 9393,
    " cub": 9394,
    " clubs": 9395,
    " emerging": 9396,
    " stir": 9397,
    "onom": 9398,
    " Jean": 9399,
    " Temple": 9400,
    " acknowled": 9401,
    " advantages": 9402,
    " divide": 9403,
    " golden": 9404,
    " hal": 9405,
    " popularity": 9406,
    " suscept": 9407,
    " AC": 9408,
    " OS": 9409,
    " segment": 9410,
    " substances": 9411,
    " mini": 9412,
    "hedral": 9413,
    "ikes": 9414,
    "utor": 9415,
    " Hawai": 9416,
    " celebrated": 9417,
    "rude": 9418,
    "reedom": 9419,
    " Move": 9420,
    " applying": 9421,
    " gentle": 9422,
    " graduated": 9423,
    " knock": 9424,
    "ennes": 9425,
    "Ã§": 9426,
    " Case": 9427,
    " Iowa": 9428,
    " coat": 9429,
    " paras": 9430,
    " performances": 9431,
    " preserve": 9432,
    "enh": 9433,
    " Obs": 9434,
    " admitted": 9435,
    " twe": 9436,
    " annually": 9437,
    " geomet": 9438,
    " jack": 9439,
    " opinions": 9440,
    " remem": 9441,
    " abstract": 9442,
    " accomplish": 9443,
    " cable": 9444,
    " perception": 9445,
    "elle": 9446,
    " Bridge": 9447,
    " Railway": 9448,
    " kilomet": 9449,
    "alities": 9450,
    "isa": 9451,
    " Arm": 9452,
    " Qur": 9453,
    " behalf": 9454,
    " collective": 9455,
    " spark": 9456,
    " targeted": 9457,
    " Chapter": 9458,
    " criticism": 9459,
    " objectives": 9460,
    "Comp": 9461,
    "Eng": 9462,
    "Ob": 9463,
    "TH": 9464,
    "ippi": 9465,
    " arranged": 9466,
    " attach": 9467,
    "icular": 9468,
    "ifer": 9469,
    "itamin": 9470,
    "oa": 9471,
    "igious": 9472,
    "wall": 9473,
    " Climate": 9474,
    " Fall": 9475,
    " acres": 9476,
    " contest": 9477,
    " integration": 9478,
    " puts": 9479,
    " Memorial": 9480,
    " Pow": 9481,
    " preserved": 9482,
    " privile": 9483,
    " restore": 9484,
    "books": 9485,
    " dil": 9486,
    " fu": 9487,
    " prox": 9488,
    " strain": 9489,
    " Anton": 9490,
    " bull": 9491,
    " buff": 9492,
    " exclusive": 9493,
    " penal": 9494,
    "engers": 9495,
    " Historical": 9496,
    " Jordan": 9497,
    " Local": 9498,
    " discrimination": 9499,
    " offensive": 9500,
    " Ty": 9501,
    " hill": 9502,
    " manuscript": 9503,
    ".&": 9504,
    "Each": 9505,
    "idal": 9506,
    "ifting": 9507,
    " Similar": 9508,
    " begun": 9509,
    "quality": 9510,
    " adapted": 9511,
    "olt": 9512,
    "ulous": 9513,
    " McG": 9514,
    " Mexican": 9515,
    " preparing": 9516,
    " virtually": 9517,
    " weekly": 9518,
    "etics": 9519,
    " speakers": 9520,
    " stones": 9521,
    "akespe": 9522,
    " Jay": 9523,
    " calm": 9524,
    " gardens": 9525,
    "uf": 9526,
    " Championships": 9527,
    " experiencing": 9528,
    "Che": 9529,
    " Still": 9530,
    " examined": 9531,
    "ometer": 9532,
    "ragon": 9533,
    " juice": 9534,
    " whenever": 9535,
    "PG": 9536,
    "vens": 9537,
    " Mississ": 9538,
    " birthday": 9539,
    " translated": 9540,
    " volunteers": 9541,
    "usalem": 9542,
    " cited": 9543,
    " doi": 9544,
    " episodes": 9545,
    " funded": 9546,
    " interactive": 9547,
    " retirement": 9548,
    "aws": 9549,
    "uns": 9550,
    " duties": 9551,
    " entertainment": 9552,
    " hydro": 9553,
    " inch": 9554,
    " themes": 9555,
    "Med": 9556,
    "disc": 9557,
    " brands": 9558,
    " liberal": 9559,
    " span": 9560,
    "amine": 9561,
    " Due": 9562,
    " minority": 9563,
    " speaker": 9564,
    "Her": 9565,
    " Ron": 9566,
    " Survey": 9567,
    " immigrants": 9568,
    "isition": 9569,
    " rib": 9570,
    " Table": 9571,
    " grows": 9572,
    " nucle": 9573,
    " quote": 9574,
    " rational": 9575,
    " searching": 9576,
    " struck": 9577,
    " surfaces": 9578,
    " tech": 9579,
    " worker": 9580,
    " Bah": 9581,
    " les": 9582,
    " observe": 9583,
    "phy": 9584,
    " Argent": 9585,
    " anniversary": 9586,
    " directions": 9587,
    " dominant": 9588,
    " existed": 9589,
    " lift": 9590,
    " reverse": 9591,
    "TER": 9592,
    "acts": 9593,
    " NOT": 9594,
    " width": 9595,
    "orious": 9596,
    " Century": 9597,
    "eli": 9598,
    " athletes": 9599,
    " calcium": 9600,
    "ishers": 9601,
    " puzz": 9602,
    " payments": 9603,
    " portra": 9604,
    " productivity": 9605,
    " solo": 9606,
    " Ra": 9607,
    " affairs": 9608,
    " boundary": 9609,
    " firms": 9610,
    "ingham": 9611,
    " asks": 9612,
    " gathered": 9613,
    " incorporated": 9614,
    " insulin": 9615,
    " memb": 9616,
    " moisture": 9617,
    " reveals": 9618,
    " situated": 9619,
    "don": 9620,
    "ighters": 9621,
    "raid": 9622,
    "usive": 9623,
    " Nation": 9624,
    " Oklahoma": 9625,
    " disag": 9626,
    " guns": 9627,
    " ritual": 9628,
    " survived": 9629,
    "Source": 9630,
    " Bed": 9631,
    " operator": 9632,
    " publications": 9633,
    " sensors": 9634,
    "ools": 9635,
    " LED": 9636,
    " Process": 9637,
    " gravity": 9638,
    " implications": 9639,
    " irrit": 9640,
    " organisation": 9641,
    " residence": 9642,
    " trim": 9643,
    "ello": 9644,
    " Member": 9645,
    " fing": 9646,
    " ranging": 9647,
    " Mother": 9648,
    " behaviors": 9649,
    " warrant": 9650,
    "anted": 9651,
    "aware": 9652,
    "emed": 9653,
    "exp": 9654,
    " Did": 9655,
    " Ide": 9656,
    " humanity": 9657,
    " paragraph": 9658,
    "best": 9659,
    "rape": 9660,
    "Ã¼r": 9661,
    " Watch": 9662,
    " abol": 9663,
    " bills": 9664,
    "Su": 9665,
    "igue": 9666,
    "odge": 9667,
    " Had": 9668,
    " Malays": 9669,
    " destination": 9670,
    " fest": 9671,
    " nort": 9672,
    " rejected": 9673,
    "ribution": 9674,
    " Hur": 9675,
    " cha": 9676,
    " drought": 9677,
    " discussions": 9678,
    "esterday": 9679,
    "http": 9680,
    " Yuk": 9681,
    " hunting": 9682,
    " BM": 9683,
    " Small": 9684,
    " babies": 9685,
    " browser": 9686,
    " ol": 9687,
    "track": 9688,
    " CR": 9689,
    " Captain": 9690,
    " completion": 9691,
    " condem": 9692,
    " detection": 9693,
    " hits": 9694,
    " kidney": 9695,
    " singing": 9696,
    "About": 9697,
    " Amb": 9698,
    " declined": 9699,
    " denied": 9700,
    " memories": 9701,
    "??": 9702,
    " Ros": 9703,
    " bron": 9704,
    " premium": 9705,
    " rebu": 9706,
    "atus": 9707,
    "heimer": 9708,
    "ova": 9709,
    " Ce": 9710,
    " da": 9711,
    " locomot": 9712,
    " suicide": 9713,
    " wheat": 9714,
    "hr": 9715,
    "yes": 9716,
    "â¬": 9717,
    " Living": 9718,
    " Type": 9719,
    " awards": 9720,
    "Spe": 9721,
    " Mess": 9722,
    " organis": 9723,
    " tied": 9724,
    "isd": 9725,
    " golf": 9726,
    " ho": 9727,
    " indigenous": 9728,
    " intest": 9729,
    " pushed": 9730,
    " promotion": 9731,
    " rating": 9732,
    " weakness": 9733,
    "father": 9734,
    " registration": 9735,
    "itches": 9736,
    " Market": 9737,
    " Maybe": 9738,
    " Ot": 9739,
    " Trade": 9740,
    " libr": 9741,
    " pulled": 9742,
    " wake": 9743,
    "Ag": 9744,
    "Thanks": 9745,
    "ni": 9746,
    " Disney": 9747,
    " Nick": 9748,
    " Rus": 9749,
    " exploration": 9750,
    " fraud": 9751,
    " greenhouse": 9752,
    " shed": 9753,
    " tracking": 9754,
    " wise": 9755,
    " brill": 9756,
    " meaningful": 9757,
    "mented": 9758,
    " Bh": 9759,
    " Learn": 9760,
    " specialist": 9761,
    " thereby": 9762,
    " voting": 9763,
    "arents": 9764,
    "covery": 9765,
    " breeding": 9766,
    " varieties": 9767,
    " voted": 9768,
    " abnormal": 9769,
    " identifying": 9770,
    " orange": 9771,
    "rin": 9772,
    " classification": 9773,
    " Crit": 9774,
    " Cancer": 9775,
    " Figure": 9776,
    " awesome": 9777,
    " consec": 9778,
    " democracy": 9779,
    "fits": 9780,
    "oen": 9781,
    " breakfast": 9782,
    " notion": 9783,
    " outstanding": 9784,
    " pandemic": 9785,
    " Jerusalem": 9786,
    " Nether": 9787,
    " decreased": 9788,
    " median": 9789,
    " restrictions": 9790,
    " shore": 9791,
    "eman": 9792,
    "illance": 9793,
    "ques": 9794,
    " amongst": 9795,
    " breaks": 9796,
    "Look": 9797,
    "Mus": 9798,
    "akespeare": 9799,
    "shaped": 9800,
    " Perhaps": 9801,
    " Protection": 9802,
    " dimensions": 9803,
    " enormous": 9804,
    "Reg": 9805,
    "archy": 9806,
    " creatures": 9807,
    " disrupt": 9808,
    "cre": 9809,
    " Having": 9810,
    " Leon": 9811,
    "SC": 9812,
    "aron": 9813,
    "ocity": 9814,
    " Kal": 9815,
    " attractive": 9816,
    " chemistry": 9817,
    " conversion": 9818,
    " ticket": 9819,
    "Sub": 9820,
    "onds": 9821,
    "uis": 9822,
    " Gi": 9823,
    " Hum": 9824,
    " Houston": 9825,
    " Tit": 9826,
    " descend": 9827,
    " exhibit": 9828,
    " rum": 9829,
    " rival": 9830,
    " scenario": 9831,
    " yard": 9832,
    "words": 9833,
    " Republicans": 9834,
    " Soft": 9835,
    " flavor": 9836,
    " swimming": 9837,
    " volcan": 9838,
    "iley": 9839,
    "unes": 9840,
    " Several": 9841,
    " chat": 9842,
    " constitu": 9843,
    " forever": 9844,
    " mail": 9845,
    " summary": 9846,
    "ordinary": 9847,
    " arrangement": 9848,
    " hang": 9849,
    " immigration": 9850,
    " pitch": 9851,
    " recon": 9852,
    " variations": 9853,
    "earchers": 9854,
    " Fac": 9855,
    " cooper": 9856,
    " neighbour": 9857,
    " origins": 9858,
    " scholar": 9859,
    " treating": 9860,
    " Marg": 9861,
    " duration": 9862,
    " intensity": 9863,
    " prize": 9864,
    " scat": 9865,
    " tissues": 9866,
    " Cho": 9867,
    " convey": 9868,
    " delight": 9869,
    "olds": 9870,
    " Ark": 9871,
    " Historic": 9872,
    " Plus": 9873,
    " contents": 9874,
    " wings": 9875,
    "EG": 9876,
    " consisting": 9877,
    " critics": 9878,
    " glucose": 9879,
    " reserve": 9880,
    "adder": 9881,
    "enter": 9882,
    "lywood": 9883,
    " Friend": 9884,
    " Ukraine": 9885,
    " bands": 9886,
    " tong": 9887,
    "viously": 9888,
    "weet": 9889,
    " citizen": 9890,
    " neighb": 9891,
    " overse": 9892,
    "ondition": 9893,
    "pay": 9894,
    " Pict": 9895,
    " Peace": 9896,
    " drinks": 9897,
    " overl": 9898,
    " rend": 9899,
    " wra": 9900,
    " Atlanta": 9901,
    " mart": 9902,
    " milit": 9903,
    "aver": 9904,
    "novation": 9905,
    "vit": 9906,
    " Hindu": 9907,
    " Pope": 9908,
    " bottle": 9909,
    "chain": 9910,
    "uana": 9911,
    " caps": 9912,
    " loud": 9913,
    " lecture": 9914,
    "South": 9915,
    "ez": 9916,
    "isting": 9917,
    "kind": 9918,
    " CN": 9919,
    " Liberal": 9920,
    " Mean": 9921,
    " Senior": 9922,
    " fired": 9923,
    " pale": 9924,
    " reaches": 9925,
    " removing": 9926,
    " tries": 9927,
    "atoes": 9928,
    "fol": 9929,
    "wich": 9930,
    " creativity": 9931,
    "gged": 9932,
    " bench": 9933,
    " comedy": 9934,
    " tribes": 9935,
    " ~": 9936,
    " Bit": 9937,
    " evident": 9938,
    " hate": 9939,
    " heaven": 9940,
    "TC": 9941,
    "vol": 9942,
    " Heb": 9943,
    " Mit": 9944,
    " Melbourne": 9945,
    " arbit": 9946,
    " crimes": 9947,
    " differently": 9948,
    " perpet": 9949,
    " renewable": 9950,
    "AB": 9951,
    " Afghanistan": 9952,
    " boats": 9953,
    " participating": 9954,
    " processed": 9955,
    "iki": 9956,
    " Account": 9957,
    " Dark": 9958,
    " Eric": 9959,
    " plas": 9960,
    " representatives": 9961,
    " squad": 9962,
    "GE": 9963,
    "lan": 9964,
    "ocal": 9965,
    " asthma": 9966,
    " cattle": 9967,
    " encounter": 9968,
    " metabol": 9969,
    " specified": 9970,
    " upcoming": 9971,
    " Custom": 9972,
    " Duke": 9973,
    " Hig": 9974,
    " hide": 9975,
    " nic": 9976,
    "oning": 9977,
    "opic": 9978,
    " Brother": 9979,
    " Reading": 9980,
    " alleg": 9981,
    " complications": 9982,
    " currency": 9983,
    " utility": 9984,
    "________": 9985,
    " Death": 9986,
    " Reserve": 9987,
    " mistake": 9988,
    " spell": 9989,
    " unexpected": 9990,
    " desert": 9991,
    " encl": 9992,
    " identical": 9993,
    " kingdom": 9994,
    " safely": 9995,
    " Model": 9996,
    " Poly": 9997,
    " Queens": 9998,
    " detected": 9999,
    " laugh": 10000,
    " politicians": 10001,
    " restoration": 10002,
    " succeeded": 10003,
    " Od": 10004,
    " bathroom": 10005,
    " minerals": 10006,
    " publicly": 10007,
    " reflected": 10008,
    " Chall": 10009,
    " Pack": 10010,
    " codes": 10011,
    " cord": 10012,
    " dict": 10013,
    "ags": 10014,
    "elligent": 10015,
    " devast": 10016,
    " genuine": 10017,
    "III": 10018,
    "onymous": 10019,
    "ucks": 10020,
    " OR": 10021,
    " anch": 10022,
    " enemies": 10023,
    " medieval": 10024,
    " Les": 10025,
    " developments": 10026,
    " digest": 10027,
    " ruling": 10028,
    " trick": 10029,
    "power": 10030,
    "reens": 10031,
    " Lib": 10032,
    " Staff": 10033,
    " complexity": 10034,
    " cycl": 10035,
    " meets": 10036,
    " mirror": 10037,
    " psychology": 10038,
    "TP": 10039,
    " Hans": 10040,
    " conce": 10041,
    " historian": 10042,
    " telephone": 10043,
    "even": 10044,
    "emor": 10045,
    "iph": 10046,
    "olis": 10047,
    " Box": 10048,
    " Hal": 10049,
    " invention": 10050,
    " loyal": 10051,
    " responded": 10052,
    " Analysis": 10053,
    " Architect": 10054,
    " economics": 10055,
    " por": 10056,
    " shops": 10057,
    " stuck": 10058,
    "cor": 10059,
    "lessly": 10060,
    " Dream": 10061,
    " decay": 10062,
    " facilitate": 10063,
    " inev": 10064,
    " underground": 10065,
    "author": 10066,
    "ranean": 10067,
    " Hart": 10068,
    " Shan": 10069,
    " cock": 10070,
    " eligible": 10071,
    " influences": 10072,
    " pursue": 10073,
    " reflection": 10074,
    "Who": 10075,
    "uv": 10076,
    " Az": 10077,
    " Which": 10078,
    " meth": 10079,
    " shouldn": 10080,
    " vocal": 10081,
    " Article": 10082,
    " graphic": 10083,
    "gence": 10084,
    "generation": 10085,
    "lem": 10086,
    "pool": 10087,
    "rett": 10088,
    " Level": 10089,
    " Winter": 10090,
    " certified": 10091,
    " headed": 10092,
    " mathematical": 10093,
    " opens": 10094,
    " shower": 10095,
    " walked": 10096,
    "type": 10097,
    "urse": 10098,
    " Hit": 10099,
    " Jacob": 10100,
    " secretary": 10101,
    ".),": 10102,
    " contributing": 10103,
    " cooling": 10104,
    " expenses": 10105,
    " nick": 10106,
    " peoples": 10107,
    " talked": 10108,
    "Red": 10109,
    "bled": 10110,
    " Jane": 10111,
    " occurring": 10112,
    " prisoners": 10113,
    "ME": 10114,
    "Oh": 10115,
    "inery": 10116,
    "oca": 10117,
    "ontal": 10118,
    "thritis": 10119,
    " ON": 10120,
    " Publishing": 10121,
    " attributed": 10122,
    " consume": 10123,
    " pleasure": 10124,
    "HD": 10125,
    " bub": 10126,
    " farms": 10127,
    " forecast": 10128,
    " persu": 10129,
    " tab": 10130,
    "Rel": 10131,
    "iking": 10132,
    "ogical": 10133,
    "orship": 10134,
    "ricane": 10135,
    "step": 10136,
    " Medic": 10137,
    " addresses": 10138,
    " cotton": 10139,
    " delicious": 10140,
    " exch": 10141,
    " exploring": 10142,
    " margin": 10143,
    " stayed": 10144,
    " suspend": 10145,
    "cin": 10146,
    "high": 10147,
    " Priv": 10148,
    " crus": 10149,
    " hospitals": 10150,
    " judgment": 10151,
    " perceived": 10152,
    " rough": 10153,
    "TR": 10154,
    "eor": 10155,
    "hea": 10156,
    "ilty": 10157,
    "iratory": 10158,
    "issance": 10159,
    "itzerland": 10160,
    "thodox": 10161,
    "Ã¡n": 10162,
    " Maria": 10163,
    " beans": 10164,
    " hazard": 10165,
    " hoping": 10166,
    " jew": 10167,
    " tape": 10168,
    " tu": 10169,
    "amins": 10170,
    " Allen": 10171,
    " Anth": 10172,
    " Silver": 10173,
    " Taiwan": 10174,
    " Training": 10175,
    " compensation": 10176,
    " CS": 10177,
    " Tax": 10178,
    " afraid": 10179,
    " biology": 10180,
    " founding": 10181,
    " incredibly": 10182,
    " supporters": 10183,
    "achers": 10184,
    "emet": 10185,
    "ertrude": 10186,
    "isement": 10187,
    " Chap": 10188,
    " PDF": 10189,
    " imaging": 10190,
    " infin": 10191,
    "abulary": 10192,
    "ailand": 10193,
    "isl": 10194,
    " Dougl": 10195,
    " Proper": 10196,
    " algorithm": 10197,
    " migration": 10198,
    " transactions": 10199,
    " upgrad": 10200,
[...]
