{
  "token_to_id": {
    "systematic</w>": 1580,
    "me</w>": 972,
    "causing</w>": 2270,
    "56</w>": 4706,
    "determ": 1572,
    "integers</w>": 1660,
    "recedented</w>": 3554,
    "Relational</w>": 4249,
    "fric": 2319,
    "to</w>": 310,
    "whe": 1321,
    "Chin": 3245,
    "arising</w>": 2753,
    "volution": 3280,
    "added</w>": 3011,
    "borrowing</w>": 2624,
    "protocols</w>": 4051,
    "symbo": 3013,
    "\"": 47,
    "complex</w>": 1662,
    "|": 137,
    "est</w>": 814,
    "electron": 1316,
    "Quix": 2925,
    "psych": 961,
    "ù": 262,
    "search</w>": 921,
    "x": 133,
    "ali": 1413,
    "earthqua": 2874,
    "application</w>": 1642,
    "carr": 3064,
    "comedy</w>": 3874,
    "model": 667,
    "hibit</w>": 3863,
    "ameter</w>": 2489,
    "Plate</w>": 4460,
    "ten": 857,
    "expres": 1378,
    "pistemology</w>": 2138,
    "sequent</w>": 1717,
    "Creation</w>": 4404,
    "A</w>": 689,
    "end": 1122,
    "impro": 1892,
    "utations</w>": 2648,
    "adolescence</w>": 3839,
    "man": 555,
    "est": 761,
    "argum": 1035,
    "Elec": 2387,
    "ism</w>": 715,
    "output</w>": 1647,
    "royed</w>": 2421,
    "investors</w>": 3383,
    "": 153,
    "lat": 2213,
    "consumption</w>": 2989,
    "ternational</w>": 3441,
    "draw</w>": 4530,
    "sum": 756,
    "ich": 4133,
    "tertiary</w>": 3862,
    "tinuous</w>": 1205,
    "trans": 448,
    "ell</w>": 1862,
    "statistics</w>": 2025,
    "troduces</w>": 3406,
    "16th</w>": 4335,
    "demon": 1791,
    "ined</w>": 1427,
    "kup</w>": 2360,
    "": 152,
    "rane</w>": 1696,
    "neur": 917,
    "manufacturing</w>": 3546,
    "lead": 1070,
    "type</w>": 2642,
    "carry</w>": 3065,
    "intimate</w>": 4229,
    "ma</w>": 2153,
    "expression</w>": 2783,
    "public</w>": 3723,
    "b</w>": 1138,
    "ght</w>": 510,
    "structed</w>": 3499,
    "examples</w>": 3342,
    "la": 421,
    "": 171,
    "large</w>": 2209,
    "plasts</w>": 2448,
    "relate</w>": 2031,
    "cling</w>": 3293,
    "vector</w>": 4480,
    "number</w>": 1249,
    "cap": 848,
    "estab": 877,
    "thin": 2060,
    "Columbi": 2586,
    "Protocol</w>": 3113,
    "this</w>": 2057,
    "job</w>": 4359,
    "formal</w>": 1909,
    "traviolet</w>": 3265,
    "hotosynthesis</w>": 2674,
    "ary": 2035,
    "ence</w>": 447,
    "ill": 1324,
    "bitr": 3475,
    "ority</w>": 1118,
    "leeting</w>": 3799,
    "calculus</w>": 3194,
    "no": 657,
    "developing</w>": 3604,
    "ter": 367,
    "Erik": 2390,
    "Milgram</w>": 4295,
    "verage</w>": 3793,
    "modyn": 3578,
    "HT": 4375,
    "guaran": 2346,
    "comprising</w>": 3873,
    "45</w>": 4697,
    "00</w>": 4284,
    "Earth</w>": 1189,
    "psychosocial</w>": 3112,
    "2": 63,
    "ometr": 729,
    "gravi": 3229,
    "explanations</w>": 3602,
    "et</w>": 762,
    "igen": 2277,
    "ech": 993,
    "empirici": 2431,
    "hilosophers</w>": 3054,
    "running</w>": 2254,
    "jo": 4360,
    "NADPH</w>": 4656,
    "uniqu": 3338,
    "ogic</w>": 3770,
    "Copernicus</w>": 4407,
    "gn": 1143,
    "edges</w>": 4595,
    "ge": 613,
    "por": 962,
    "bitrary</w>": 3476,
    "New": 2863,
    "collection</w>": 2852,
    "efficiently</w>": 2876,
    "Vinci</w>": 4273,
    "w</w>": 425,
    "enti": 492,
    "wavel": 3426,
    "marriage</w>": 3550,
    "foundation</w>": 3048,
    "mosphere</w>": 3569,
    "RA": 4259,
    "nanometers</w>": 4581,
    "31</w>": 4691,
    "occupy</w>": 3897,
    "": 157,
    "tives</w>": 1125,
    "achment</w>": 3529,
    "irtu": 1929,
    "Aristotle</w>": 2141,
    "governance</w>": 1749,
    "mechan": 1147,
    "heroes</w>": 2309,
    "sea</w>": 3762,
    "iconduct": 1555,
    "enabling</w>": 875,
    "machines</w>": 4516,
    "ox": 2146,
    "variables</w>": 1609,
    "combine</w>": 2483,
    "yth": 959,
    "arguments</w>": 1654,
    "sur": 1161,
    "spices</w>": 3882,
    "dimensionality</w>": 4049,
    "per": 378,
    "predicts</w>": 2571,
    "real</w>": 4159,
    "ce</w>": 455,
    "ims</w>": 3753,
    "Version</w>": 4271,
    "1945</w>": 2567,
    "tion": 288,
    "Qui": 2924,
    "entirely</w>": 3612,
    "osome</w>": 3766,
    "sub": 711,
    "pr": 612,
    "arness</w>": 4164,
    "========": 502,
    "figuration</w>": 2553,
    "ap": 345,
    "def": 1362,
    "organisms</w>": 1803,
    "justice</w>": 1212,
    "deploy": 2477,
    "em": 303,
    "inswor": 2930,
    "price</w>": 3463,
    "element</w>": 4102,
    "inference</w>": 3656,
    "technologies</w>": 1597,
    "pair</w>": 3368,
    "tically</w>": 1367,
    "regardless</w>": 2033,
    "Locke</w>": 2087,
    "story</w>": 2240,
    "auto": 3181,
    "inct</w>": 1879,
    "on</w>": 347,
    "metaphysics</w>": 3212,
    "hyme</w>": 2890,
    "absorbs</w>": 4008,
    "f</w>": 1476,
    "dioxide</w>": 4045,
    "state</w>": 4116,
    "on": 275,
    "concentrated</w>": 2787,
    "chang": 523,
    "ys</w>": 648,
    "veh": 3101,
    "63</w>": 4677,
    "ô": 257,
    "ý": 266,
    "oper": 1081,
    "becomes</w>": 2363,
    "ristopher</w>": 2785,
    "ning</w>": 537,
    "suppli": 1746,
    "directions</w>": 3392,
    "tes</w>": 662,
    "archit": 3139,
    "loss</w>": 3286,
    "imination</w>": 3752,
    "reactive</w>": 2027,
    "S": 96,
    "exact</w>": 3982,
    "evo": 3364,
    "algorith": 1000,
    "I</w>": 1448,
    "emory</w>": 4113,
    "occur": 805,
    "shells</w>": 3728,
    "dem": 614,
    "dis": 937,
    "orizon": 2049,
    "diversity</w>": 4041,
    "delivery</w>": 4527,
    "32</w>": 4690,
    "endoplasmic</w>": 2953,
    "explaining</w>": 3600,
    "bership</w>": 3123,
    "ach": 569,
    "transfer</w>": 3711,
    "toc": 4110,
    "raints</w>": 3790,
    "61</w>": 4682,
    "ho": 1480,
    "Yggdrasil</w>": 4244,
    "neural</w>": 1686,
    "which</w>": 1056,
    "ll": 2215,
    "collapse</w>": 3024,
    "provide</w>": 904,
    "wheat</w>": 2831,
    "Indi": 3484,
    "efficient</w>": 1603,
    "Arrays</w>": 2697,
    "inclu": 628,
    "geop": 3460,
    "by": 4446,
    "edented</w>": 2654,
    "ti": 276,
    "transform": 589,
    "began</w>": 2548,
    "phenomen": 1062,
    "set": 2178,
    "alg": 948,
    "civilizations</w>": 1846,
    "intelligence</w>": 2071,
    "imics</w>": 3749,
    "tenance</w>": 3187,
    "considered</w>": 2792,
    "other</w>": 690,
    "mean": 1336,
    "mat": 749,
    "19</w>": 4711,
    "changing</w>": 1831,
    "ig": 2198,
    "metap": 3211,
    "Algorithm</w>": 3097,
    "another</w>": 951,
    "ster</w>": 1401,
    "timization</w>": 1306,
    "gions</w>": 3106,
    "complet": 3396,
    "eters</w>": 3879,
    "Cognitive</w>": 2109,
    "ree": 1408,
    "particle</w>": 3171,
    "distort</w>": 4042,
    "realized</w>": 4151,
    "anish</w>": 4217,
    "Surplus</w>": 4613,
    "uniform</w>": 3334,
    "mul": 1149,
    "we</w>": 2115,
    "work</w>": 3765,
    "\u0019": 38,
    "dep": 1361,
    "voltaic</w>": 3704,
    "Robotics</w>": 4250,
    "told</w>": 4107,
    "tizen</w>": 2748,
    "wa": 647,
    "involved</w>": 3385,
    "lustering</w>": 3702,
    "ving</w>": 653,
    "Union</w>": 1434,
    "models</w>": 1261,
    "division</w>": 1994,
    "zero</w>": 2102,
    "encouraging</w>": 2499,
    "representations</w>": 2607,
    "robots</w>": 2040,
    "ava": 1519,
    "flowing</w>": 2837,
    "isolated</w>": 2814,
    "tifs</w>": 2941,
    "17": 2097,
    "membership</w>": 3417,
    "administer</w>": 3833,
    "N": 91,
    "ications</w>": 1403,
    "arch": 944,
    "lithosphere</w>": 4086,
    "over": 1145,
    "154</w>": 4336,
    "BC": 2091,
    "hash</w>": 4553,
    "ust</w>": 1356,
    "ffer": 705,
    "div": 2000,
    "ristoph": 2784,
    "=": 74,
    "move</w>": 3571,
    "not</w>": 890,
    "peti": 2349,
    "transpor": 1889,
    "ished</w>": 2505,
    "Li": 2241,
    "od": 375,
    "ack": 4095,
    "spatial</w>": 3890,
    "21</w>": 4673,
    "arithmetic</w>": 1782,
    "°": 189,
    "ish</w>": 3807,
    "continuously</w>": 3959,
    "higher</w>": 3010,
    "electromagnetic</w>": 3719,
    "thinking</w>": 2414,
    "delu": 2691,
    "ver</w>": 840,
    "meter</w>": 3213,
    "row": 573,
    "caregivers</w>": 3063,
    "unreactive</w>": 4025,
    "unwinds</w>": 4034,
    "Behavi": 1547,
    "level</w>": 3800,
    "entur": 926,
    "doctrine</w>": 2897,
    "petitive</w>": 2350,
    "witches</w>": 3818,
    "path</w>": 3369,
    "stantaneous</w>": 3526,
    "Chris": 3238,
    "heliocentr": 2678,
    "pain</w>": 3370,
    "depicted</w>": 2806,
    "symbolic</w>": 1646,
    "entire": 3611,
    "Quantum</w>": 1615,
    "il": 430,
    "eukaryotic</w>": 4598,
    "oyce</w>": 2695,
    "valence</w>": 3551,
    "sine</w>": 4578,
    "ously</w>": 1707,
    "ized</w>": 709,
    "pair": 1755,
    "precision</w>": 2568,
    "consi": 1371,
    "M": 90,
    "rop": 946,
    "bodily</w>": 3593,
    "place</w>": 4010,
    "emb": 2019,
    "browsers</w>": 2368,
    "Christopher</w>": 3236,
    "relying</w>": 2759,
    "repair</w>": 4144,
    "et": 360,
    "has</w>": 1479,
    "us": 356,
    "ody</w>": 1928,
    "Asch</w>": 4502,
    "communication</w>": 1037,
    "inf": 469,
    "§": 180,
    "evolved</w>": 4592,
    "electr": 467,
    "interest</w>": 1869,
    "": 166,
    "¤": 177,
    "offer</w>": 1741,
    "step</w>": 2021,
    "escrip": 3282,
    "computes</w>": 3564,
    "T": 97,
    "storage</w>": 1308,
    "cee": 1700,
    "osphere</w>": 2144,
    "approximate</w>": 2618,
    "paid</w>": 3367,
    "ch</w>": 567,
    "Watt</w>": 2406,
    "pages</w>": 4467,
    "edul": 2655,
    "switches</w>": 4569,
    "\u0013": 32,
    "culp": 3415,
    "materi": 1015,
    "later</w>": 4631,
    "require</w>": 1735,
    "optimization</w>": 1949,
    "astille</w>": 4017,
    "dges</w>": 1770,
    "parative</w>": 3582,
    "engine": 1229,
    "thenian</w>": 2418,
    "tane": 2220,
    "shares</w>": 2526,
    "SQL</w>": 2204,
    "cipit": 3617,
    "fore</w>": 1992,
    "ign</w>": 2276,
    "ristotle</w>": 1565,
    "irc": 1932,
    "ream</w>": 1713,
    "addresses</w>": 2853,
    "manages</w>": 3543,
    "berg</w>": 1673,
    "Decomposers</w>": 2716,
    "ope</w>": 3870,
    "daily</w>": 4538,
    "freedom</w>": 4542,
    "25</w>": 4670,
    "building</w>": 1650,
    "rypto": 1750,
    "apart</w>": 3940,
    "program": 2446,
    "person</w>": 1927,
    "mor": 554,
    "Plato</w>": 4459,
    "preserve</w>": 3423,
    "questions</w>": 1962,
    "transformed</w>": 1280,
    "wi": 380,
    "Choosing</w>": 3249,
    "escriptive</w>": 3283,
    "beauty</w>": 3588,
    "ent</w>": 335,
    "Or": 2096,
    "cha": 4000,
    "Geor": 2374,
    "rooted</w>": 4181,
    "villages</w>": 4003,
    "them": 698,
    "debt</w>": 2476,
    "B</w>": 4320,
    "H": 85,
    "¹": 198,
    "ferential</w>": 2895,
    "antor</w>": 2938,
    "turbines</w>": 3666,
    "ethics</w>": 2189,
    "Japan</w>": 2407,
    "da</w>": 4534,
    "brows": 2367,
    "attract</w>": 4126,
    "Compil": 2628,
    "«": 184,
    "secur": 1206,
    "n": 123,
    "cools</w>": 3621,
    "cosystems</w>": 3623,
    "ans</w>": 831,
    "entanglement</w>": 3819,
    "ra": 394,
    "antibodies</w>": 3391,
    "barley</w>": 2710,
    "containing</w>": 3962,
    "emp": 2020,
    "summarize</w>": 3297,
    "offers</w>": 1740,
    "analysis</w>": 1009,
    "aintenance</w>": 3606,
    "¨": 181,
    "collecting</w>": 2850,
    "origin</w>": 3324,
    "Declar": 2718,
    "car": 983,
    "suite</w>": 3772,
    "sovereignty</w>": 4574,
    "press</w>": 3424,
    "reed</w>": 4158,
    "capable</w>": 3200,
    "Applications</w>": 4483,
    "taic</w>": 3663,
    "intermittency</w>": 3698,
    "Ha": 4377,
    "kinetic</w>": 4448,
    "isolation</w>": 1577,
    "century</w>": 996,
    "reason</w>": 3257,
    "expensive</w>": 2779,
    "]</w>": 329,
    "work": 1902,
    "mody": 3577,
    "lust": 3701,
    "vaporation</w>": 2700,
    "anti": 681,
    "quer": 3925,
    "sed</w>": 1163,
    "sec": 978,
    "asserting</w>": 2544,
    "arr": 2038,
    "bias</w>": 1800,
    "orse</w>": 4195,
    "É": 214,
    "tural</w>": 1318,
    "horizont": 2315,
    "transportation</w>": 2523,
    "": 169,
    "194": 1778,
    "corporations</w>": 2603,
    "loo": 3290,
    "deviation</w>": 3906,
    "ax</w>": 4652,
    "herent</w>": 2310,
    "icity</w>": 1402,
    "ies</w>": 444,
    "passing</w>": 2920,
    "theorem</w>": 1217,
    "Convergent</w>": 3314,
    "thema": 991,
    "oxyg": 2342,
    "ources</w>": 1827,
    "desirable</w>": 4529,
    "Ù": 230,
    "Geometry</w>": 2373,
    "ape</w>": 3941,
    "ce": 850,
    "ã": 240,
    "sequenti": 3271,
    "att": 4129,
    "choose</w>": 3997,
    "oreign</w>": 4194,
    "ous</w>": 592,
    "roup</w>": 929,
    "k": 120,
    "1</w>": 466,
    "rays</w>": 1068,
    "include</w>": 1270,
    "ardless</w>": 1679,
    "Macbeth</w>": 4292,
    "bu": 495,
    "SMTP</w>": 4609,
    "subduc": 3353,
    "mechanics</w>": 1608,
    "settled</w>": 2306,
    "zones</w>": 4348,
    "guar": 2345,
    "learn</w>": 1784,
    "primordi": 3469,
    "shortest</w>": 3733,
    "light</w>": 817,
    "agging</w>": 3935,
    "ª": 183,
    "atom</w>": 3439,
    "mountain</w>": 3573,
    "Leon": 2399,
    "weapons</w>": 3685,
    "gre": 837,
    "vast</w>": 2140,
    "cultures</w>": 1767,
    "y</w>": 285,
    "en</w>": 386,
    "tized</w>": 2749,
    "reedom</w>": 2763,
    "past</w>": 4466,
    "</w>": 269,
    "array</w>": 2758,
    "_": 108,
    "process</w>": 1043,
    "Conformity</w>": 3317,
    "without</w>": 1003,
    "services</w>": 1731,
    "ships</w>": 3450,
    "unw": 4032,
    "p</w>": 496,
    "unless</w>": 4028,
    "crafting</w>": 4601,
    "0</w>": 518,
    "clou": 1729,
    "Semiconductor</w>": 4610,
    "Number</w>": 4659,
    "P": 93,
    "literary</w>": 4077,
    "dden</w>": 2684,
    "ide</w>": 2195,
    "keptic": 3653,
    "expos": 2776,
    "veil</w>": 3100,
    "¸": 197,
    "jealousy</w>": 4363,
    "ack</w>": 1108,
    "modi": 3574,
    "Linear</w>": 4281,
    "<A>": 8,
    "ognitive</w>": 922,
    "CP</w>": 1449,
    "andons</w>": 3387,
    "â": 239,
    "gan": 577,
    "estigates</w>": 1638,
    "st</w>": 757,
    "ming</w>": 971,
    "Internet</w>": 1802,
    "adjac": 3843,
    "-</w>": 382,
    "sive</w>": 1966,
    "ru": 4640,
    "app": 807,
    "advantage</w>": 2491,
    "symmetric</w>": 3012,
    "cial</w>": 3615,
    "foc": 1475,
    "India</w>": 3485,
    "ryp": 697,
    "Go": 4426,
    "appro": 1363,
    "ross</w>": 4178,
    "transm": 1874,
    "gr": 472,
    "develops</w>": 3605,
    "tr": 311,
    "consist</w>": 2788,
    "neutr": 2826,
    "Behavior": 1548,
    "electronic</w>": 2834,
    "transferred</w>": 2532,
    "proposing</w>": 1724,
    "lay": 1885,
    "scious": 2882,
    "moving</w>": 3570,
    "RAM": 4260,
    "accel": 1631,
    "propagation</w>": 1651,
    "ni": 619,
    "av": 1514,
    "via</w>": 1981,
    "oph": 770,
    "databases</w>": 1274,
    "primarily</w>": 1798,
    "storming</w>": 3641,
    "observe</w>": 3680,
    "Hume</w>": 4371,
    "sion": 1967,
    "D</w>": 4391,
    "logis": 3191,
    "ade</w>": 566,
    "provides</w>": 703,
    "constant</w>": 1568,
    "sections</w>": 3074,
    "deletions</w>": 2690,
    "direct": 1259,
    "ents</w>": 451,
    "justification</w>": 3131,
    "facilitate</w>": 2561,
    "Operating</w>": 2735,
    "samples</w>": 3204,
    "decolonization</w>": 3208,
    "gland</w>": 3225,
    "ri": 336,
    "ul": 358,
    "inite</w>": 952,
    "geometric</w>": 1691,
    "investment</w>": 1759,
    "spired</w>": 3888,
    "urplus</w>": 4060,
    "atr": 4127,
    "enaissance</w>": 4202,
    "preting</w>": 3376,
    "elic": 4103,
    "showed</w>": 1581,
    "rural</w>": 4633,
    "standar": 1286,
    "third</w>": 4208,
    "ordinates</w>": 2959,
    "Colos": 3250,
    "syllab": 2500,
    "educts</w>": 2290,
    "secure</w>": 2848,
    "in</w>": 321,
    "Differential</w>": 2378,
    "deployment</w>": 2478,
    "tribu": 2969,
    "ari": 640,
    "paths</w>": 3366,
    "guarantee</w>": 2348,
    "early</w>": 2871,
    "sting</w>": 736,
    "etr": 695,
    "oceanic</w>": 2994,
    "power</w>": 891,
    "barriers</w>": 1543,
    "differ": 815,
    "ristot": 1564,
    "chi": 3998,
    "attention</w>": 4125,
    "ò": 255,
    "spon": 933,
    "composition</w>": 3875,
    "nomadic</w>": 4582,
    "*": 55,
    "contract</w>": 3964,
    "activity</w>": 1394,
    "Virtu": 2086,
    "kepticism</w>": 3654,
    "rotation</w>": 4177,
    "approaches</w>": 2799,
    "terns</w>": 1029,
    "throughout</w>": 1897,
    "wr": 4436,
    "issues</w>": 2507,
    "editerran": 2287,
    "hilosophy</w>": 1176,
    "Í": 218,
    "ity</w>": 436,
    "abstract</w>": 4006,
    "og": 402,
    "Trees</w>": 4555,
    "versi": 3794,
    "dram": 1535,
    "adap": 1938,
    "atrices</w>": 4128,
    "ryptography</w>": 1751,
    "accessible</w>": 4087,
    "imin": 3751,
    "O</w>": 1436,
    "ö": 259,
    "stimulus</w>": 1530,
    "parall": 3583,
    "¢": 175,
    "particles</w>": 1220,
    "good</w>": 1824,
    "46</w>": 4696,
    "mo": 535,
    "Ygg": 4243,
    "Operations</w>": 2736,
    "Alternative</w>": 3092,
    "accelerated</w>": 2605,
    "otami": 3216,
    "compounds</w>": 3871,
    "cryptography</w>": 4604,
    "reduction</w>": 2964,
    "Computer</w>": 2235,
    "civi": 1845,
    "territories</w>": 3858,
    "tangent</w>": 4645,
    "given</w>": 3104,
    "J": 87,
    "all": 478,
    "'s</w>": 529,
    "d": 113,
    "class": 1246,
    "empir": 2430,
    "cities</w>": 3614,
    "hythm</w>": 4551,
    "14</w>": 865,
    "auty</w>": 3180,
    "unchecked</w>": 4021,
    "folklor": 2327,
    "beliefs</w>": 4441,
    "ernel</w>": 2419,
    "hidden</w>": 3864,
    "heli": 1477,
    "low</w>": 2210,
    "": 170,
    "tromagnetic</w>": 1765,
    "ant</w>": 1425,
    "ide": 1169,
    "perspectives</w>": 2813,
    "surface</w>": 2857,
    "o</w>": 481,
    "St": 1503,
    "protectionism</w>": 2976,
    "": 149,
    "um": 365,
    "calculated</w>": 3196,
    "cos": 2202,
    "flat</w>": 3505,
    "esirable</w>": 1987,
    "pli": 1461,
    "comm": 593,
    "litical</w>": 939,
    "ban": 1455,
    "evolution</w>": 4596,
    "infections</w>": 2536,
    "narration</w>": 2182,
    "m": 122,
    "dg": 656,
    "Japanese</w>": 2409,
    "cep": 1224,
    "hail</w>": 3628,
    "ametes</w>": 2490,
    "sa": 979,
    "programming</w>": 2447,
    "em</w>": 820,
    "ortuguese</w>": 4193,
    "ental</w>": 521,
    "vel</w>": 1322,
    "xim": 1446,
    "Heis": 2382,
    "securities</w>": 2846,
    "hunter</w>": 4550,
    "an</w>": 331,
    "distributions</w>": 2977,
    "datase": 3456,
    "Expl": 2727,
    "inc": 434,
    "states</w>": 599,
    "ane": 2069,
    "y": 134,
    "tim": 479,
    "over</w>": 969,
    "program</w>": 1387,
    "Columbu": 2588,
    "speech</w>": 2811,
    "Modular</w>": 2739,
    "theor": 924,
    "ory</w>": 437,
    "height</w>": 4552,
    "rhyme</w>": 4635,
    "prem": 3377,
    "thoughts</w>": 2055,
    "address</w>": 1598,
    "RP": 4254,
    "displac": 3152,
    "These</w>": 3950,
    "hile</w>": 543,
    "lith": 4085,
    "ely</w>": 942,
    "States</w>": 1528,
    "onom": 2064,
    "any</w>": 2068,
    "bolic</w>": 1452,
    "volume</w>": 3707,
    "producing</w>": 1310,
    "37</w>": 4684,
    "pot": 1850,
    "private</w>": 3473,
    "direction</w>": 1258,
    "bon": 958,
    "browsing</w>": 2366,
    "helioc": 2677,
    "chlorophy": 2455,
    "volutionary</w>": 3281,
    "<SEP>": 11,
    "geometr": 898,
    "them</w>": 3362,
    "testing</w>": 1295,
    "Heisen": 2383,
    "depleting</w>": 2479,
    "dur": 974,
    "Contemporary</w>": 3312,
    "represent</w>": 1627,
    "indices</w>": 2934,
    "adliest</w>": 3841,
    "moment": 2334,
    "describ": 973,
    "epistemology</w>": 4594,
    "Britain</w>": 1432,
    "gu": 2139,
    "hotosynthes": 2673,
    "interval</w>": 3020,
    "riters</w>": 3974,
    "prot": 4058,
    "col": 560,
    "vel": 435,
    "dividu": 675,
    "patterns</w>": 1140,
    "classic</w>": 2841,
    "Hy": 4372,
    "penalizing</w>": 4463,
    "tempor": 2633,
    "oughts</w>": 1923,
    "ques": 1961,
    "DNA</w>": 1188,
    "wars</w>": 2372,
    "peri": 716,
    "[": 104,
    "romance</w>": 2426,
    "gi": 965,
    "dras": 2681,
    "orig": 3323,
    "sured</w>": 3773,
    "Watson</w>": 2405,
    "with</w>": 417,
    "û": 264,
    "sych": 861,
    "\t": 22,
    "proper": 938,
    "force</w>": 1991,
    "investigates</w>": 1760,
    "Set</w>": 4621,
    "analyzing</w>": 2584,
    "tec": 660,
    "document</w>": 2856,
    "mitosis</w>": 2576,
    "ocaust</w>": 3899,
    "tem": 1512,
    "infected</w>": 2535,
    "organizes</w>": 1588,
    "emphasized</w>": 2770,
    "Rousseau</w>": 4251,
    "24</w>": 4671,
    "57</w>": 4702,
    "world": 1197,
    "emotion</w>": 1557,
    "espeare</w>": 1635,
    "navigators</w>": 2295,
    "computation</w>": 3563,
    "oxygen</w>": 2343,
    "otamia</w>": 3217,
    "Nations</w>": 4661,
    "nucleotides</w>": 2663,
    "Christianity</w>": 3240,
    "coordinates</w>": 3619,
    "olar</w>": 4065,
    "iconduc": 1554,
    "new</w>": 1059,
    "ve": 967,
    "chemas</w>": 1744,
    "tis": 1421,
    "memory</w>": 780,
    "cell": 538,
    "Produc": 3116,
    "local</w>": 2265,
    "Ý": 234,
    "arge</w>": 1279,
    "figure</w>": 2554,
    "Hash</w>": 2104,
    "ace</w>": 732,
    "Axis</w>": 4485,
    "tivi": 828,
    "Development</w>": 2602,
    "mericas</w>": 1539,
    "aining</w>": 1842,
    "sp": 359,
    "build</w>": 3022,
    "ume</w>": 1947,
    "democ": 1032,
    "setting": 2303,
    "cul": 658,
    "vised</w>": 1980,
    "Declaration</w>": 2719,
    "war</w>": 4435,
    "grap": 706,
    "ering</w>": 744,
    "transfer": 1872,
    "guese</w>": 2344,
    "spa": 3889,
    "agg": 3934,
    "raf": 3791,
    " ": 173,
    "Austen</w>": 4506,
    "requires</w>": 3328,
    "period": 3347,
    "Law</w>": 4283,
    "fer": 1154,
    "co": 484,
    "training</w>": 4067,
    "riers</w>": 1376,
    "probable</w>": 3440,
    "preci": 1758,
    "ulum</w>": 3892,
    "readers</w>": 4139,
    "characters</w>": 1694,
    "consist": 2789,
    "arts</w>": 4168,
    "He": 2105,
    "`": 109,
    "among</w>": 1941,
    "assical</w>": 3598,
    "rights</w>": 1971,
    ",</w>": 279,
    "stimul": 1485,
    "sharing</w>": 2525,
    "therers</w>": 2943,
    "substr": 3351,
    "arsenals</w>": 4173,
    "limited</w>": 2772,
    "go": 551,
    "two</w>": 1508,
    "aly</w>": 4189,
    "All</w>": 3099,
    "ini": 4240,
    "First</w>": 4354,
    "voyages</w>": 4481,
    "marri": 3549,
    "Long</w>": 4280,
    "ind</w>": 1428,
    "tiny</w>": 3185,
    "issuing</w>": 2506,
    "ideas</w>": 1601,
    "occurs</w>": 1241,
    "Piaget</w>": 4462,
    "evaluated</w>": 2291,
    "rect</w>": 3555,
    "live</w>": 4084,
    "defens": 2801,
    "el": 306,
    "hier": 1349,
    "stribu": 1017,
    "Qu": 1133,
    "years</w>": 2127,
    "silk</w>": 2463,
    "escrib": 874,
    "59</w>": 4704,
    "device</w>": 2473,
    "val": 552,
    "disco": 1681,
    "ended</w>": 2948,
    "stability</w>": 2022,
    "X</w>": 2095,
    "Deontological</w>": 3130,
    "ð": 253,
    "coll": 1042,
    "Heisenberg</w>": 2384,
    "from</w>": 397,
    "achines</w>": 3528,
    "electrons</w>": 1314,
    "e": 114,
    "à": 237,
    "equality</w>": 1866,
    "fuel</w>": 4547,
    "intervention</w>": 1200,
    "À": 205,
    "Quixote</w>": 2927,
    "Alli": 3093,
    "distribution</w>": 1192,
    "opernic": 3007,
    "curved</w>": 3410,
    "editer": 2286,
    "ermany</w>": 4204,
    "for</w>": 406,
    "Ö": 227,
    "Rationali": 2743,
    "ted</w>": 582,
    "lear": 629,
    "index</w>": 2933,
    "agnostics</w>": 3937,
    "trains</w>": 2004,
    "neutrophi": 2824,
    "feed</w>": 2322,
    "synthesized</w>": 1595,
    "emphasize</w>": 2769,
    "portrays</w>": 3109,
    "Behavioral</w>": 1549,
    "cot": 3626,
    "decolon": 3207,
    "ef": 2194,
    "leg": 3804,
    "printing</w>": 3465,
    "In</w>": 4396,
    "nations</w>": 4588,
    "endoplasm": 2952,
    "geometries</w>": 3172,
    "gebr": 1795,
    "experience</w>": 1193,
    "traded</w>": 2443,
    "enetic</w>": 1675,
    "pairs</w>": 1756,
    "ization</w>": 802,
    "ear": 1167,
    "decision</w>": 2591,
    "ophisticated</w>": 3868,
    "generation</w>": 3421,
    "h": 117,
    "learning</w>": 782,
    "he": 1481,
    "typ": 1510,
    "membrane</w>": 1772,
    "generating</w>": 3418,
    "levels</w>": 3798,
    "glob": 1225,
    "amounts</w>": 3853,
    "arming</w>": 2034,
    "ket</w>": 1854,
    "reticulum</w>": 4138,
    "Large</w>": 4279,
    "Mo": 4303,
    "rate</w>": 4639,
    "all</w>": 793,
    "synapses</w>": 3160,
    "tro": 661,
    "determining</w>": 2808,
    "agonist</w>": 3933,
    "Gutenberg</w>": 4429,
    "relation": 773,
    "including</w>": 1030,
    ")</w>": 2076,
    "uniquely</w>": 3339,
    "applications</w>": 1641,
    "Joyce</w>": 4246,
    "17th</w>": 2392,
    "air</w>": 4653,
    "reactions</w>": 4156,
    "fields</w>": 3509,
    "Ba": 4317,
    "avlov": 2631,
    "maintenance</w>": 4515,
    "upd": 1727,
    "ash</w>": 1384,
    "undesirable</w>": 3738,
    "wide</w>": 1072,
    "updates</w>": 2583,
    "irrationality</w>": 3824,
    "develop": 508,
    "Allied</w>": 3094,
    "0": 61,
    "4": 65,
    "rhythm</w>": 4632,
    "appar": 1964,
    "amassed</w>": 3846,
    "tifici": 1620,
    "empire</w>": 2429,
    "converting</w>": 2984,
    "ol": 312,
    "just</w>": 3132,
    "deep</w>": 3903,
    "GDP</w>": 2111,
    "sphere</w>": 1194,
    "Hydroelectric</w>": 4374,
    "demand</w>": 1275,
    "view</w>": 2451,
    "3</w>": 504,
    "Ð": 221,
    "Calv": 2711,
    "character": 3177,
    "ess</w>": 726,
    "moun": 3572,
    "\u0011": 30,
    "incor": 3721,
    "charged</w>": 3987,
    "Renaissance</w>": 4248,
    "z": 135,
    "ire</w>": 1075,
    "inci</w>": 3163,
    "ector</w>": 2771,
    "bo": 515,
    "Condens": 3319,
    "Ther": 3951,
    "Africa</w>": 4495,
    "====": 395,
    "instructed</w>": 4231,
    "volved</w>": 3708,
    "Photosynthesis</w>": 4456,
    "64</w>": 4680,
    "electrical</w>": 1864,
    "Col": 832,
    "allows</w>": 1219,
    "collaboration</w>": 3533,
    "ration": 3787,
    "We": 4268,
    "frica</w>": 2320,
    "developers</w>": 3603,
    "i": 118,
    "label": 1698,
    "speciation</w>": 3357,
    "Prob": 3118,
    "rafting</w>": 3792,
    "ARPANET</w>": 4488,
    "consump": 2988,
    "hievements</w>": 1945,
    "ast</w>": 1099,
    "romances</w>": 2425,
    "equal</w>": 3672,
    "opposite</w>": 2485,
    "docum": 1182,
    "millen": 2336,
    "ervan": 3521,
    "Spain</w>": 4617,
    "ong</w>": 829,
    "settings</w>": 2304,
    "triev": 2967,
    "depic": 2805,
    "especially</w>": 2981,
    "computers</w>": 3562,
    "Golgi</w>": 4421,
    "\b": 21,
    "Î": 219,
    "stances</w>": 1284,
    "biom": 3477,
    "Rights</w>": 4253,
    "Dickens</w>": 4383,
    "stronomy</w>": 3716,
    "amma</w>": 3849,
    "m</w>": 322,
    "stort</w>": 3643,
    "equilibrium</w>": 3670,
    "primar": 1797,
    "All": 3098,
    "eful": 2282,
    "unc": 524,
    "Raising</w>": 2741,
    "Algorith": 3096,
    "÷": 260,
    "predominantly</w>": 3374,
    "neuro": 2828,
    "condi": 809,
    "anometers</w>": 4214,
    "proxy</w>": 4055,
    "and": 682,
    "entral</w>": 1016,
    "ked</w>": 1139,
    "interven": 1199,
    "voluntary</w>": 3706,
    "es</w>": 282,
    "Third</w>": 3949,
    "ench</w>": 4200,
    "1939</w>": 3429,
    "Mod": 1431,
    "A": 78,
    "knowledge</w>": 889,
    "multi": 1184,
    "V": 99,
    "ar</w>": 432,
    "alileo</w>": 2751,
    "China</w>": 3246,
    "ever</w>": 3363,
    "amo": 3851,
    "aims</w>": 4649,
    "relax</w>": 3329,
    "thousand</w>": 4207,
    "obj": 913,
    "reli": 740,
    "nine</w>": 4587,
    "identified</w>": 2860,
    "52</w>": 4708,
    "world</w>": 1338,
    "ext</w>": 1976,
    "dicine</w>": 2686,
    "ropy</w>": 1678,
    "apparatus</w>": 2470,
    "overthrew</w>": 2913,
    "experim": 1562,
    "orian</w>": 3322,
    "uses</w>": 632,
    "semiconductor</w>": 2879,
    "Quadratic</w>": 2923,
    "uncountably</w>": 4027,
    "humans</w>": 1820,
    "plifiers</w>": 2702,
    "asserts</w>": 2545,
    "eduling</w>": 2656,
    "involve</w>": 885,
    "prior</w>": 3471,
    "angent</w>": 3777,
    "flexibility</w>": 2557,
    "novel</w>": 1768,
    "directs</w>": 3393,
    "Lexical</w>": 4278,
    "hand</w>": 4554,
    "finding</w>": 2323,
    "specialize</w>": 2573,
    "self</w>": 2300,
    "isol": 1345,
    "layers</w>": 1886,
    "create</w>": 3294,
    "rist": 1377,
    "spaces</w>": 3884,
    "volution</w>": 873,
    "eigen": 2593,
    "eives</w>": 3203,
    "3": 64,
    "op": 364,
    "cess</w>": 797,
    "ostics</w>": 3767,
    "off": 734,
    "36</w>": 4687,
    "Genetic</w>": 4424,
    "ceeds</w>": 1701,
    "ell": 468,
    "ilk</w>": 1880,
    "transmission</w>": 2530,
    "spread</w>": 3880,
    "summing</w>": 3295,
    "leasing</w>": 1918,
    "elestial</w>": 2013,
    "answer</w>": 4221,
    "exports</w>": 3981,
    "routes</w>": 928,
    "leading</w>": 1196,
    "destruction</w>": 1573,
    "roelectric</w>": 4176,
    "Service</w>": 4616,
    "offering</w>": 1739,
    "ensur": 3434,
    "Vectors</w>": 4274,
    "differential</w>": 1234,
    "systems</w>": 490,
    "Divergent</w>": 2376,
    "Greek</w>": 2110,
    "locom": 2262,
    "bled</w>": 2704,
    "Ã": 208,
    "telligence</w>": 1523,
    "capacity</w>": 3202,
    "arises</w>": 2754,
    "'": 52,
    "mom": 2154,
    "reproduce</w>": 4153,
    "ered</w>": 1417,
    "speec": 2810,
    "En": 4346,
    "plan": 935,
    "horizontal</w>": 2314,
    "societies</w>": 2307,
    "onic</w>": 4213,
    "can": 1171,
    "External</w>": 2725,
    "hilosoph": 992,
    "roles</w>": 4179,
    "ancial</w>": 4219,
    "banks</w>": 1541,
    "liberty</w>": 4078,
    "ff": 497,
    "exti": 3985,
    "ains</w>": 791,
    "calcul": 3195,
    "finite</w>": 4544,
    "isms</w>": 1344,
    "ented</w>": 1073,
    "ite</w>": 795,
    "beginning</w>": 2550,
    "requency</w>": 1736,
    "propul": 3530,
    "obbes</w>": 3676,
    "evoke</w>": 3365,
    "be</w>": 609,
    "RAM</w>": 4261,
    "influenced</w>": 1243,
    "·": 196,
    "allow": 909,
    "kes</w>": 1460,
    "Elements</w>": 2386,
    "tinuously</w>": 3050,
    "systema": 1330,
    "Classical</w>": 4417,
    "ces</w>": 620,
    "democratized</w>": 3033,
    "form</w>": 525,
    "sensorimotor</w>": 3081,
    "sten</w>": 4117,
    "\f": 25,
    "ometers</w>": 4072,
    "®": 187,
    "assured</w>": 4012,
    "table</w>": 4646,
    "Ç": 212,
    "uclidean</w>": 1956,
    "capital</w>": 3199,
    "tari": 1509,
    "locomo": 2263,
    "Lowering</w>": 4275,
    "Agricultural</w>": 4490,
    "mu": 4523,
    "skepticism</w>": 4572,
    "\u0003": 16,
    "tal</w>": 856,
    "society</w>": 2308,
    "country</w>": 2597,
    "known</w>": 1764,
    "Group</w>": 2112,
    "Cervantes</w>": 4406,
    "phenom": 1061,
    "replication</w>": 2028,
    "mitochondria</w>": 2579,
    "Conform": 3316,
    "RPANE": 4257,
    "<": 73,
    "cor": 984,
    "Southeast</w>": 4614,
    "millenni": 2337,
    "enabl": 781,
    "Condensation</w>": 3320,
    "roader</w>": 1622,
    "bound</w>": 3594,
    "Exchange</w>": 2726,
    "democrac": 1656,
    "1989</w>": 2565,
    "gric": 3648,
    "Thermodynamics</w>": 3952,
    "Char": 3243,
    "probability</w>": 1027,
    "Ad": 4499,
    "kn": 649,
    "along</w>": 2047,
    "parallel</w>": 3584,
    "infan": 1856,
    "expressed</w>": 1563,
    "knowle": 888,
    "mem": 655,
    "ous": 841,
    "odes</w>": 1347,
    "ed": 1493,
    "iss": 3808,
    "is</w>": 429,
    "innate</w>": 1616,
    "position</w>": 1720,
    "doctr": 2896,
    "borrow": 1542,
    "molecules</w>": 1146,
    "equities</w>": 3671,
    "spherical</w>": 2996,
    "emiconductor</w>": 4112,
    "likelihood</w>": 2442,
    "electronics</w>": 1585,
    "anity</w>": 2067,
    "20</w>": 4666,
    "47</w>": 4693,
    "survive</w>": 2881,
    "elangelo</w>": 4097,
    "roc": 4182,
    "healthcare</w>": 2671,
    "visors</w>": 4004,
    "James</w>": 4247,
    "ights</w>": 1494,
    "und": 424,
    "medical</w>": 3758,
    "transferring</w>": 2531,
    "dimen": 4048,
    "columns</w>": 3537,
    "after</w>": 2248,
    "stages</w>": 2023,
    "sizes</w>": 1569,
    "vehic": 3102,
    "courage</w>": 2540,
    "minimal</w>": 3305,
    "priv": 3472,
    "cipitation</w>": 3618,
    "chec": 3991,
    "ses</w>": 559,
    "masterworks</w>": 3517,
    "fic</w>": 975,
    "different</w>": 1235,
    "ratic</w>": 1340,
    "explorers</w>": 3444,
    "IP</w>": 1447,
    "warding</w>": 2371,
    "inve": 3382,
    "of": 300,
    "able</w>": 438,
    "": 148,
    "princi": 1033,
    "sequential": 3272,
    "goods</w>": 1293,
    "ember</w>": 2434,
    "driving</w>": 2329,
    "Arti": 2698,
    "ë": 248,
    "ception</w>": 2845,
    "Citizen</w>": 4415,
    "kin</w>": 4451,
    "": 150,
    "flexible</w>": 2555,
    "about</w>": 1096,
    "6": 67,
    "avlov</w>": 2632,
    "po": 480,
    "continuous</w>": 1970,
    "same</w>": 1006,
    "perception</w>": 3820,
    "traditional</w>": 3262,
    "walking</w>": 4430,
    "ranges</w>": 1527,
    "metals</w>": 1007,
    "Con": 747,
    "tice</w>": 1088,
    "round": 2043,
    "overthre": 2912,
    "Memory</w>": 4291,
    "propag": 1041,
    "gebra</w>": 1796,
    "neutrophils</w>": 2825,
    "magn": 3086,
    "media</w>": 2818,
    "monsters</w>": 2902,
    "majority</w>": 3519,
    "workload": 2514,
    "income</w>": 4227,
    "mind</w>": 1251,
    "tectonics</w>": 3409,
    "consequences</w>": 3958,
    "determine</w>": 2615,
    "ection</w>": 4663,
    "": 172,
    "asti": 4015,
    "propos": 787,
    "sol": 693,
    "shap": 798,
    "magnetic</w>": 1210,
    "navigat": 2294,
    "travi": 3263,
    "drivers</w>": 4531,
    "ical</w>": 385,
    "social</w>": 845,
    "16</w>": 863,
    "Å": 210,
    "pri": 611,
    "expert</w>": 2782,
    "democratic</w>": 3031,
    "univers": 3336,
    "Ü": 233,
    "countr": 1687,
    "adjacent</w>": 3844,
    "nervous</w>": 2183,
    "ener": 452,
    "Virtue</w>": 2404,
    "focused</w>": 2680,
    "dissolution</w>": 3149,
    "otons</w>": 3214,
    "green</w>": 3226,
    "ex": 334,
    "hyperbolic</w>": 2609,
    "experiments</w>": 2621,
    "displacement</w>": 3153,
    "Working</w>": 3051,
    "complem": 3398,
    "plication</w>": 1985,
    "unlabeled</w>": 4026,
    "elational</w>": 4100,
    "ree</w>": 601,
    "itt": 3668,
    "obedience</w>": 3673,
    "natural</w>": 786,
    "49</w>": 4694,
    "break</w>": 2370,
    "ar": 290,
    "returns</w>": 4141,
    "17</w>": 4710,
    "natur": 581,
    "owner": 3915,
    "amlet</w>": 3845,
    "vapor</w>": 1540,
    "ad</w>": 989,
    "hi": 366,
    "repetitive</w>": 4149,
    "yc": 1458,
    "9</w>": 505,
    "network</w>": 1296,
    "translate</w>": 1873,
    "dissolu": 3148,
    "Bey": 2737,
    "arms</w>": 4167,
    "momentum</w>": 2335,
    "Leonard": 2400,
    "ustrial</w>": 1526,
    "form": 398,
    "advant": 1940,
    "obb": 3675,
    "ter</w>": 520,
    "discovers</w>": 2598,
    "template</w>": 2638,
    "case</w>": 4605,
    "iscient</w>": 3806,
    "Ordinary</w>": 2398,
    "quantum</w>": 3922,
    "readily</w>": 3255,
    "197": 3431,
    "encryption</w>": 1077,
    "behavior</w>": 790,
    "amoun": 3852,
    "byproduct</w>": 4447,
    "capit": 3198,
    "colli": 3538,
    "appl": 1086,
    "Ì": 217,
    "Þ": 235,
    "atomic</w>": 1026,
    "cannot</w>": 1177,
    "trients</w>": 2971,
    "dic": 1471,
    "Ok": 4326,
    "ï": 252,
    "angu": 713,
    "implement</w>": 2517,
    "overeignty</w>": 2909,
    "ì": 249,
    "33</w>": 4686,
    "Colosseum</w>": 3252,
    "ly</w>": 374,
    "char": 810,
    "serv": 755,
    "ale</w>": 4190,
    "deg": 3909,
    "study</w>": 3259,
    "du": 4535,
    "cloud</w>": 2581,
    "volu": 796,
    "ern": 2054,
    "views</w>": 2450,
    "concepts</w>": 2461,
    "theast</w>": 3810,
    "consum": 1090,
    "order</w>": 2957,
    "three</w>": 1123,
    "objects</w>": 1218,
    "utonomous</w>": 2647,
    "": 140,
    "ha": 482,
    "stem": 408,
    "tiz": 1420,
    "ainting</w>": 1840,
    "cessible</w>": 3714,
    "alkali</w>": 4192,
    "ffec": 1843,
    "generally</w>": 3419,
    "12</w>": 866,
    "election</w>": 1875,
    "organel": 3491,
    "ictorian</w>": 4136,
    "Bowlby</w>": 4308,
    "const": 3966,
    "protagonist</w>": 4059,
    ")": 54,
    "W": 100,
    "at": 295,
    "fo": 754,
    "both</w>": 1835,
    "processors</w>": 1825,
    "domestication</w>": 3045,
    "quantifies</w>": 3267,
    "dat": 615,
    "chrom": 3994,
    "show": 1327,
    "expon": 2780,
    "sunlight</w>": 4565,
    "equations</w>": 671,
    "global</w>": 1594,
    "": 144,
    "wo": 2117,
    "mutations</w>": 4520,
    "je": 4362,
    "gh": 343,
    "sleet</w>": 4570,
    "measu": 3275,
    "mortal</w>": 1821,
    "terri": 3856,
    "prop": 568,
    "organize</w>": 1804,
    "celestial</w>": 2199,
    "Hai": 4378,
    "irth</w>": 3825,
    "oscillating</w>": 3769,
    "electron</w>": 1051,
    "": 168,
    "rough": 405,
    "ying</w>": 1457,
    "protects</w>": 1633,
    "structured</w>": 3497,
    "steam</w>": 4122,
    "ports</w>": 3110,
    "conclu": 1566,
    "devi": 3905,
    "ere</w>": 527,
    "verification</w>": 3797,
    "domestic</w>": 1204,
    "internet</w>": 3693,
    "uc": 354,
    "selves</w>": 2301,
    "ensures</w>": 3433,
    "visible</w>": 4005,
    "triangle</w>": 2973,
    "banization</w>": 2707,
    "primary</w>": 3466,
    "ena": 4201,
    "esti": 1101,
    "\u0010": 29,
    "": 164,
    "consumers</w>": 1639,
    "laboration</w>": 3190,
    "Precipitation</w>": 4454,
    "sear": 920,
    "industries</w>": 2932,
    "gentry</w>": 4470,
    "examines</w>": 776,
    "================================================": 2236,
    "therefore</w>": 2947,
    "ang": 400,
    "limits</w>": 1559,
    "ities</w>": 2196,
    "wave</w>": 1775,
    "Empire</w>": 4341,
    "ADPH</w>": 4486,
    "represent": 1626,
    "eu": 4597,
    "produced</w>": 3645,
    "cont": 3970,
    "Mediterranean</w>": 4297,
    "thics</w>": 1418,
    "Hamlet</w>": 4369,
    "range</w>": 2651,
    "5th</w>": 2079,
    "gnor": 2914,
    "parsing</w>": 1828,
    "": 141,
    "dou": 1151,
    "However</w>": 4366,
    "dead</w>": 3904,
    "seman": 1604,
    "vir": 1094,
    "bodies</w>": 1301,
    "up": 768,
    "term</w>": 3859,
    "with": 925,
    "inputs</w>": 2072,
    "68</w>": 4674,
    "source</w>": 1207,
    "traviol": 3264,
    "stored</w>": 3642,
    "er": 278,
    "mod": 534,
    "movement</w>": 1586,
    "moments</w>": 2333,
    "content</w>": 3971,
    "countably</w>": 1690,
    "assembly</w>": 3597,
    "sta": 2024,
    "amics</w>": 1942,
    "ular</w>": 1952,
    "iconductor</w>": 1556,
    "his": 1946,
    "holds</w>": 2170,
    "edy</w>": 2657,
    "cosmo": 2273,
    "displ": 3151,
    "roundwater</w>": 2423,
    "Charles</w>": 3244,
    "connecting</w>": 3344,
    "titu": 2061,
    "right</w>": 1375,
    "could</w>": 3622,
    "ke": 471,
    "hierarchical</w>": 1575,
    "eig": 1704,
    "mills</w>": 2339,
    "manipulates</w>": 3542,
    "engths</w>": 1712,
    "deadliest</w>": 3900,
    "ou": 381,
    "unishment</w>": 4024,
    "gluc": 3223,
    "Colum": 1708,
    "defense</w>": 2802,
    "constraints</w>": 3967,
    "lam</w>": 3746,
    "when</w>": 1054,
    "mechanized</w>": 2904,
    "architec": 3140,
    "educ": 2191,
    "stri": 735,
    "ary</w>": 477,
    ":</w>": 954,
    "AES</w>": 4487,
    "pi": 2137,
    "Calvin</w>": 2712,
    "\u0001": 14,
    "tum</w>": 1271,
    "Systems</w>": 2267,
    "plications</w>": 4009,
    "potential</w>": 2537,
    "shift</w>": 3452,
    "spect</w>": 3560,
    "circuits</w>": 2200,
    "de": 353,
    "performance</w>": 1216,
    "undament": 3277,
    "ven</w>": 1463,
    "perspective</w>": 1576,
    "rid</w>": 3976,
    "extensive</w>": 2459,
    "histic": 2486,
    "Eri": 2100,
    "irable</w>": 1930,
    "lue</w>": 3703,
    "ons</w>": 453,
    "jus": 955,
    "Sy": 2207,
    "etary</w>": 3878,
    "predic": 1757,
    "releasing</w>": 2029,
    "ine</w>": 494,
    "eliefs</w>": 3260,
    "old</w>": 4066,
    "67</w>": 4675,
    "¿": 204,
    "mill": 2147,
    "troubles</w>": 4644,
    "dele": 2689,
    "losing</w>": 3285,
    "Organisms</w>": 2396,
    "magic</w>": 3085,
    "analy": 830,
    "¶": 195,
    "xis</w>": 4392,
    "olog": 488,
    "li": 308,
    "an": 273,
    "includes</w>": 2563,
    "blue</w>": 4440,
    "ocean": 2993,
    "wrong</w>": 4437,
    "synap": 3159,
    "acro": 730,
    "argues</w>": 2559,
    "earthqu": 2873,
    "è": 245,
    "carbon</w>": 1669,
    "be": 516,
    "ambition</w>": 3847,
    "proc": 4056,
    "\u000f": 28,
    "formation</w>": 714,
    "owever</w>": 3911,
    "ditional</w>": 1996,
    "nucleo": 2660,
    "4</w>": 486,
    "metr": 1895,
    "adv": 1939,
    "ments</w>": 2152,
    "sugge": 2508,
    "tenberg</w>": 3186,
    "rom</w>": 396,
    "lu": 456,
    "olf</w>": 4064,
    "shif": 3451,
    "ain": 501,
    "energ": 587,
    "lo": 766,
    "": 143,
    "}": 138,
    "ant": 1127,
    "around</w>": 1174,
    "synthes": 1215,
    "afterma": 2250,
    "Symmetric</w>": 2269,
    "agreements</w>": 2471,
    "degradation</w>": 3901,
    "enew": 1676,
    "sett": 2305,
    "Metallic</w>": 4294,
    "showing</w>": 2821,
    "ili": 499,
    "microwaves</w>": 4513,
    "connect</w>": 3346,
    "non</w>": 4589,
    "curves</w>": 3411,
    "berty</w>": 3124,
    "lide</w>": 4082,
    "tiated</w>": 4211,
    "vertices</w>": 1914,
    "grad": 3646,
    "cer": 1499,
    "worl": 1065,
    "õ": 258,
    "taining</w>": 2833,
    "agre": 1963,
    "must</w>": 4521,
    "producers</w>": 1050,
    "syl": 1935,
    "Georg</w>": 2375,
    "propulsion</w>": 3531,
    "sions</w>": 1087,
    "machine</w>": 1148,
    "complexity</w>": 1661,
    "runs</w>": 2255,
    "dim": 4047,
    "such</w>": 1067,
    "techni": 3041,
    "preferences</w>": 3375,
    "blends</w>": 2706,
    "============================================================": 2238,
    "Oka": 4327,
    "kinner</w>": 4450,
    "like</w>": 449,
    "citizens</w>": 3613,
    "dest": 3907,
    "rewarding</w>": 4148,
    "myths</w>": 4518,
    "read</w>": 3256,
    "rowaves</w>": 3525,
    "conduc": 1370,
    "unpaid</w>": 4022,
    "ousseau</w>": 3219,
    "stand": 1285,
    "socie": 2176,
    "sim": 3947,
    "\u001d": 42,
    "vehicles</w>": 3103,
    "ton</w>": 2224,
    "transforms</w>": 3500,
    "democracy</w>": 1657,
    "ferences</w>": 2894,
    "telescopes</w>": 2641,
    "oSQL</w>": 4510,
    "divine</w>": 2001,
    "1969</w>": 3430,
    "so</w>": 1487,
    "prompting</w>": 4052,
    "tasks</w>": 1173,
    "middle</w>": 3301,
    "rees</w>": 4160,
    "enab": 641,
    "plus</w>": 1984,
    "own": 3914,
    "Asia</w>": 4489,
    "World</w>": 1516,
    "valent</w>": 3552,
    "derivative</w>": 2156,
    "ens": 642,
    "Dualism</w>": 4390,
    "ircu": 1933,
    "Bi": 4313,
    "earth": 2872,
    "implementation</w>": 2519,
    "medi": 1333,
    "Japan": 2408,
    "oppositely</w>": 2484,
    "bots</w>": 1836,
    "property</w>": 3146,
    "colum": 3536,
    "oil</w>": 4511,
    "ions</w>": 1168,
    "¡": 174,
    "interaction</w>": 3692,
    "omn": 4074,
    "ocke</w>": 1953,
    "back</w>": 2122,
    "underl": 3740,
    "text</w>": 2221,
    "offsp": 3330,
    "Hyd": 4373,
    "rates</w>": 767,
    "led</w>": 2212,
    "g</w>": 291,
    "psychology</w>": 998,
    "worldwide</w>": 1198,
    "µ": 194,
    "depl": 1958,
    "oftware</w>": 886,
    "lakes</w>": 3743,
    "r": 127,
    "irm": 3827,
    "establi": 878,
    "Alg": 3095,
    "unlight</w>": 4030,
    "k</w>": 442,
    "velop": 474,
    "section</w>": 3075,
    "those</w>": 2056,
    "mort": 3547,
    "ds</w>": 461,
    "functions</w>": 896,
    "conducted</w>": 2794,
    "hypothes": 2892,
    "dec": 844,
    "vig": 1982,
    "definite</w>": 2800,
    "always</w>": 2045,
    "tery</w>": 3860,
    "imal</w>": 1894,
    "agon": 3932,
    "ass</w>": 1100,
    "alking</w>": 4188,
    "Old</w>": 4325,
    "then</w>": 2058,
    "Data</w>": 2381,
    "extends</w>": 2460,
    "The": 3953,
    "It": 4401,
    "reek</w>": 1551,
    "synta": 3157,
    "tributions</w>": 2970,
    "incorrect</w>": 3722,
    "Git</w>": 4425,
    "overheating</w>": 2906,
    "explor": 625,
    "own</w>": 3913,
    "schemas</w>": 2177,
    "Rationalists</w>": 2744,
    "er</w>": 320,
    "equ": 462,
    "stor": 476,
    "leet</w>": 3802,
    "consciousness</w>": 3961,
    "exhibit</w>": 3980,
    "concept</w>": 2462,
    "da": 4537,
    "supplied</w>": 2574,
    "share</w>": 1326,
    "7": 68,
    "spe": 1354,
    "oyages</w>": 2694,
    "<s>": 1,
    "apar": 3939,
    "distinct</w>": 1999,
    "simultaneously</w>": 3942,
    "learned</w>": 3443,
    "punishment</w>": 4464,
    "ves</w>": 517,
    "elec": 439,
    "Soviet</w>": 1500,
    "dependent</w>": 2617,
    "ural</w>": 4061,
    "F</w>": 4358,
    "de</w>": 557,
    "DNS</w>": 2921,
    "second</w>": 1181,
    "roughly</w>": 1339,
    "@": 77,
    "occurred</w>": 3268,
    "posers</w>": 2354,
    "As": 4501,
    "Di": 2108,
    "Chemical</w>": 3242,
    "stores</w>": 1309,
    "union</w>": 3340,
    "43</w>": 4695,
    "numb": 759,
    "settin": 2302,
    "ently</w>": 1925,
    "silicon</w>": 2465,
    "identifi": 2859,
    "inetic</w>": 3488,
    "random</w>": 4634,
    "aqueducts</w>": 4647,
    "cellular</w>": 3565,
    "um</w>": 986,
    "sugar</w>": 2510,
    "com": 363,
    "infinite</w>": 1313,
    "ot": 842,
    "ters</w>": 987,
    "elling</w>": 3659,
    "turb": 3665,
    "approxim": 1570,
    "interact</w>": 3694,
    "mathematics</w>": 1653,
    "kens</w>": 2129,
    "univer": 3335,
    "configuration</w>": 3963,
    "econ": 637,
    "ames</w>": 1944,
    "chro": 3993,
    "super": 1906,
    "69</w>": 2226,
    "base</w>": 4445,
    "DN": 1135,
    "common</w>": 3496,
    "development</w>": 704,
    "arithme": 1781,
    "photo": 3736,
    "c": 112,
    "independently</w>": 4233,
    "requir": 3327,
    "26</w>": 4669,
    "invas": 3380,
    "bonding</w>": 3122,
    "beh": 3591,
    "trade</w>": 635,
    "unities</w>": 1743,
    "Cold</w>": 1228,
    "forces</w>": 1990,
    "recycling</w>": 3557,
    "forcement</w>": 1561,
    "×": 228,
    "five</w>": 1283,
    "conditioning</w>": 1593,
    "operational</w>": 3005,
    "ic</w>": 362,
    "business</w>": 4438,
    "tions</w>": 337,
    "subduction</w>": 3354,
    "character</w>": 1695,
    "solar</w>": 1754,
    "pa": 688,
    "dev": 1960,
    "reveal</w>": 2764,
    "mini": 3307,
    "characteristic</w>": 3179,
    "incre": 1877,
    "spac": 3883,
    "sensors</w>": 3076,
    "tariff": 2643,
    "struc": 590,
    "exchange</w>": 1093,
    "theories</w>": 1684,
    "troph": 3403,
    "spanning</w>": 1353,
    "peo": 2351,
    "alled</w>": 3640,
    "takes</w>": 3661,
    "extile</w>": 3986,
    "mp": 2155,
    "recessions</w>": 4140,
    "Financial</w>": 4349,
    "th</w>": 357,
    "60</w>": 4676,
    "second": 2884,
    "split</w>": 3881,
    "fies</w>": 2162,
    "judg": 2722,
    "kep": 3652,
    "but</w>": 906,
    "December</w>": 2714,
    "there": 2946,
    "Ñ": 222,
    "compu": 544,
    "in": 272,
    "possible</w>": 2353,
    "created</w>": 1248,
    "X": 101,
    "sis</w>": 808,
    "declined</w>": 3210,
    "ch": 333,
    "ode</w>": 717,
    "mary</w>": 2151,
    "infl": 3657,
    "contributions</w>": 3960,
    "applies</w>": 1592,
    "cycle</w>": 2201,
    "worlds</w>": 3019,
    "undamentally</w>": 3278,
    "reduce</w>": 1625,
    "conform</w>": 3965,
    "\u0004": 17,
    "found": 1013,
    "revolutionary</w>": 4145,
    "ness</w>": 2184,
    "Asymmetric</w>": 4491,
    "likeli": 2440,
    "also</w>": 2046,
    "": 146,
    "enefits</w>": 3136,
    "ological</w>": 1304,
    "gametes</w>": 4471,
    "automate</w>": 3183,
    "sph": 1083,
    "hism</w>": 2488,
    "uni": 727,
    "poe": 3635,
    "oded</w>": 3823,
    "el</w>": 1395,
    "Software</w>": 4620,
    "ories</w>": 2051,
    "syllables</w>": 2501,
    "individual</w>": 1021,
    "Su": 4622,
    "graph": 1253,
    "artificial</w>": 4166,
    "involves</w>": 3386,
    "qu": 350,
    "atur": 563,
    "narratives</w>": 4583,
    "becom": 2362,
    "computing</w>": 1294,
    "taneous</w>": 2253,
    "unreliable</w>": 4029,
    "ology</w>": 583,
    "rivers</w>": 1373,
    "action</w>": 1109,
    "rements</w>": 1624,
    "inci": 915,
    "ic": 294,
    "Quixot": 2926,
    "up</w>": 4643,
    "upon</w>": 1726,
    "oxy": 2341,
    "los": 772,
    "is": 388,
    "esc": 598,
    "towns</w>": 4109,
    "arrative</w>": 2757,
    "webs</w>": 3682,
    "reg": 2032,
    "ythm</w>": 3120,
    "ean</w>": 2192,
    "fork</w>": 4038,
    "reverse</w>": 4152,
    "vid": 411,
    "composed</w>": 3000,
    "dge</w>": 779,
    "Neural</w>": 2613,
    "exploring</w>": 1787,
    "diverse</w>": 4046,
    "roy": 2044,
    "drama": 1536,
    "factory</w>": 3037,
    "tech": 1024,
    "war": 2114,
    "ocrates</w>": 1357,
    "sors</w>": 1486,
    "period</w>": 1745,
    "Scientific</w>": 2247,
    "file</w>": 3507,
    "tatistics</w>": 3662,
    "disk</w>": 3150,
    "supplies</w>": 2575,
    "ilibri": 3609,
    "competed</w>": 3002,
    "that</w>": 392,
    "================": 769,
    "experienced</w>": 2982,
    "titution</w>": 2413,
    "labor</w>": 1697,
    "rocket</w>": 4183,
    "180</w>": 2729,
    "ishment</w>": 2504,
    "reached</w>": 1405,
    "rows</w>": 3523,
    "w": 132,
    "sym": 1076,
    "Noble</w>": 4658,
    "completing</w>": 3394,
    "organized</w>": 3489,
    "languages</w>": 1728,
    "suited</w>": 3771,
    "Bayes</w>": 4319,
    "rice</w>": 4637,
    "perspec": 1346,
    "it</w>": 1496,
    "sens": 976,
    "escartes</w>": 1807,
    "sem": 1162,
    "ocie": 1839,
    "laim": 3744,
    "demonstr": 1792,
    "unds</w>": 1884,
    "histicated</w>": 2487,
    "caregi": 3062,
    "asks</w>": 1098,
    "39</w>": 2227,
    "West</w>": 4264,
    "Rawls</w>": 2746,
    "vers</w>": 839,
    "infanc": 1857,
    "input</w>": 2074,
    "u": 130,
    "its</w>": 498,
    "Supply</w>": 4618,
    "\u0018": 37,
    "shi": 618,
    "software</w>": 1156,
    "made</w>": 2150,
    "compos": 2999,
    "Woolf</w>": 4267,
    "arg": 602,
    "commerce</w>": 1810,
    "single</w>": 4562,
    "sh": 427,
    "ow</w>": 491,
    "individuals</w>": 1020,
    "ousand</w>": 3220,
    "tizens</w>": 2747,
    "ridges</w>": 3973,
    "rain</w>": 1341,
    "v": 131,
    "reliability</w>": 3326,
    "change</w>": 624,
    "powers</w>": 1266,
    "Conditional</w>": 3313,
    "chanted</w>": 2452,
    "spinning</w>": 2480,
    "<Q>": 7,
    "animal</w>": 4222,
    "Roman</w>": 1429,
    "²": 191,
    "ways</w>": 1774,
    "compl": 674,
    "\n": 23,
    "evements</w>": 1752,
    "alized</w>": 2048,
    "R": 95,
    "ential</w>": 668,
    "founded</w>": 3049,
    "mast": 3514,
    "exp": 1380,
    "product</w>": 1311,
    "roads</w>": 1623,
    "principles</w>": 1202,
    "ú": 263,
    "tics</w>": 663,
    "diseases</w>": 1993,
    "roubles</w>": 3830,
    "Islam</w>": 4400,
    "accumul": 1629,
    "mpting</w>": 2332,
    "Lee</w>": 2402,
    "ements</w>": 733,
    "tificial</w>": 1621,
    "metric</w>": 1896,
    "sil": 1968,
    "pass": 1141,
    "double</w>": 1183,
    "destruc": 1359,
    "vergent</w>": 1916,
    "Le": 2088,
    "theory</w>": 630,
    "15th</w>": 4337,
    "lattice</w>": 2260,
    "rounded</w>": 2424,
    "sets</w>": 1901,
    "stemology</w>": 1903,
    "lives</w>": 4083,
    "flec": 1815,
    "electricity</w>": 1863,
    "erve</w>": 1416,
    "Road</w>": 2081,
    "wid": 3814,
    "objec": 914,
    "imm": 1331,
    "graphy</w>": 1590,
    "valr": 1823,
    "vertic": 1913,
    "echan": 995,
    "her": 2173,
    "tu": 622,
    "court</w>": 2541,
    "invasions</w>": 3381,
    "external</w>": 1973,
    "standard</w>": 1287,
    "Wh": 2083,
    "½": 202,
    "Silk</w>": 2205,
    "Heat</w>": 2385,
    "arith": 1780,
    "#": 48,
    "intern": 1320,
    "similar</w>": 3948,
    "lab": 853,
    "Okaz": 4328,
    "sequ": 801,
    "uncer": 1829,
    "]": 106,
    "tial</w>": 2062,
    "ge</w>": 4477,
    "gricultural</w>": 3650,
    "shoc": 3729,
    "snow</w>": 4580,
    "Many</w>": 4298,
    "respect</w>": 4143,
    "silic": 2464,
    "atom": 638,
    "ingle</w>": 4239,
    "Unsupervised</w>": 3133,
    "nu": 4590,
    "kernel</w>": 4449,
    "fragments</w>": 2318,
    "aly": 824,
    "wit": 3816,
    "quanti": 806,
    "emerged</w>": 2436,
    "ersion</w>": 4205,
    "en": 281,
    "ols</w>": 1389,
    "Trans": 1531,
    "path": 3371,
    "transformations</w>": 1039,
    "computational</w>": 3561,
    "pol": 1142,
    " ": 45,
    "side</w>": 3944,
    "met": 843,
    "heliocentric</w>": 2679,
    "cr": 4606,
    "Buddhism</w>": 4316,
    "terary</w>": 3855,
    "ali</w>": 2752,
    "institutions</w>": 2929,
    "tariffs</w>": 2644,
    "duties</w>": 4536,
    "there</w>": 4209,
    "genetic</w>": 4474,
    "ems</w>": 1399,
    "formula</w>": 3783,
    "Index</w>": 2839,
    "hypothesis</w>": 2893,
    "conf": 3968,
    "41</w>": 4700,
    "trad": 2006,
    "RPAN": 4256,
    "angel": 3778,
    "18th</w>": 1546,
    "angelo</w>": 3779,
    "navigate</w>": 2293,
    "fundamentally</w>": 4541,
    "str": 440,
    "programs</w>": 2445,
    "editerranean</w>": 2288,
    "ilar</w>": 3725,
    "neu": 1325,
    "dria</w>": 2330,
    "male</w>": 4512,
    "á": 238,
    "sist</w>": 3943,
    "introduces</w>": 4232,
    "prime</w>": 1276,
    "\u0000": 13,
    "impl": 1891,
    "distribu": 1103,
    "oviet</w>": 1466,
    "shaped</w>": 3279,
    "algebra</w>": 4186,
    "Erikson</w>": 2391,
    "commer": 1809,
    "Statistics</w>": 4615,
    "Ti": 4558,
    "currenc": 3413,
    "transmit": 2527,
    "adli": 3840,
    "pro": 314,
    ":": 71,
    "less</w>": 1172,
    "ductive</w>": 1922,
    "inear</w>": 784,
    "emergence</w>": 2435,
    "worklo": 2513,
    "Its</w>": 4397,
    "Social</w>": 1502,
    "gradation</w>": 3647,
    "faster</w>": 2168,
    "repres": 1113,
    "38</w>": 4683,
    "lor": 1504,
    "doc": 1152,
    "ed</w>": 298,
    "omniscient</w>": 4075,
    "movements</w>": 2836,
    "judge</w>": 2720,
    "techn": 1203,
    "agree</w>": 3930,
    "Ó": 224,
    "connec": 723,
    "templ": 2637,
    "raise</w>": 3786,
    "judgment</w>": 2723,
    "ß": 236,
    "corr": 3057,
    "30</w>": 4685,
    "Dec": 1445,
    "deb": 1959,
    "coherent</w>": 3620,
    "integrates</w>": 3175,
    "Key</w>": 4270,
    "see": 3763,
    "tation</w>": 855,
    "ilgram</w>": 3724,
    "described</w>": 3084,
    "ply</w>": 811,
    "Ind": 1277,
    "planning</w>": 3154,
    "tive</w>": 413,
    "comp": 1082,
    "<BOT>": 10,
    "roo": 4180,
    "mass</w>": 4522,
    "thermal</w>": 2942,
    "stors</w>": 1049,
    "indicat": 2936,
    "bor": 1454,
    "Ancient</w>": 4504,
    "half</w>": 4548,
    "22</w>": 4672,
    "seven</w>": 1899,
    "drasil</w>": 2682,
    "Section</w>": 4712,
    "mei": 3759,
    "corpora</w>": 2604,
    "size</w>": 2797,
    "transl": 3712,
    "make</w>": 1818,
    "magne": 1209,
    "inspired</w>": 4226,
    "ordin": 2958,
    "Revolution</w>": 1190,
    "temperance</w>": 2636,
    "set</w>": 1064,
    "endoplas": 2951,
    "Market</w>": 4288,
    "oc": 355,
    "os": 403,
    "\r": 26,
    "locomotives</w>": 2264,
    "Yg": 4242,
    "problem</w>": 1659,
    "government</w>": 1254,
    "handles</w>": 1532,
    "seeking</w>": 3764,
    "ideals</w>": 2870,
    ".</w>": 280,
    "often</w>": 1257,
    "plays</w>": 2449,
    "overei": 2907,
    "Stream</w>": 2652,
    "likeliho": 2441,
    "ectors</w>": 1558,
    "corrup": 3058,
    "oble</w>": 3674,
    "e</w>": 271,
    "Adaptive</w>": 4500,
    "to": 304,
    "escence</w>": 3494,
    "ble</w>": 686,
    "ated</w>": 450,
    "moral</w>": 1292,
    "aryotic</w>": 2037,
    "ACID</w>": 4484,
    "posi": 792,
    "ved</w>": 966,
    "protection": 2975,
    "ackpropagation</w>": 4096,
    "gatherers</w>": 4479,
    "associ": 1837,
    "mon": 1150,
    "etwor": 522,
    "observable</w>": 1648,
    "ect": 1396,
    "upply</w>": 3287,
    "re": 293,
    "rebirth</w>": 4162,
    "generate</w>": 1265,
    "production</w>": 1853,
    "cells</w>": 585,
    "solved</w>": 1753,
    "Christi": 3239,
    "arged</w>": 3493,
    "psychos": 3111,
    "ple</w>": 812,
    "unctionalism</w>": 3587,
    "of</w>": 302,
    "four</w>": 2160,
    "empiricists</w>": 2432,
    "oman</w>": 1390,
    "querying</w>": 3926,
    "": 158,
    "Newton</w>": 2864,
    "dissol": 3147,
    "class</w>": 3292,
    "receives</w>": 3553,
    "anchoring</w>": 4215,
    "inser": 1618,
    "signals</w>": 1965,
    "55</w>": 4707,
    "vari": 1144,
    "conflict</w>": 3957,
    "Is": 4399,
    "ears</w>": 1602,
    "Kant</w>": 2085,
    "recipitation</w>": 4142,
    "our": 533,
    "conditioned</w>": 2843,
    "alile": 2750,
    "spi": 3887,
    "decl": 3209,
    "Ú": 231,
    "lato</w>": 2261,
    "yths</w>": 3121,
    "row</w>": 2042,
    "timate</w>": 3637,
    "one</w>": 528,
    "code</w>": 982,
    "ws</w>": 2116,
    "monarchy</w>": 2900,
    "tuguese</w>": 3447,
    "advantag": 2492,
    "res": 457,
    "ç": 244,
    "8</w>": 562,
    "ures</w>": 728,
    "scaled</w>": 2887,
    "conc": 1372,
    "requi": 1737,
    "DPH</w>": 4388,
    "each</w>": 760,
    "elivery</w>": 3261,
    "ero</w>": 2053,
    "sail": 3068,
    "obs": 3679,
    "MTP</w>": 4299,
    "rais": 3785,
    "Norse</w>": 4657,
    "": 147,
    "fin": 2164,
    "geopolitical</w>": 3462,
    "tilitarianism</w>": 4210,
    "65</w>": 4679,
    "Galileo</w>": 4422,
    "S</w>": 2208,
    "substances</w>": 3349,
    "enables</w>": 1268,
    "´": 193,
    "gravitational</w>": 3230,
    "esign</w>": 4020,
    "prices</w>": 1034,
    "infec": 1855,
    "inter": 458,
    "olocaust</w>": 4062,
    "average</w>": 4648,
    "Ro": 2080,
    "dure</w>": 3083,
    "water</w>": 608,
    "between</w>": 541,
    "radiation</w>": 2815,
    "wavelengths</w>": 3427,
    "cool</w>": 3625,
    "point</w>": 3634,
    "Trigonometry</w>": 4557,
    "havi": 669,
    "notation</w>": 1769,
    "!": 46,
    "Eu": 1440,
    "me": 415,
    "titutions</w>": 2412,
    "glucose</w>": 3224,
    "unconditioned</w>": 4023,
    "Tim</w>": 4559,
    "renewable</w>": 4636,
    "idsum": 2866,
    "func": 616,
    "than</w>": 827,
    "parameter</w>": 3580,
    "ainst</w>": 3607,
    "fall</w>": 4545,
    "Decl": 2717,
    "sensor": 3078,
    "forced</w>": 2775,
    "outputs</w>": 3015,
    "where</w>": 627,
    "Linked</w>": 4277,
    "Bond</w>": 4310,
    "count</w>": 3168,
    "contain</w>": 1368,
    "dr": 1473,
    "proposed</w>": 1010,
    "Prime</w>": 2359,
    "scales</w>": 2889,
    "Transistors</w>": 2665,
    "al": 284,
    "hysic": 2312,
    "factur": 3453,
    "Greece</w>": 4420,
    "minds</w>": 3306,
    "rowa": 3524,
    "erchants</w>": 4203,
    "digests</w>": 4044,
    "connectivity</w>": 3343,
    "sust": 3775,
    "control</w>": 1640,
    "giving</w>": 3105,
    "versity</w>": 3795,
    "uman</w>": 3866,
    "care": 3061,
    "deloc": 2687,
    "ens</w>": 1121,
    "War</w>": 1132,
    "rapid</w>": 2256,
    "trading</w>": 2444,
    "Helicase</w>": 4364,
    "factors</w>": 3036,
    "L": 89,
    "prox": 4054,
    "tion</w>": 301,
    "\u0016": 35,
    "rou": 372,
    "deci": 1706,
    "satiriz": 3072,
    "$": 49,
    "Inductive</w>": 3483,
    "<CLS>": 12,
    "complementary</w>": 3400,
    "devices</w>": 2474,
    "material</w>": 1664,
    "agn": 3936,
    "valry</w>": 2552,
    "ema": 4114,
    "Bu": 4315,
    "Ionic</w>": 4394,
    "ls</w>": 2214,
    "actions</w>": 818,
    "oca": 3898,
    "justs</w>": 2721,
    "44</w>": 4698,
    "50</w>": 4703,
    "passes</w>": 1612,
    "nets</w>": 1881,
    "integer</w>": 3040,
    "occur</w>": 1716,
    "exceeds</w>": 1972,
    "speed</w>": 1574,
    "iconservative</w>": 2766,
    "asser": 1838,
    "ency</w>": 931,
    "median</w>": 2817,
    "­": 186,
    "it": 463,
    "populated</w>": 3233,
    "sequence</w>": 3274,
    "premis": 3378,
    "illi": 3726,
    "subatomic</w>": 3350,
    "ilitary</w>": 2835,
    "roub": 3829,
    "ju": 1442,
    "nucleotid": 2662,
    "": 165,
    "ating</w>": 679,
    "tree</w>": 2223,
    "relationship</w>": 1725,
    "ors</w>": 680,
    "formul": 3782,
    "pu": 431,
    "Á": 206,
    "erivative</w>": 1711,
    "groundwater</w>": 4472,
    "»": 200,
    "mathematical</w>": 1652,
    "estment</w>": 1730,
    "gi</w>": 3107,
    "acking</w>": 4090,
    "nion</w>": 1272,
    "ther</w>": 549,
    "taneously</w>": 2252,
    "node</w>": 4586,
    "pathog": 3372,
    "tinu": 1005,
    "flourished</w>": 3503,
    "î": 251,
    "our</w>": 1300,
    "========================================================": 2237,
    "/</w>": 2075,
    "quantities</w>": 1240,
    "adaptive</w>": 2496,
    "ku": 2130,
    "HTTP</w>": 4376,
    "Exploration</w>": 2728,
    "Columbus</w>": 2589,
    "grees</w>": 3228,
    "q": 126,
    "or</w>": 399,
    ";": 72,
    "vidence</w>": 1898,
    "{": 136,
    "utilitarianism</w>": 4642,
    "Bay": 4318,
    "gnorance</w>": 2915,
    "nucle": 1488,
    "net</w>": 918,
    "ardware</w>": 1680,
    "sible</w>": 1365,
    "theon</w>": 3811,
    "raw</w>": 1912,
    "emphasizing</w>": 2768,
    "62</w>": 4681,
    "rivalry</w>": 3972,
    "syntax</w>": 3158,
    "magnitu": 3088,
    "as": 324,
    "buil": 1048,
    "identi": 1178,
    "deals</w>": 1957,
    "fa": 2167,
    "argued</w>": 2558,
    "opernicus</w>": 3008,
    "unction": 3586,
    "¯": 188,
    "approximately</w>": 2620,
    "alizing</w>": 4185,
    "eting</w>": 1351,
    "hot</w>": 2675,
    "ickens</w>": 4132,
    "exical</w>": 1975,
    "companies</w>": 3004,
    "distances</w>": 1995,
    "40</w>": 2228,
    "Ä": 209,
    "au": 860,
    "illating</w>": 2830,
    "fig": 1816,
    "vap": 1464,
    "chlor": 1978,
    "hoto": 2672,
    "cre": 763,
    "organ": 603,
    "Cantor</w>": 4408,
    "~": 139,
    "polic": 1186,
    "choring</w>": 3990,
    "erves</w>": 4206,
    "ard": 945,
    "Formal</w>": 4353,
    "foundations</w>": 3047,
    "x</w>": 746,
    "Pro": 960,
    "ict": 4135,
    "\u0002": 15,
    "painting</w>": 2133,
    "1440</w>": 2730,
    "great</w>": 3227,
    "trophic</w>": 3404,
    "condition": 1237,
    "networking</w>": 3567,
    "min": 750,
    "stre": 4118,
    "onetary</w>": 4212,
    "Age</w>": 4482,
    "\u0015": 34,
    "Matrices</w>": 4290,
    "tivity</w>": 868,
    "scal": 1157,
    "Monetary</w>": 4286,
    "It</w>": 4398,
    "sw": 2181,
    "rela": 738,
    "Â": 207,
    "gradi": 3231,
    "Wind</w>": 4263,
    "geometry</w>": 1692,
    "roman": 2041,
    "frequency</w>": 2159,
    "tured</w>": 3448,
    "atomy</w>": 3438,
    "rem": 1115,
    "Logic</w>": 4276,
    "proces": 546,
    "entation</w>": 1926,
    "entr": 743,
    "chan": 1979,
    "demanded</w>": 3458,
    "neurotransmitters</w>": 2829,
    "consumer</w>": 2987,
    "Pavlov</w>": 4457,
    "follow</w>": 2325,
    "modern</w>": 1299,
    "centur": 981,
    "Û": 232,
    "le": 389,
    "apping</w>": 1239,
    "telesc": 2639,
    "±": 190,
    "tran": 419,
    "atoms</w>": 1783,
    "International</w>": 3481,
    "political</w>": 1305,
    "exponential</w>": 2781,
    "aget</w>": 3929,
    "owlby</w>": 3918,
    "consid": 2791,
    "ste": 4120,
    "reinforcement</w>": 4150,
    "tic</w>": 423,
    "fficient</w>": 3169,
    "environmental</w>": 2954,
    "web</w>": 3683,
    "14th</w>": 2731,
    "laimed</w>": 3745,
    "dams</w>": 4532,
    "these</w>": 893,
    "tract</w>": 2005,
    "esp": 1102,
    "Be": 1433,
    "navig": 2187,
    "object</w>": 3165,
    "logistics</w>": 3192,
    "sequentialist</w>": 3273,
    "inflation</w>": 3658,
    "undam": 799,
    "oes</w>": 2145,
    "rigonometry</w>": 3979,
    "tel": 1511,
    "Bo": 4311,
    "analyz": 1709,
    "harness</w>": 4549,
    "come</w>": 3876,
    "soil</w>": 4560,
    "collec": 1201,
    "then": 2059,
    "stract</w>": 3718,
    "canic</w>": 2865,
    "partial</w>": 3581,
    "behind</w>": 3592,
    "Develop": 1674,
    "35</w>": 4688,
    "magnitude</w>": 3089,
    "well</w>": 4433,
    "ars": 4171,
    "agreement</w>": 2472,
    "ffect</w>": 2543,
    "spinal</w>": 2481,
    "Process</w>": 3115,
    "hys": 2172,
    "º": 199,
    "dist": 1998,
    "inte": 645,
    "<pad>": 0,
    "Narrative</w>": 4660,
    "1980s</w>": 2564,
    "approximat": 2619,
    "migr": 3302,
    "af": 2225,
    "reduc": 1114,
    "Prokaryotic</w>": 3114,
    "reation</w>": 4157,
    "H</w>": 4380,
    "folk": 2326,
    "mediate</w>": 2816,
    "across</w>": 775,
    "establish": 879,
    "was</w>": 1136,
    "hierarch": 1350,
    "vie": 1983,
    "security</w>": 2847,
    "engine</w>": 3254,
    "manu": 3545,
    "corruption</w>": 3059,
    "valu": 788,
    "Descriptive</w>": 4384,
    "Shakespeare</w>": 2206,
    "stories</w>": 1852,
    "ight</w>": 4600,
    "lack</w>": 4629,
    "countab": 1689,
    "gods</w>": 4475,
    "econom": 894,
    "involuntary</w>": 3384,
    "Sonnets</w>": 4619,
    "potenti": 2538,
    "universal</w>": 3337,
    "Choos": 3248,
    "rain": 3789,
    "are</w>": 376,
    "tification</w>": 2940,
    "measured</w>": 3276,
    "ousse": 3218,
    "facturing</w>": 3454,
    "olic</w>": 1388,
    "cosmos</w>": 2274,
    "joined</w>": 4361,
    "workloads</w>": 2515,
    "mental</w>": 691,
    "sample</w>": 3205,
    "umber</w>": 3401,
    "gests</w>": 3459,
    "subsequent</w>": 1747,
    "strand</w>": 1057,
    "endo": 2949,
    "D": 81,
    "outheast</w>": 3812,
    "nutrients</w>": 4591,
    "focuses</w>": 1534,
    "exten": 1974,
    "while</w>": 575,
    "arwin</w>": 4170,
    "prising</w>": 3467,
    "culus</w>": 1264,
    "does</w>": 4528,
    "Cal": 1450,
    "%": 50,
    "compilation</w>": 2998,
    "territ": 3857,
    "B": 79,
    "Mythology</w>": 4300,
    "posit": 1721,
    "G": 84,
    "some</w>": 4577,
    "as</w>": 391,
    "t</w>": 286,
    "serves</w>": 4563,
    "angl": 3780,
    "<USER>": 9,
    "In": 607,
    "se": 410,
    "ts</w>": 318,
    "": 167,
    "neutral</w>": 2827,
    "olgi</w>": 4063,
    "ustries</w>": 2650,
    "U": 98,
    "als</w>": 433,
    "enchanted</w>": 4199,
    "nucleus</w>": 2658,
    "ó": 256,
    "eful</w>": 2283,
    "comb": 1950,
    "achievements</w>": 2011,
    "rationality</w>": 3788,
    "st": 299,
    "solving</w>": 1256,
    "onomous</w>": 2410,
    "Wide</w>": 4262,
    "slide</w>": 4564,
    "popular</w>": 3234,
    "through": 412,
    "Artificial</w>": 2696,
    "dily</w>": 1997,
    "syllogism</w>": 2503,
    "changes</w>": 1832,
    "arra": 1410,
    "emphas": 1398,
    "infr": 1859,
    "ormal</w>": 2050,
    "Chem": 3241,
    "ation</w>": 325,
    "ku</w>": 2361,
    "Berners</w>": 4309,
    "aftermath</w>": 2251,
    "unwin": 4033,
    "subs": 3355,
    "scaling</w>": 2888,
    "human</w>": 623,
    "66</w>": 4678,
    "streams</w>": 4119,
    "II</w>": 4395,
    "Deon": 3127,
    "¼": 201,
    "entropy</w>": 1924,
    "bound": 1044,
    "forc": 1386,
    "si": 342,
    "logic</w>": 1223,
    "domain</w>": 3298,
    "after": 2249,
    "ø": 261,
    "turns</w>": 3664,
    "sources</w>": 1671,
    "shor": 3731,
    "fi": 579,
    "terti": 3861,
    "par": 532,
    "foundational</w>": 3046,
    "physics</w>": 3532,
    "anded</w>": 1762,
    "ordinary</w>": 2955,
    "colliding</w>": 3539,
    "P</w>": 550,
    "explored</w>": 3445,
    "tures</w>": 707,
    "ritain</w>": 1374,
    "Datab": 2379,
    "countries</w>": 2596,
    "thes": 643,
    "pho": 3735,
    "population</w>": 1227,
    "chromosome</w>": 3995,
    "performing</w>": 1683,
    "every</w>": 1491,
    "superpowers</w>": 2512,
    "using</w>": 594,
    "ms</w>": 751,
    "authority</w>": 1222,
    "b": 111,
    "sel": 2179,
    "oceans</w>": 1643,
    "algae</w>": 3138,
    "au</w>": 3184,
    "store</w>": 3644,
    "distance</w>": 4043,
    "compet": 3001,
    "ware</w>": 748,
    "insertions</w>": 1619,
    "systematically</w>": 2820,
    "uclide": 1955,
    "builds</w>": 3021,
    "biomass</w>": 3478,
    "fix</w>": 3506,
    "ent": 379,
    "Bastille</w>": 4307,
    "direc": 676,
    "ain</w>": 1513,
    "timul": 1307,
    "red</w>": 741,
    "diagnostics</w>": 4040,
    "enalizing</w>": 4197,
    "organiz": 1278,
    "highly</w>": 3009,
    "imals</w>": 3750,
    "glass</w>": 3222,
    "ir": 373,
    "ideological</w>": 2869,
    "Altern": 3091,
    "27</w>": 4665,
    "commonly</w>": 3495,
    "meas": 800,
    "cur": 659,
    "les</w>": 446,
    "t": 129,
    "(</w>": 2077,
    "Transform</w>": 2626,
    "blen": 2705,
    "complement": 3399,
    "postul": 3631,
    "adratic</w>": 1937,
    "approach": 2798,
    "unprecedented</w>": 4036,
    "Eigenvalues</w>": 4342,
    "arise</w>": 2755,
    "ceramics</w>": 2653,
    "evaluate</w>": 2292,
    "inary</w>": 1426,
    "Attachment</w>": 4509,
    "progr": 2002,
    "adaptation</w>": 2495,
    "cho": 3996,
    "brea": 2123,
    "Deep</w>": 3126,
    "body</w>": 2119,
    "ñ": 254,
    "Decom": 2715,
    "rule</w>": 4641,
    "TCP</w>": 1482,
    "religions</w>": 3325,
    "Gu": 4428,
    "through</w>": 422,
    "umb": 673,
    "converts</w>": 2985,
    "a": 110,
    "onomy</w>": 2411,
    "sight</w>": 3945,
    "tellig": 1522,
    "fe": 2165,
    "clouds</w>": 2580,
    "integrity</w>": 3039,
    "liquid</w>": 4076,
    "Ra": 1430,
    "coun": 907,
    "reflecting</w>": 2427,
    "corpor": 1667,
    "rowth</w>": 899,
    "rang": 1505,
    "alga": 3137,
    "ate</w>": 404,
    "o": 124,
    "\u001f": 44,
    "representing</w>": 2608,
    "Each</w>": 2099,
    "ks</w>": 470,
    "Machine</w>": 4301,
    "vels</w>": 3720,
    "elements</w>": 2014,
    "ustri": 1506,
    "ID</w>": 4393,
    "und</w>": 936,
    "yp": 576,
    "remaind": 2962,
    "initiated</w>": 4241,
    "mi": 752,
    "vision</w>": 1382,
    "langu": 765,
    "determin": 2807,
    "ability</w>": 597,
    "izon": 1905,
    "late</w>": 851,
    "checked</w>": 3992,
    "abandons</w>": 4007,
    "eri": 826,
    "¾": 203,
    "reedom": 2762,
    "flict</w>": 3501,
    "Æ": 211,
    "199": 1776,
    "autom": 3182,
    "med": 3757,
    "Primary</w>": 2358,
    "unp": 4035,
    "ilit": 1303,
    "The</w>": 348,
    "transport</w>": 2524,
    "sistors</w>": 1364,
    "Descartes</w>": 2106,
    "remain": 2961,
    "called</w>": 4603,
    "El": 2101,
    "iry</w>": 3826,
    "insworth</w>": 2931,
    "valid</w>": 1822,
    "wea": 3686,
    "algorithms</w>": 1665,
    "out</w>": 591,
    "hand": 1478,
    "few</w>": 2321,
    "democr": 1655,
    "market</w>": 1263,
    "ater</w>": 514,
    "secondary</w>": 2885,
    "provided</w>": 3595,
    "acrophages</w>": 3333,
    "against</w>": 3927,
    "stu": 821,
    "high": 1080,
    "certain</w>": 1529,
    "Compilers</w>": 2629,
    "postulate</w>": 3632,
    "research</w>": 1407,
    "lifespan</w>": 3143,
    "Du": 4389,
    "propagand": 3025,
    "pathogens</w>": 3373,
    "organelles</w>": 3492,
    "28</w>": 4664,
    "management</w>": 1290,
    "Web</w>": 4269,
    "farming</w>": 2158,
    "Famous</w>": 4351,
    "conn": 722,
    "oxide</w>": 2340,
    "ori": 742,
    "valric</w>": 2551,
    "biases</w>": 3474,
    "coloring</w>": 3534,
    "cultural</w>": 1766,
    "phys": 565,
    "": 142,
    "bec": 2125,
    "gradients</w>": 3232,
    "heal": 2668,
    "numbers</w>": 1012,
    "eign</w>": 2592,
    "meio": 3760,
    "Germany</w>": 4418,
    "networked</w>": 3566,
    "ximize</w>": 2713,
    "billions</w>": 4439,
    "cl": 764,
    "biological</w>": 1799,
    "": 154,
    "tional</w>": 572,
    "know</w>": 3425,
    "charac": 870,
    "inequities</w>": 4228,
    "Ë": 216,
    "Poetry</w>": 2357,
    "Good</w>": 4427,
    "ices</w>": 600,
    "arration</w>": 2039,
    "welding</w>": 4431,
    "\u0017": 36,
    "more</w>": 901,
    "final</w>": 2324,
    "etallic</w>": 3877,
    "Modern</w>": 1550,
    "avlo": 2630,
    "": 151,
    "datas": 3455,
    "quadratic</w>": 3921,
    "Cl": 4416,
    "modeling</w>": 1763,
    "dependently</w>": 2616,
    "data</w>": 783,
    "before</w>": 3589,
    "ddhism</w>": 2683,
    "Human</w>": 4368,
    "planar</w>": 3155,
    "probl": 1028,
    "unter</w>": 4031,
    "leads</w>": 3018,
    "at</w>": 361,
    "siz": 1366,
    "capture</w>": 1702,
    "fication</w>": 2161,
    "interm": 3697,
    "opern": 3006,
    "generated</w>": 3420,
    "loc": 2211,
    "Inn": 3486,
    "atmosphere</w>": 4124,
    "fundamental</w>": 1153,
    "0s</w>": 2090,
    "n</w>": 483,
    "road": 1117,
    "apparent</w>": 2468,
    "adol": 3838,
    "chaos</w>": 4002,
    "Mesopotamia</w>": 4293,
    "178": 2393,
    "imag": 1890,
    "complement</w>": 3395,
    "spher": 2995,
    "done</w>": 4533,
    "exam": 724,
    "ind": 1128,
    "special": 1748,
    "no</w>": 2185,
    "resulting</w>": 2533,
    "explore</w>": 3446,
    "very</w>": 1069,
    "short": 3732,
    "ize</w>": 710,
    "macrophages</w>": 4517,
    "heat</w>": 2667,
    "Sym": 2268,
    "usin": 3894,
    "secon": 1158,
    "manage</w>": 3544,
    "ring</w>": 2219,
    "earthquakes</w>": 2875,
    "Unlike</w>": 3134,
    "transistors</w>": 1887,
    "losoph": 990,
    "BCE</w>": 2093,
    "observ": 1052,
    "chloro": 2457,
    "barle": 2709,
    "outcomes</w>": 3017,
    "sing</w>": 1164,
    "olds</w>": 2003,
    "offspring</w>": 3331,
    "anglement</w>": 3781,
    "ss</w>": 758,
    "Danish</w>": 4381,
    "imaging</w>": 2520,
    "elimination</w>": 4098,
    "tarianism</w>": 2646,
    "Philosophers</w>": 4455,
    "Don</w>": 4386,
    "for": 317,
    "eng": 825,
    "betwe": 540,
    "better</w>": 3585,
    "adjusts</w>": 3834,
    "symbolized</w>": 3014,
    "communities</w>": 1808,
    "cessions</w>": 3715,
    "Cryptography</w>": 4410,
    "chivalric</w>": 3999,
    "key</w>": 910,
    "ational</w>": 859,
    "Transactions</w>": 2625,
    "markets</w>": 887,
    "interconnect</w>": 3689,
    "explains</w>": 1302,
    "witch": 3817,
    "marke": 665,
    "cal": 849,
    "first</w>": 1474,
    "shar": 1882,
    "ilibrium</w>": 3610,
    "sum</w>": 3774,
    "Inter": 1801,
    "forest</w>": 4037,
    "Hobbes</w>": 4370,
    "folklore</w>": 2328,
    "cip": 3616,
    "Neur": 1600,
    "identity</w>": 2861,
    "erv": 574,
    "hak": 1848,
    "implem": 2518,
    "acceler": 1632,
    "BCE": 2092,
    "tic": 339,
    "result</w>": 2534,
    "New</w>": 2862,
    "semantic</w>": 1605,
    "54</w>": 2229,
    "grid</w>": 4468,
    "accum": 1628,
    "therapy</w>": 2945,
    "forming</w>": 3784,
    "money</w>": 1607,
    "enable</w>": 2052,
    "typically</w>": 1525,
    "spen": 3885,
    "quare</w>": 3924,
    "6th</w>": 4245,
    "pplications</w>": 4465,
    "edience</w>": 2285,
    "United</w>": 1213,
    "exploration</w>": 1786,
    "execute</w>": 3984,
    "34</w>": 4689,
    "Differ": 2377,
    "semiconservative</w>": 2878,
    "lengths</w>": 4628,
    "integral</w>": 1693,
    "pe": 2136,
    "experiment</w>": 2622,
    "At</w>": 4498,
    "masterwor": 3516,
    "ucli": 1954,
    "lexical</w>": 4626,
    "hysicalism</w>": 2313,
    "conver": 1091,
    "ut": 1507,
    "democra": 3032,
    "allowing</w>": 3167,
    "000</w>": 4285,
    "benefits</w>": 4442,
    "wor": 409,
    "sati": 3070,
    "mov": 1298,
    "Database</w>": 2380,
    "rigon": 3978,
    "education</w>": 2289,
    "attery</w>": 4123,
    "nitive</w>": 895,
    "flow</w>": 3504,
    "square</w>": 4567,
    "access</w>": 941,
    "reb": 4161,
    "boundar": 1045,
    "eriv": 1710,
    "transforming</w>": 1811,
    "Libertari": 2244,
    "Deductive</w>": 3125,
    "datasets</w>": 3457,
    "\\": 105,
    "cell</w>": 1826,
    "geopo": 3461,
    "hyper": 1606,
    "owl": 3917,
    "classical</w>": 1591,
    "mimics</w>": 4514,
    "multiple</w>": 1185,
    "interpreting</w>": 3688,
    "during</w>": 1208,
    "sensorim": 3079,
    "orith": 881,
    "entry</w>": 3321,
    "Deonto": 3128,
    "viron": 1095,
    "K": 88,
    "ag": 346,
    "ance</w>": 644,
    "rel": 1409,
    "ome</w>": 2007,
    "helix</w>": 1533,
    "lookup</w>": 3291,
    "areas</w>": 4175,
    "military</w>": 4519,
    "model</w>": 1262,
    "spin": 1951,
    "Ord": 2397,
    "prin": 3464,
    "\u001b": 40,
    "respon": 943,
    "appli": 1238,
    "correlated</w>": 3055,
    "participate</w>": 3170,
    "advantage": 2493,
    "unit</w>": 3341,
    "remains</w>": 2960,
    "link</w>": 4624,
    "prob": 634,
    "Po": 2132,
    "Poetr": 2356,
    "their</w>": 542,
    "": 161,
    "ocial</w>": 586,
    "ines</w>": 605,
    "freed</w>": 4539,
    "supply</w>": 884,
    "temper": 2635,
    "gram</w>": 1008,
    "tainty</w>": 1584,
    "infer": 3655,
    "photovoltaic</w>": 3737,
    "populations</w>": 3235,
    "emer": 2017,
    "atomicity</w>": 3437,
    "ignorance</w>": 4599,
    "individu": 683,
    "j": 119,
    "tin": 858,
    "degree</w>": 3910,
    "reserve</w>": 3699,
    "vi": 328,
    "Evaporation</w>": 4340,
    "grow</w>": 4473,
    "astronomy</w>": 4650,
    "borrowers</w>": 2623,
    "tur": 464,
    "we": 459,
    "ained</w>": 1841,
    "substrates</w>": 3352,
    "Portuguese</w>": 4453,
    "Socrates</w>": 1501,
    "De": 956,
    "exposures</w>": 2777,
    "sequential</w>": 3270,
    "sustained</w>": 3776,
    "": 159,
    "mer": 1469,
    "precious</w>": 2569,
    "conduction</w>": 2795,
    "established</w>": 880,
    "se</w>": 694,
    "relationships</w>": 1011,
    "memb": 1771,
    "Inferential</w>": 3482,
    "ex</w>": 1977,
    "us</w>": 621,
    "cotton</w>": 3627,
    "Ecosystems</w>": 4338,
    "ties</w>": 493,
    "mid</w>": 3304,
    "": 156,
    "ticulum</w>": 3956,
    "know": 664,
    "variable</w>": 1610,
    "reduci": 2965,
    "enabled</w>": 3284,
    "love</w>": 1245,
    "ittency</w>": 3669,
    "ei": 847,
    "life</w>": 1214,
    "under</w>": 1883,
    "Jap": 2078,
    "elicase</w>": 4104,
    "olecules</w>": 1106,
    "operations</w>": 1644,
    "because</w>": 2365,
    "propagate</w>": 3027,
    "meiosis</w>": 3761,
    "arw": 4169,
    "connected</w>": 1252,
    "attacking</w>": 4130,
    "tri": 1107,
    "stan": 570,
    "Deontolog": 3129,
    ".": 59,
    "Columbian</w>": 2587,
    "arbitrary</w>": 4163,
    "fiel": 3508,
    "developed</w>": 1047,
    "blic</w>": 2703,
    "ep</w>": 1166,
    "ally</w>": 548,
    "gener": 652,
    "============================================================</w>": 2239,
    "themes</w>": 3361,
    "useful</w>": 3893,
    "lines</w>": 4630,
    "ä": 241,
    "Renewable</w>": 4252,
    "ams</w>": 1348,
    "ometry</w>": 1742,
    "increasing</w>": 1876,
    "owering</w>": 3912,
    "includ": 1785,
    "mpire</w>": 2331,
    "Autonomous</w>": 4493,
    "used</w>": 1084,
    "factoring</w>": 3035,
    "add": 1079,
    "oce": 1085,
    "ir</w>": 506,
    "tow": 4108,
    "58</w>": 4701,
    "reasing</w>": 1714,
    "impossible</w>": 3748,
    "Battery</w>": 4305,
    "sup": 712,
    "53</w>": 4705,
    "exper": 1379,
    "compil": 2997,
    "indecision</w>": 4234,
    "-": 58,
    "constan": 1369,
    "issu": 1919,
    "culpture</w>": 3416,
    "quantity</w>": 1715,
    "ddle</w>": 2685,
    "astil": 4016,
    "tables</w>": 2222,
    "Supervised</w>": 4623,
    "immun": 1332,
    "Merchants</w>": 4287,
    "An</w>": 4497,
    "funds</w>": 4543,
    "Over</w>": 4324,
    "environment</w>": 1191,
    "begin": 2549,
    "graphs</w>": 2840,
    "defic": 2803,
    "fleeting</w>": 4540,
    "facilit": 1790,
    "'</w>": 1443,
    "ond</w>": 2066,
    "bit</w>": 3480,
    "RPANET</w>": 4258,
    "l": 121,
    "remainders</w>": 2963,
    "poetic</w>": 3636,
    "gases</w>": 4476,
    "down</w>": 4526,
    "flexib": 2556,
    "effects</w>": 4593,
    "Ear": 1134,
    "techniques</w>": 3043,
    "relationshi": 774,
    "Europ": 1441,
    "ist</w>": 1920,
    "tock</w>": 4111,
    "syllog": 2502,
    "binary</w>": 4443,
    "ing": 4238,
    "issance</w>": 3809,
    "enef": 3135,
    "acted</w>": 4091,
    "imager": 2521,
    "æ": 243,
    "ke</w>": 414,
    "ber": 957,
    "periodic</w>": 3348,
    "quid</w>": 3923,
    "Italy</w>": 4402,
    "run": 2218,
    "Chri": 3237,
    "the": 384,
    "passwor": 2918,
    "apparat": 2469,
    "eigenvectors</w>": 2595,
    "Colosse": 3251,
    "Okazaki</w>": 4332,
    "into</w>": 604,
    "and</w>": 289,
    "reason": 1231,
    "collects</w>": 2851,
    "Ci": 4414,
    "reflect</w>": 2428,
    "providing</w>": 3596,
    "ice</w>": 1112,
    "chemical</w>": 883,
    "within</w>": 3161,
    "antiderivative</w>": 3390,
    "lagging</w>": 4625,
    "sion</w>": 596,
    "philosophy</w>": 2134,
    "na": 2186,
    "al</w>": 296,
    "included</w>": 2562,
    "perform</w>": 3822,
    "complex": 1022,
    "crust</w>": 4607,
    "dominantly</w>": 3300,
    "While</w>": 4265,
    "trieval</w>": 2968,
    "basis</w>": 1613,
    "51</w>": 4709,
    "ern</w>": 950,
    "Al": 968,
    "aryo": 2036,
    "imagery</w>": 2522,
    "ga": 4478,
    "ve</w>": 344,
    "durability</w>": 3082,
    "decol": 3206,
    "E": 82,
    "ose</w>": 1066,
    "insight</w>": 4224,
    "demonstrated</w>": 1793,
    "³": 192,
    "techniqu": 3042,
    "Theorem</w>": 3955,
    ",": 57,
    "illions</w>": 3727,
    "ffects</w>": 2542,
    "healthc": 2670,
    "determines</w>": 2614,
    "dramatically</w>": 1537,
    "geb": 1794,
    "od</w>": 654,
    "andom": 3388,
    "stud": 3258,
    "T</w>": 2174,
    "Pantheon</w>": 4452,
    "destructive</w>": 2809,
    "Big</w>": 4314,
    "ucle": 1358,
    "requirements</w>": 1738,
    "Developmental</w>": 2601,
    "Early</w>": 2922,
    "ules</w>": 804,
    "Ø": 229,
    "Libertarians</w>": 2245,
    "ob</w>": 3681,
    "factories</w>": 3034,
    "nodes</w>": 1489,
    "saw</w>": 1670,
    "applied</w>": 2842,
    "Th": 341,
    "dom": 753,
    "vidu": 672,
    "protec": 1104,
    "savers</w>": 3067,
    "tru": 4070,
    "cold</w>": 3540,
    "adj": 3842,
    "instantaneous</w>": 4230,
    "ensure</w>": 3435,
    "ene": 949,
    "medicine</w>": 3754,
    "Optimization</w>": 4334,
    "¦": 179,
    "age</w>": 509,
    "Cape</w>": 4405,
    "asthenosphere</w>": 4013,
    "Reinforcement</w>": 2928,
    "meaning</w>": 1337,
    "Theor": 3954,
    "Athenian</w>": 4494,
    "control": 1089,
    "Cond": 3318,
    "graph</w>": 1018,
    "<mask>": 4,
    "sculpture</w>": 4573,
    "lizations</w>": 1560,
    "9": 70,
    "estial</w>": 1636,
    "ility</w>": 564,
    "Tran": 1483,
    "veri": 3796,
    "outcom": 3016,
    "royal</w>": 2422,
    "tational</w>": 1865,
    "sailing</w>": 3069,
    "plates</w>": 1383,
    "te": 539,
    "Q": 94,
    "economic</w>": 1004,
    "ps</w>": 963,
    "": 145,
    "ici": 639,
    "emo": 1400,
    "organic</w>": 3490,
    "tif": 1126,
    "tools</w>": 2015,
    "perform": 927,
    "mathema": 1040,
    "havior</w>": 778,
    "specialization</w>": 2572,
    "\u0014": 33,
    "Ration": 2742,
    "likely</w>": 2439,
    "espan</w>": 2978,
    "neuron</w>": 3162,
    "matrix</w>": 3310,
    "modification</w>": 3575,
    "omadic</w>": 4073,
    "increases</w>": 1878,
    "immune</w>": 2819,
    "globe</w>": 2844,
    "argumentation</w>": 3028,
    "accumulation</w>": 1630,
    "living</w>": 2008,
    "mode</w>": 3576,
    "shocks</w>": 3730,
    "strict</w>": 3717,
    "trol": 1023,
    "many</w>": 1291,
    "mit</w>": 1733,
    "UDP</w>": 4321,
    "Epistemology</w>": 4344,
    "At": 4507,
    "measures</w>": 871,
    "verse</w>": 1343,
    "facilitated</w>": 2560,
    "atterns</w>": 1111,
    "Europe</w>": 1545,
    "indic": 2935,
    "quiry</w>": 3919,
    "rec": 547,
    "provid": 513,
    "physical</w>": 584,
    "Industrial</w>": 1589,
    "rap": 2217,
    "AI</w>": 2143,
    "System": 2266,
    "translates</w>": 3713,
    "tend</w>": 3189,
    "chlorophyll</w>": 2456,
    "mechanical</w>": 2905,
    "oft": 678,
    "gnals</w>": 1611,
    "escar": 1806,
    "millennia</w>": 2338,
    "occ": 3896,
    "pounds</w>": 3629,
    "design</w>": 4525,
    "vol": 454,
    "alf</w>": 4187,
    "tokens</w>": 4106,
    "mal</w>": 1468,
    "normal</w>": 4584,
    "predictions</w>": 2570,
    "^": 107,
    "again</w>": 3928,
    "nucleoti": 2661,
    "enc": 370,
    "ran": 854,
    "history</w>": 3865,
    "tivities</w>": 3253,
    "materials</w>": 1663,
    "swapping</w>": 2296,
    "estimates</w>": 4019,
    "im": 416,
    "cedure</w>": 3193,
    "di": 316,
    "sts</w>": 737,
    "system</w>": 919,
    "gover": 700,
    "pos": 2135,
    "motifs</w>": 3568,
    "Wo": 4266,
    "ES</w>": 4343,
    "law</w>": 708,
    "chloroph": 2454,
    "elding</w>": 4101,
    "integ": 1025,
    "creating</w>": 1247,
    "acroph": 3332,
    "ffici": 905,
    "chain</w>": 3989,
    "retrieval</w>": 4147,
    "studies</w>": 869,
    "lif": 940,
    "flows</w>": 1587,
    "48</w>": 4692,
    "internal</w>": 1583,
    "radi": 1342,
    "llages</w>": 2258,
    "magnit": 3087,
    "produc": 475,
    "Foreign</w>": 4350,
    "stimulating</w>": 2664,
    "Com": 1518,
    "plants</w>": 1682,
    "theni": 2417,
    "Pri": 2131,
    "triang": 2972,
    "23</w>": 4668,
    "ish": 1921,
    "influ": 794,
    "gra": 836,
    "avail": 1520,
    "chants</w>": 2453,
    "I": 86,
    "underlying</w>": 3741,
    "bar": 1453,
    "horizontally</w>": 2316,
    "Innate</w>": 3487,
    "ervous</w>": 1819,
    "ow": 352,
    "emerg": 2018,
    "Artists</w>": 2699,
    "acbeth</w>": 4088,
    "phenomena</w>": 1063,
    "icrowaves</w>": 4131,
    "198": 1779,
    "1789</w>": 2394,
    "think</w>": 2415,
    "antheon</w>": 4216,
    "fol": 2163,
    "let</w>": 3803,
    "ro": 287,
    "swer</w>": 2297,
    "ece</w>": 4105,
    "complete</w>": 3397,
    "being</w>": 1833,
    "18</w>": 2230,
    "Ur": 4322,
    "Y": 102,
    "tain</w>": 626,
    "nature</w>": 1281,
    "1991</w>": 1777,
    "linear</w>": 985,
    "electric</w>": 1315,
    "maj": 3518,
    "discovered</w>": 2600,
    "encode</w>": 3832,
    "lim": 1393,
    "invented</w>": 1761,
    "ought</w>": 3813,
    "ÿ": 268,
    "ervantes</w>": 3522,
    "therap": 2944,
    "primordial</w>": 3470,
    "tecton": 3408,
    "broader</w>": 2120,
    "open</w>": 3869,
    "": 163,
    "eight</w>": 1703,
    "transmis": 2529,
    "lasting</w>": 1329,
    "intersection</w>": 3690,
    "currencies</w>": 3414,
    "Midsummer</w>": 4296,
    "effici": 1165,
    "TP</w>": 1484,
    "ichelangelo</w>": 4134,
    "intergroup</w>": 3691,
    "selling</w>": 4571,
    "karyotic</w>": 2128,
    "sonnets</w>": 4575,
    "prose</w>": 4053,
    "post": 3630,
    "ilib": 3608,
    "ATP</w>": 4496,
    "©": 182,
    "usiness</w>": 3895,
    "Electromagnetic</w>": 2388,
    "sy": 371,
    "whic": 1055,
    "transmitters</w>": 2528,
    "Re": 1131,
    "interacting</w>": 3696,
    "master": 3515,
    "affect</w>": 4651,
    "8": 69,
    "Graph</w>": 4423,
    "nuclear</w>": 2659,
    "radio</w>": 1578,
    "Algebra</w>": 3090,
    "overall</w>": 2910,
    "carriers</w>": 3060,
    "olec": 1105,
    "evidence</w>": 2188,
    "stea": 4121,
    "Textile</w>": 4556,
    "[</w>": 330,
    "protection</w>": 2974,
    "motion</w>": 1297,
    "king</w>": 834,
    "ting</w>": 473,
    "survi": 2880,
    "enced</w>": 1078,
    "charting</w>": 3266,
    "shape</w>": 1242,
    "obotics</w>": 3678,
    "ells</w>": 3660,
    "beca": 2364,
    "log": 852,
    "expl": 511,
    "id": 1170,
    "act</w>": 731,
    "<think>": 5,
    "password</w>": 2919,
    "Op": 4333,
    "endopl": 2950,
    "Ï": 220,
    "a</w>": 315,
    "environ": 1120,
    "RPA": 4255,
    "transp": 1888,
    "fu": 4546,
    "erners</w>": 2420,
    "brain</w>": 2121,
    "requ": 739,
    "hum": 558,
    "con": 338,
    "ousy</w>": 3221,
    "Okazak": 4330,
    "Fundamental</w>": 4355,
    "---</w>": 2232,
    "lig": 1392,
    "destroyed</w>": 3908,
    "¬": 185,
    "es": 323,
    "ication</w>": 571,
    "ythology</w>": 1211,
    "people</w>": 2352,
    "icit</w>": 3436,
    "allic</w>": 3639,
    "aders</w>": 3837,
    "Cell</w>": 4409,
    "tain": 1317,
    "ces": 445,
    "La": 4282,
    "29</w>": 4667,
    "horizon": 2169,
    "phas": 1328,
    "or": 283,
    "bet": 530,
    "use</w>": 719,
    "ycle</w>": 1459,
    "\u000e": 27,
    "improve</w>": 1893,
    "values</w>": 1722,
    "organizational</w>": 2838,
    "structure</w>": 3498,
    "ns</w>": 1490,
    "ily</w>": 1495,
    "tually</w>": 3449,
    "typic": 1524,
    "Co": 4412,
    "computer</w>": 902,
    "ec": 305,
    "neutrop": 2823,
    "fix": 3510,
    "technolog": 1596,
    "limit</w>": 4080,
    "sionality</w>": 2466,
    "Backpropagation</w>": 4306,
    "Night</w>": 4654,
    "transmit</w>": 3709,
    "pervised</w>": 3821,
    "ocean</w>": 2992,
    "matter</w>": 1734,
    "Gross</w>": 4419,
    "clustering</w>": 4602,
    "Compu": 2234,
    "å": 242,
    "themselves</w>": 3360,
    "upy</w>": 3288,
    "sug": 1907,
    "Liber": 2243,
    "relates</w>": 2761,
    "wh": 441,
    "</s>": 2,
    "govern": 701,
    "amplifiers</w>": 3848,
    "sour": 977,
    "efficiency</w>": 2877,
    "conditions</w>": 1236,
    "activities</w>": 4089,
    "language</w>": 876,
    "ement</w>": 526,
    "pla": 1986,
    "irst</w>": 1074,
    "spectr": 3558,
    "cour": 1847,
    "meth": 1334,
    "decisions</w>": 2590,
    "liz": 1391,
    "Organ": 2395,
    "weights</w>": 1868,
    "powered</w>": 3422,
    "potentials</w>": 2539,
    "produce</w>": 1312,
    "reve": 1406,
    "documented</w>": 2854,
    "color</w>": 3535,
    "encourages</w>": 2497,
    "¥": 178,
    "Rais": 2740,
    "Z": 103,
    "\u0005": 18,
    "un": 319,
    "speci": 702,
    "Ge": 2113,
    "argument</w>": 3029,
    "19": 646,
    "irmation</w>": 3828,
    "true</w>": 4071,
    "Okazaki": 4331,
    "animals</w>": 4218,
    "tention</w>": 3188,
    "Americas</w>": 2142,
    "networks</w>": 666,
    "viet</w>": 1381,
    "gamma</w>": 4469,
    "heating</w>": 2666,
    "recy": 3556,
    "NoSQL</w>": 4655,
    "acti": 4092,
    "experi": 1092,
    "conductivity</w>": 2793,
    "dies</w>": 677,
    "Au": 4505,
    "inequality</w>": 4236,
    "================================": 1515,
    "slit</w>": 4576,
    "þ": 267,
    "5": 66,
    "gl": 838,
    "ages</w>": 595,
    "Ainsworth</w>": 4492,
    "flour": 3502,
    "bition</w>": 3479,
    "terms</w>": 3854,
    "ircuits</w>": 1934,
    "agents</w>": 3931,
    "wind</w>": 4434,
    "ones</w>": 2065,
    "Solar</w>": 4612,
    "Urbanization</w>": 4323,
    "hyperl": 2610,
    "alousy</w>": 4184,
    "inn": 1130,
    "way</w>": 3428,
    "ternal</w>": 1269,
    "fact": 1031,
    "shapes</w>": 1718,
    "sensations</w>": 3077,
    "obo": 3677,
    "149": 2732,
    "supervised</w>": 2511,
    "Political</w>": 2355,
    "ass": 512,
    "fac": 617,
    "polymerase</w>": 2917,
    "1970s</w>": 3432,
    "Worlds</w>": 3053,
    "inforcement</w>": 2070,
    "d</w>": 274,
    "identifies</w>": 2858,
    "procedure</w>": 4050,
    "fr": 2166,
    "ding</w>": 556,
    "French</w>": 4357,
    "hakespeare</w>": 1849,
    "propaganda</w>": 3026,
    "commun": 1036,
    "ths</w>": 1419,
    "andom</w>": 3389,
    "hy": 1155,
    "ty</w>": 351,
    "integr": 892,
    "hyperlinked</w>": 2611,
    "An": 4503,
    "Õ": 226,
    "encour": 1936,
    "tocol": 2016,
    "efs</w>": 2284,
    "Holocaust</w>": 4365,
    "tical</w>": 721,
    "lik": 2010,
    "combined</w>": 2482,
    "assed</w>": 3599,
    "ative</w>": 988,
    "Wor": 994,
    "ta": 465,
    "tern": 631,
    "cool": 3624,
    "ver": 393,
    "lized</w>": 2774,
    "7</w>": 561,
    "sional</w>": 2467,
    "reveal": 1552,
    "value</w>": 1723,
    "ods</w>": 718,
    "infancy</w>": 1858,
    "England</w>": 4347,
    "curr": 3412,
    "iconserv": 2765,
    "volcanic</w>": 3705,
    "verg": 1915,
    "angles</w>": 1908,
    "minister</w>": 3308,
    "manag": 1289,
    "hypo": 2891,
    "connects</w>": 3345,
    "under": 3739,
    "revealing</w>": 1553,
    "espec": 2979,
    "event</w>": 1255,
    "\u000b": 24,
    "put</w>": 1058,
    "sci": 1159,
    "sensorimot": 3080,
    "DP</w>": 1444,
    "beth</w>": 3590,
    "enforced</w>": 4198,
    "analyze</w>": 2585,
    "proclaimed</w>": 4057,
    "temporary</w>": 2634,
    "Darwin</w>": 4382,
    "log</w>": 3289,
    "Pi": 4461,
    "explores</w>": 1788,
    "lead</w>": 3801,
    "reliable</w>": 882,
    "time</w>": 670,
    "untary</w>": 1989,
    "encourag": 2498,
    "13</w>": 862,
    "spending</w>": 3886,
    "ld</w>": 699,
    "neutro": 2822,
    "espe": 1634,
    "total</w>": 1397,
    "delusional</w>": 2692,
    "maximize</w>": 3512,
    "chloroplasts</w>": 2458,
    "landed</w>": 4627,
    "satiri": 3071,
    "ach</w>": 636,
    "ship</w>": 1789,
    "overeign": 2908,
    "scalability</w>": 2886,
    "inquiry</w>": 4225,
    "decryption</w>": 1705,
    "cord</w>": 3056,
    "ab": 327,
    "items</w>": 3667,
    "sensory</w>": 1672,
    "izing</w>": 1904,
    "the</w>": 297,
    "ict</w>": 2026,
    "Free</w>": 2103,
    "datab": 1273,
    "update</w>": 2582,
    "concep": 1969,
    "mortality</w>": 3548,
    "arket</w>": 4165,
    "inner</w>": 1617,
    "idsummer</w>": 2868,
    "resul": 1871,
    "mitochon": 2578,
    "boundaries</w>": 1046,
    "poly": 2916,
    "learn": 3442,
    "reece</w>": 4137,
    "ore</w>": 4196,
    "ordered</w>": 2956,
    "10</w>": 771,
    "group</w>": 1462,
    "conclusions</w>": 1567,
    "popul": 835,
    "compan": 3003,
    "lists</w>": 4081,
    "alism</w>": 1412,
    "beg": 1834,
    "timates</w>": 3638,
    "structures</w>": 1038,
    "ci": 489,
    "oring</w>": 1415,
    "associated</w>": 2546,
    "comparative</w>": 3872,
    "ins": 1129,
    "ations</w>": 390,
    "lifecycle</w>": 3145,
    "om": 309,
    "only</w>": 1423,
    "information</w>": 745,
    "Leonardo</w>": 2401,
    "": 162,
    "sorbs</w>": 2298,
    "hierarchies</w>": 2812,
    "neurons</w>": 1685,
    "ase</w>": 813,
    "interac": 3695,
    "degrees</w>": 3902,
    "surfac": 1179,
    "evalu": 2190,
    "undamental</w>": 872,
    "Moore</w>": 4304,
    "ached</w>": 1288,
    "f": 115,
    "brow": 2124,
    "Erik</w>": 2389,
    "": 160,
    "bonds</w>": 999,
    "active</w>": 2012,
    "concentr": 2786,
    "ownership</w>": 3916,
    "response</w>": 3142,
    "Man</w>": 4302,
    "6</w>": 503,
    "oy": 1467,
    "ment</w>": 443,
    "\u0007": 20,
    "syn": 930,
    "ers</w>": 349,
    "naturally</w>": 1812,
    "Ch": 833,
    "icon": 1404,
    "dd": 1472,
    "otam": 3215,
    "encoded</w>": 3831,
    "mutually</w>": 4524,
    "eigenv": 2594,
    "email</w>": 4115,
    "su": 401,
    "pl": 326,
    ">": 75,
    "inv": 685,
    "CID</w>": 4403,
    "spectrum</w>": 3559,
    "ma": 578,
    "Ò": 223,
    "ryption</w>": 777,
    "round</w>": 1116,
    "processes</w>": 789,
    "È": 213,
    "When</w>": 2084,
    "18": 1438,
    "ited</w>": 912,
    "algorithm</w>": 1666,
    "ipate</w>": 2279,
    "matri": 3309,
    "how</w>": 692,
    "ord": 1119,
    "Stock</w>": 4611,
    "debates</w>": 2475,
    "Ex": 1439,
    "oci": 507,
    "humanity</w>": 3541,
    "immunity</w>": 1579,
    "Ar": 1465,
    "resources</w>": 1870,
    "activ": 4093,
    "ne": 428,
    "ghts</w>": 720,
    "chao": 4001,
    "bas": 1137,
    "amous</w>": 3850,
    "specific</w>": 1019,
    "directly</w>": 1260,
    "knowing</w>": 3402,
    "legal</w>": 3805,
    "+": 56,
    "transf": 3710,
    "Wat": 2082,
    "tarian": 2645,
    "poin": 3633,
    "g": 116,
    "duc": 387,
    "Efficient</w>": 4339,
    "overth": 2911,
    "expen": 2778,
    "oration</w>": 1414,
    "lifec": 3144,
    "exec": 3983,
    "Physicalism</w>": 4458,
    "ates</w>": 383,
    "auth": 1221,
    "1492</w>": 2733,
    "convert</w>": 2986,
    "objectives</w>": 3164,
    "phen": 1060,
    "cheduling</w>": 3988,
    "ture</w>": 911,
    "thenosphere</w>": 2416,
    "Fr": 4356,
    "15</w>": 864,
    "emotional</w>": 2767,
    "bi": 610,
    "Virtual</w>": 2403,
    "&": 51,
    "mito": 1732,
    "responses</w>": 1001,
    "methods</w>": 1335,
    "out": 1071,
    "science</w>": 1180,
    "governments</w>": 3358,
    "ine": 606,
    "ing</w>": 292,
    "sor": 2180,
    "especi": 2980,
    "ê": 247,
    "count": 1688,
    "spec": 545,
    "Ô": 225,
    "equals</w>": 1319,
    "Non</w>": 4662,
    "food</w>": 1250,
    "am": 368,
    "ey</w>": 1492,
    "high</w>": 1645,
    "tistics</w>": 1422,
    "estig": 1637,
    "Calculus</w>": 1544,
    "igenvalues</w>": 2278,
    "Comp": 2627,
    "adds</w>": 3835,
    "osc": 3768,
    "/": 60,
    "\u0012": 31,
    "ird</w>": 1931,
    "engineering</w>": 1230,
    "confirmation</w>": 3969,
    "acc": 1110,
    "Central</w>": 4411,
    "unt": 1988,
    "Dat": 2107,
    "integration</w>": 3176,
    "embly</w>": 2433,
    "multaneously</w>": 2903,
    "revolution</w>": 4155,
    "ute</w>": 2649,
    "14": 1437,
    "1": 62,
    "(": 53,
    "í": 250,
    "handle</w>": 2676,
    "Cho": 3247,
    "waves</w>": 1267,
    "==": 332,
    "rise</w>": 3975,
    "consistency</w>": 2790,
    "Sci": 2233,
    "ph": 426,
    "substitution</w>": 3356,
    "primor": 3468,
    "immediate</w>": 3747,
    "reas": 822,
    "deter": 1360,
    "domestic": 3044,
    "labeled</w>": 1699,
    "keys</w>": 3651,
    "photons</w>": 3734,
    "space</w>": 932,
    "traits</w>": 1233,
    "ples</w>": 934,
    "seases</w>": 1900,
    "opposit": 1948,
    "causal</w>": 2272,
    "s": 128,
    "inancial</w>": 4223,
    "ur": 313,
    "Operant</w>": 2734,
    "troduc": 3405,
    "flow": 1282,
    "addres": 1195,
    "integri": 3038,
    "would</w>": 2118,
    "influence</w>": 1244,
    "cient</w>": 1844,
    "le</w>": 340,
    "caus": 2271,
    "can</w>": 500,
    "cognitive</w>": 1498,
    "whether</w>": 1582,
    "advantageous</w>": 2494,
    "constants</w>": 2796,
    "antly</w>": 2939,
    "selection</w>": 2175,
    "rig": 3977,
    "Both</w>": 4312,
    "Worl": 3052,
    "anatomy</w>": 4220,
    "ip": 2197,
    "sophisticated</w>": 4568,
    "argu": 1805,
    "modynamics</w>": 3579,
    "uncertainty</w>": 1830,
    "Michelangelo</w>": 4289,
    "networ": 536,
    "escri": 785,
    "Philosophy</w>": 2242,
    "p": 125,
    "wo</w>": 1451,
    "meric": 1538,
    "id</w>": 980,
    "litarianism</w>": 4079,
    "problems</w>": 1658,
    "Probability</w>": 3119,
    "rules</w>": 2216,
    "architecture</w>": 3141,
    "sam": 846,
    "acceleration</w>": 2606,
    "aptive</w>": 3938,
    "ac": 307,
    "reshaped</w>": 4146,
    "ev": 696,
    "scheduling</w>": 4566,
    "guarante": 2347,
    "span": 1352,
    "observed</w>": 1649,
    "documents</w>": 2855,
    "alk": 4191,
    "ad": 369,
    "aris": 1411,
    "Producers</w>": 3117,
    "ink</w>": 4237,
    "allow</w>": 1851,
    "L</w>": 2089,
    "deficits</w>": 2804,
    "associations</w>": 2547,
    "explan": 3601,
    "reaction</w>": 4154,
    "invol": 684,
    "infrar": 1860,
    "surfaces</w>": 1599,
    "sorted</w>": 2299,
    "mar": 553,
    "based</w>": 1614,
    "policy</w>": 1187,
    "mapping</w>": 2148,
    "international</w>": 2832,
    "</think>": 6,
    "interv": 1053,
    "rather</w>": 1911,
    "elicit</w>": 4099,
    "inked</w>": 2073,
    "tra": 816,
    "Euclidean</w>": 2098,
    "esopotamia</w>": 4018,
    "central</w>": 1497,
    "asset</w>": 4014,
    "describes</w>": 997,
    "migrated</w>": 3303,
    "ervice</w>": 3520,
    "iz": 407,
    "bs</w>": 2126,
    "Consequentialist</w>": 3311,
    "system": 418,
    "Dream</w>": 4385,
    "collap": 3023,
    "Neurons</w>": 2612,
    "allowed</w>": 3166,
    "\u001e": 43,
    "by</w>": 377,
    "Raw": 2745,
    "have</w>": 908,
    "monarch": 2899,
    "forms</w>": 1910,
    "pres": 650,
    "antum</w>": 1424,
    "integrated</w>": 3174,
    "plifi": 2701,
    "gricul": 3649,
    "they</w>": 923,
    "carb": 1668,
    "related</w>": 2760,
    "indicator</w>": 2937,
    "C": 80,
    "enewable</w>": 1677,
    "growth</w>": 964,
    "1947</w>": 2566,
    "lit</w>": 2009,
    "th": 277,
    "5</w>": 487,
    "positive</w>": 1719,
    "tect": 3407,
    "\u001a": 39,
    "writers</w>": 4432,
    "mean</w>": 3756,
    "é": 246,
    "pre": 687,
    "ther": 1124,
    "delocalized</w>": 2688,
    "means</w>": 3755,
    "reasoning</w>": 1232,
    "11</w>": 867,
    "?": 76,
    "race</w>": 4638,
    "raph</w>": 2257,
    "doubled</w>": 2898,
    "DP": 4387,
    "widely</w>": 3815,
    "ables</w>": 1097,
    "Ê": 215,
    "plant</w>": 3156,
    "available</w>": 1521,
    "fl": 580,
    "tocol</w>": 2438,
    "O": 92,
    "Scienti": 2246,
    "uld</w>": 1355,
    "principle</w>": 3030,
    "maize</w>": 3513,
    "mythology</w>": 2149,
    "characteris": 3178,
    "activation</w>": 4094,
    "trained</w>": 4068,
    "Oper": 1435,
    "\u001c": 41,
    "ys": 531,
    "ese</w>": 1385,
    "tocols</w>": 2437,
    "frag": 2317,
    "eli": 819,
    "divisors</w>": 4039,
    "mitoch": 2577,
    "premises</w>": 3379,
    "flexi": 1814,
    "weap": 3684,
    "puts</w>": 1323,
    "ences</w>": 1517,
    "Att": 4508,
    "hardware</w>": 2171,
    "2</w>": 485,
    "stance</w>": 3527,
    "F": 83,
    "--</w>": 2231,
    "energy</w>": 588,
    "figur": 1817,
    "generations</w>": 1773,
    "Beyond</w>": 2738,
    "track</w>": 4069,
    "Haiku</w>": 4379,
    "achine</w>": 900,
    "Covalent</w>": 4413,
    "laws</w>": 3742,
    "ligase</w>": 2773,
    "leas": 1917,
    "suggesting</w>": 2509,
    "controls</w>": 2991,
    "ases</w>": 633,
    "workers</w>": 2516,
    "controlled</w>": 2990,
    "<unk>": 3,
    "satirizes</w>": 3073,
    "sequences</w>": 3269,
    "s</w>": 270,
    "fixed</w>": 3511,
    "son</w>": 1160,
    "domes": 1014,
    "£": 176,
    "telescop": 2640,
    "sn": 4579,
    "h</w>": 420,
    "ll</w>": 2259,
    "function</w>": 897,
    "idsumm": 2867,
    "economy</w>": 3173,
    "infrared</w>": 1861,
    "ality</w>": 947,
    "il</w>": 916,
    "Ethics</w>": 4345,
    "Skinner</w>": 4608,
    "European</w>": 2724,
    "adic</w>": 3836,
    "capac": 3201,
    "rea": 823,
    "weaving</w>": 3687,
    "ca": 2203,
    "queducts</w>": 3920,
    "centuries</w>": 3066,
    "chem": 725,
    "greater</w>": 1226,
    "are": 4174,
    "bad</w>": 4444,
    "dri": 2157,
    "ipul": 2280,
    "opul": 803,
    "names</w>": 4585,
    "": 155,
    "Un": 953,
    "pow": 651,
    "assist</w>": 4011,
    "technology</w>": 2849,
    "summar": 3296,
    "ipulates</w>": 2281,
    "Victorian</w>": 4272,
    "reflec": 2030,
    "borrow</w>": 2708,
    "Ne": 1175,
    "Hope</w>": 4367,
    "hysics</w>": 2311,
    "ultraviolet</w>": 3891,
    "ob": 460,
    "health": 2669,
    "monst": 2901,
    "domin": 3299,
    "conversion</w>": 2983,
    "governs</w>": 3359,
    "merase</w>": 2693,
    "partic": 903,
    "equation</w>": 1867,
    "opotamia</w>": 3867,
    "properties</w>": 1002,
    "bl": 1456,
    "discover": 2599,
    "QL</w>": 2094,
    "Continuous</w>": 3315,
    "sia</w>": 3946,
    "reducible</w>": 2966,
    "arsen": 4172,
    "skin</w>": 4561,
    "42</w>": 4699,
    "del": 1470,
    "instability</w>": 4235,
    "depend": 1571,
    "\u0006": 19,
    "arratives</w>": 2756,
    "amet": 1943,
    "onnets</w>": 2063,
    "rest</w>": 3700,
    "ics</w>": 519,
    "Functionalism</w>": 4352,
    "edi": 2193,
    "captures</w>": 3197,
    "sciousness</w>": 2883,
    "Okaza": 4329,
    "portra": 3108,
    "cosine</w>": 2275,
    "mag": 970,
    "flex": 1813,
    "ü": 265,
    "breaks</w>": 2369
  },
  "merges": [
    [
      "s",
      "</w>"
    ],
    [
      "e",
      "</w>"
    ],
    [
      "i",
      "n"
    ],
    [
      "a",
      "n"
    ],
    [
      "d",
      "</w>"
    ],
    [
      "o",
      "n"
    ],
    [
      "t",
      "i"
    ],
    [
      "t",
      "h"
    ],
    [
      "e",
      "r"
    ],
    [
      ",",
      "</w>"
    ],
    [
      ".",
      "</w>"
    ],
    [
      "e",
      "n"
    ],
    [
      "e",
      "s</w>"
    ],
    [
      "o",
      "r"
    ],
    [
      "a",
      "l"
    ],
    [
      "y",
      "</w>"
    ],
    [
      "t",
      "</w>"
    ],
    [
      "r",
      "o"
    ],
    [
      "ti",
      "on"
    ],
    [
      "an",
      "d</w>"
    ],
    [
      "a",
      "r"
    ],
    [
      "g",
      "</w>"
    ],
    [
      "in",
      "g</w>"
    ],
    [
      "r",
      "e"
    ],
    [
      "i",
      "c"
    ],
    [
      "a",
      "t"
    ],
    [
      "al",
      "</w>"
    ],
    [
      "th",
      "e</w>"
    ],
    [
      "e",
      "d</w>"
    ],
    [
      "s",
      "t"
    ],
    [
      "o",
      "f"
    ],
    [
      "tion",
      "</w>"
    ],
    [
      "of",
      "</w>"
    ],
    [
      "e",
      "m"
    ],
    [
      "t",
      "o"
    ],
    [
      "e",
      "c"
    ],
    [
      "e",
      "l"
    ],
    [
      "a",
      "c"
    ],
    [
      "l",
      "i"
    ],
    [
      "o",
      "m"
    ],
    [
      "to",
      "</w>"
    ],
    [
      "t",
      "r"
    ],
    [
      "o",
      "l"
    ],
    [
      "u",
      "r"
    ],
    [
      "p",
      "ro"
    ],
    [
      "a",
      "</w>"
    ],
    [
      "d",
      "i"
    ],
    [
      "f",
      "or"
    ],
    [
      "t",
      "s</w>"
    ],
    [
      "u",
      "n"
    ],
    [
      "er",
      "</w>"
    ],
    [
      "in",
      "</w>"
    ],
    [
      "m",
      "</w>"
    ],
    [
      "e",
      "s"
    ],
    [
      "a",
      "s"
    ],
    [
      "a",
      "tion</w>"
    ],
    [
      "p",
      "l"
    ],
    [
      "a",
      "b"
    ],
    [
      "v",
      "i"
    ],
    [
      "]",
      "</w>"
    ],
    [
      "[",
      "</w>"
    ],
    [
      "an",
      "</w>"
    ],
    [
      "=",
      "="
    ],
    [
      "c",
      "h"
    ],
    [
      "e",
      "x"
    ],
    [
      "en",
      "t</w>"
    ],
    [
      "r",
      "i"
    ],
    [
      "tion",
      "s</w>"
    ],
    [
      "c",
      "on"
    ],
    [
      "ti",
      "c"
    ],
    [
      "l",
      "e</w>"
    ],
    [
      "T",
      "h"
    ],
    [
      "s",
      "i"
    ],
    [
      "g",
      "h"
    ],
    [
      "v",
      "e</w>"
    ],
    [
      "a",
      "p"
    ],
    [
      "a",
      "g"
    ],
    [
      "on",
      "</w>"
    ],
    [
      "Th",
      "e</w>"
    ],
    [
      "er",
      "s</w>"
    ],
    [
      "q",
      "u"
    ],
    [
      "t",
      "y</w>"
    ],
    [
      "o",
      "w"
    ],
    [
      "d",
      "e"
    ],
    [
      "u",
      "c"
    ],
    [
      "o",
      "c"
    ],
    [
      "u",
      "s"
    ],
    [
      "th",
      "</w>"
    ],
    [
      "u",
      "l"
    ],
    [
      "s",
      "p"
    ],
    [
      "e",
      "t"
    ],
    [
      "a",
      "t</w>"
    ],
    [
      "ic",
      "</w>"
    ],
    [
      "c",
      "om"
    ],
    [
      "o",
      "p"
    ],
    [
      "u",
      "m"
    ],
    [
      "h",
      "i"
    ],
    [
      "t",
      "er"
    ],
    [
      "a",
      "m"
    ],
    [
      "a",
      "d"
    ],
    [
      "en",
      "c"
    ],
    [
      "s",
      "y"
    ],
    [
      "ro",
      "u"
    ],
    [
      "i",
      "r"
    ],
    [
      "l",
      "y</w>"
    ],
    [
      "o",
      "d"
    ],
    [
      "ar",
      "e</w>"
    ],
    [
      "b",
      "y</w>"
    ],
    [
      "p",
      "er"
    ],
    [
      "en",
      "t"
    ],
    [
      "w",
      "i"
    ],
    [
      "o",
      "u"
    ],
    [
      "-",
      "</w>"
    ],
    [
      "at",
      "es</w>"
    ],
    [
      "th",
      "e"
    ],
    [
      "ic",
      "al</w>"
    ],
    [
      "en",
      "</w>"
    ],
    [
      "d",
      "uc"
    ],
    [
      "i",
      "s"
    ],
    [
      "l",
      "e"
    ],
    [
      "a",
      "tions</w>"
    ],
    [
      "a",
      "s</w>"
    ],
    [
      "th",
      "at</w>"
    ],
    [
      "v",
      "er"
    ],
    [
      "r",
      "a"
    ],
    [
      "==",
      "=="
    ],
    [
      "ro",
      "m</w>"
    ],
    [
      "f",
      "rom</w>"
    ],
    [
      "for",
      "m"
    ],
    [
      "or",
      "</w>"
    ],
    [
      "an",
      "g"
    ],
    [
      "s",
      "u"
    ],
    [
      "o",
      "g"
    ],
    [
      "o",
      "s"
    ],
    [
      "at",
      "e</w>"
    ],
    [
      "rou",
      "gh"
    ],
    [
      "for",
      "</w>"
    ],
    [
      "i",
      "z"
    ],
    [
      "st",
      "em"
    ],
    [
      "w",
      "or"
    ],
    [
      "s",
      "e"
    ],
    [
      "vi",
      "d"
    ],
    [
      "th",
      "rough"
    ],
    [
      "ti",
      "ve</w>"
    ],
    [
      "k",
      "e</w>"
    ],
    [
      "m",
      "e"
    ],
    [
      "i",
      "m"
    ],
    [
      "wi",
      "th</w>"
    ],
    [
      "sy",
      "stem"
    ],
    [
      "tr",
      "an"
    ],
    [
      "h",
      "</w>"
    ],
    [
      "l",
      "a"
    ],
    [
      "through",
      "</w>"
    ],
    [
      "tic",
      "</w>"
    ],
    [
      "un",
      "d"
    ],
    [
      "w",
      "</w>"
    ],
    [
      "p",
      "h"
    ],
    [
      "s",
      "h"
    ],
    [
      "n",
      "e"
    ],
    [
      "i",
      "s</w>"
    ],
    [
      "i",
      "l"
    ],
    [
      "p",
      "u"
    ],
    [
      "ar",
      "</w>"
    ],
    [
      "al",
      "s</w>"
    ],
    [
      "in",
      "c"
    ],
    [
      "v",
      "el"
    ],
    [
      "i",
      "ty</w>"
    ],
    [
      "or",
      "y</w>"
    ],
    [
      "ab",
      "le</w>"
    ],
    [
      "el",
      "ec"
    ],
    [
      "st",
      "r"
    ],
    [
      "w",
      "h"
    ],
    [
      "k",
      "</w>"
    ],
    [
      "m",
      "ent</w>"
    ],
    [
      "i",
      "es</w>"
    ],
    [
      "c",
      "es"
    ],
    [
      "l",
      "es</w>"
    ],
    [
      "enc",
      "e</w>"
    ],
    [
      "tran",
      "s"
    ],
    [
      "li",
      "ke</w>"
    ],
    [
      "at",
      "ed</w>"
    ],
    [
      "en",
      "ts</w>"
    ],
    [
      "en",
      "er"
    ],
    [
      "on",
      "s</w>"
    ],
    [
      "v",
      "ol"
    ],
    [
      "c",
      "e</w>"
    ],
    [
      "l",
      "u"
    ],
    [
      "re",
      "s"
    ],
    [
      "in",
      "ter"
    ],
    [
      "w",
      "e"
    ],
    [
      "o",
      "b"
    ],
    [
      "d",
      "s</w>"
    ],
    [
      "e",
      "qu"
    ],
    [
      "i",
      "t"
    ],
    [
      "t",
      "ur"
    ],
    [
      "t",
      "a"
    ],
    [
      "1",
      "</w>"
    ],
    [
      "elec",
      "tr"
    ],
    [
      "el",
      "l"
    ],
    [
      "in",
      "f"
    ],
    [
      "k",
      "s</w>"
    ],
    [
      "k",
      "e"
    ],
    [
      "g",
      "r"
    ],
    [
      "t",
      "ing</w>"
    ],
    [
      "vel",
      "op"
    ],
    [
      "pro",
      "duc"
    ],
    [
      "st",
      "or"
    ],
    [
      "ar",
      "y</w>"
    ],
    [
      "al",
      "l"
    ],
    [
      "ti",
      "m"
    ],
    [
      "p",
      "o"
    ],
    [
      "o",
      "</w>"
    ],
    [
      "h",
      "a"
    ],
    [
      "n",
      "</w>"
    ],
    [
      "c",
      "o"
    ],
    [
      "2",
      "</w>"
    ],
    [
      "4",
      "</w>"
    ],
    [
      "5",
      "</w>"
    ],
    [
      "ol",
      "og"
    ],
    [
      "c",
      "i"
    ],
    [
      "system",
      "s</w>"
    ],
    [
      "ow",
      "</w>"
    ],
    [
      "en",
      "ti"
    ],
    [
      "ti",
      "es</w>"
    ],
    [
      "in",
      "e</w>"
    ],
    [
      "b",
      "u"
    ],
    [
      "p",
      "</w>"
    ],
    [
      "f",
      "f"
    ],
    [
      "i",
      "ts</w>"
    ],
    [
      "i",
      "li"
    ],
    [
      "c",
      "an</w>"
    ],
    [
      "a",
      "in"
    ],
    [
      "====",
      "===="
    ],
    [
      "6",
      "</w>"
    ],
    [
      "3",
      "</w>"
    ],
    [
      "9",
      "</w>"
    ],
    [
      "ir",
      "</w>"
    ],
    [
      "oc",
      "i"
    ],
    [
      "de",
      "velop"
    ],
    [
      "ag",
      "e</w>"
    ],
    [
      "gh",
      "t</w>"
    ],
    [
      "ex",
      "pl"
    ],
    [
      "as",
      "s"
    ],
    [
      "pro",
      "vid"
    ],
    [
      "at",
      "er</w>"
    ],
    [
      "b",
      "o"
    ],
    [
      "b",
      "e"
    ],
    [
      "v",
      "es</w>"
    ],
    [
      "0",
      "</w>"
    ],
    [
      "ic",
      "s</w>"
    ],
    [
      "t",
      "er</w>"
    ],
    [
      "ent",
      "al</w>"
    ],
    [
      "et",
      "wor"
    ],
    [
      "ch",
      "ang"
    ],
    [
      "un",
      "c"
    ],
    [
      "for",
      "m</w>"
    ],
    [
      "em",
      "ent</w>"
    ],
    [
      "er",
      "e</w>"
    ],
    [
      "on",
      "e</w>"
    ],
    [
      "'",
      "s</w>"
    ],
    [
      "b",
      "et"
    ],
    [
      "y",
      "s"
    ],
    [
      "p",
      "ar"
    ],
    [
      "o",
      "ur"
    ],
    [
      "m",
      "od"
    ],
    [
      "m",
      "o"
    ],
    [
      "n",
      "etwor"
    ],
    [
      "n",
      "ing</w>"
    ],
    [
      "c",
      "ell"
    ],
    [
      "t",
      "e"
    ],
    [
      "bet",
      "we"
    ],
    [
      "betwe",
      "en</w>"
    ],
    [
      "the",
      "ir</w>"
    ],
    [
      "hi",
      "le</w>"
    ],
    [
      "com",
      "pu"
    ],
    [
      "sp",
      "ec"
    ],
    [
      "pro",
      "ces"
    ],
    [
      "re",
      "c"
    ],
    [
      "al",
      "ly</w>"
    ],
    [
      "th",
      "er</w>"
    ],
    [
      "P",
      "</w>"
    ],
    [
      "g",
      "o"
    ],
    [
      "v",
      "al"
    ],
    [
      "m",
      "ar"
    ],
    [
      "m",
      "or"
    ],
    [
      "m",
      "an"
    ],
    [
      "d",
      "ing</w>"
    ],
    [
      "d",
      "e</w>"
    ],
    [
      "h",
      "um"
    ],
    [
      "s",
      "es</w>"
    ],
    [
      "c",
      "ol"
    ],
    [
      "7",
      "</w>"
    ],
    [
      "8",
      "</w>"
    ],
    [
      "at",
      "ur"
    ],
    [
      "ili",
      "ty</w>"
    ],
    [
      "ph",
      "ys"
    ],
    [
      "ad",
      "e</w>"
    ],
    [
      "ch",
      "</w>"
    ],
    [
      "pro",
      "p"
    ],
    [
      "ac",
      "h"
    ],
    [
      "st",
      "an"
    ],
    [
      "ic",
      "ation</w>"
    ],
    [
      "tion",
      "al</w>"
    ],
    [
      "ro",
      "w"
    ],
    [
      "er",
      "v"
    ],
    [
      "w",
      "hile</w>"
    ],
    [
      "y",
      "p"
    ],
    [
      "g",
      "an"
    ],
    [
      "m",
      "a"
    ],
    [
      "f",
      "i"
    ],
    [
      "f",
      "l"
    ],
    [
      "n",
      "atur"
    ],
    [
      "t",
      "ed</w>"
    ],
    [
      "olog",
      "y</w>"
    ],
    [
      "phys",
      "ical</w>"
    ],
    [
      "cell",
      "s</w>"
    ],
    [
      "oci",
      "al</w>"
    ],
    [
      "ener",
      "g"
    ],
    [
      "energ",
      "y</w>"
    ],
    [
      "trans",
      "form"
    ],
    [
      "str",
      "uc"
    ],
    [
      "ou",
      "t</w>"
    ],
    [
      "ou",
      "s</w>"
    ],
    [
      "com",
      "m"
    ],
    [
      "us",
      "ing</w>"
    ],
    [
      "ag",
      "es</w>"
    ],
    [
      "si",
      "on</w>"
    ],
    [
      "ab",
      "ility</w>"
    ],
    [
      "es",
      "c"
    ],
    [
      "st",
      "ates</w>"
    ],
    [
      "ic",
      "es</w>"
    ],
    [
      "re",
      "e</w>"
    ],
    [
      "ar",
      "g"
    ],
    [
      "or",
      "gan"
    ],
    [
      "in",
      "to</w>"
    ],
    [
      "in",
      "es</w>"
    ],
    [
      "in",
      "e"
    ],
    [
      "I",
      "n"
    ],
    [
      "w",
      "ater</w>"
    ],
    [
      "b",
      "e</w>"
    ],
    [
      "b",
      "i"
    ],
    [
      "p",
      "ri"
    ],
    [
      "p",
      "r"
    ],
    [
      "g",
      "e"
    ],
    [
      "d",
      "em"
    ],
    [
      "d",
      "at"
    ],
    [
      "f",
      "unc"
    ],
    [
      "f",
      "ac"
    ],
    [
      "s",
      "hi"
    ],
    [
      "n",
      "i"
    ],
    [
      "c",
      "es</w>"
    ],
    [
      "u",
      "s</w>"
    ],
    [
      "t",
      "u"
    ],
    [
      "hum",
      "an</w>"
    ],
    [
      "chang",
      "e</w>"
    ],
    [
      "expl",
      "or"
    ],
    [
      "ta",
      "in</w>"
    ],
    [
      "wh",
      "ere</w>"
    ],
    [
      "inc",
      "lu"
    ],
    [
      "le",
      "ar"
    ],
    [
      "the",
      "ory</w>"
    ],
    [
      "ter",
      "n"
    ],
    [
      "us",
      "es</w>"
    ],
    [
      "as",
      "es</w>"
    ],
    [
      "pro",
      "b"
    ],
    [
      "tr",
      "ade</w>"
    ],
    [
      "ac",
      "h</w>"
    ],
    [
      "ec",
      "on"
    ],
    [
      "at",
      "om"
    ],
    [
      "ic",
      "i"
    ],
    [
      "ar",
      "i"
    ],
    [
      "en",
      "ab"
    ],
    [
      "en",
      "s"
    ],
    [
      "th",
      "es"
    ],
    [
      "an",
      "ce</w>"
    ],
    [
      "in",
      "te"
    ],
    [
      "1",
      "9"
    ],
    [
      "w",
      "a"
    ],
    [
      "y",
      "s</w>"
    ],
    [
      "k",
      "n"
    ],
    [
      "p",
      "res"
    ],
    [
      "p",
      "ow"
    ],
    [
      "g",
      "ener"
    ],
    [
      "v",
      "ing</w>"
    ],
    [
      "o",
      "d</w>"
    ],
    [
      "m",
      "em"
    ],
    [
      "d",
      "g"
    ],
    [
      "n",
      "o"
    ],
    [
      "c",
      "ul"
    ],
    [
      "c",
      "ur"
    ],
    [
      "t",
      "ec"
    ],
    [
      "t",
      "ro"
    ],
    [
      "t",
      "es</w>"
    ],
    [
      "tic",
      "s</w>"
    ],
    [
      "kn",
      "ow"
    ],
    [
      "mar",
      "ke"
    ],
    [
      "networ",
      "ks</w>"
    ],
    [
      "mod",
      "el"
    ],
    [
      "enti",
      "al</w>"
    ],
    [
      "ha",
      "vi"
    ],
    [
      "tim",
      "e</w>"
    ],
    [
      "equ",
      "ations</w>"
    ],
    [
      "vid",
      "u"
    ],
    [
      "um",
      "b"
    ],
    [
      "com",
      "pl"
    ],
    [
      "di",
      "vidu"
    ],
    [
      "di",
      "rec"
    ],
    [
      "di",
      "es</w>"
    ],
    [
      "of",
      "t"
    ],
    [
      "at",
      "ing</w>"
    ],
    [
      "or",
      "s</w>"
    ],
    [
      "an",
      "ti"
    ],
    [
      "an",
      "d"
    ],
    [
      "in",
      "dividu"
    ],
    [
      "in",
      "vol"
    ],
    [
      "in",
      "v"
    ],
    [
      "b",
      "le</w>"
    ],
    [
      "p",
      "re"
    ],
    [
      "p",
      "a"
    ],
    [
      "A",
      "</w>"
    ],
    [
      "o",
      "ther</w>"
    ],
    [
      "m",
      "ental</w>"
    ],
    [
      "h",
      "ow</w>"
    ],
    [
      "s",
      "ol"
    ],
    [
      "s",
      "e</w>"
    ],
    [
      "e",
      "tr"
    ],
    [
      "e",
      "v"
    ],
    [
      "r",
      "yp"
    ],
    [
      "th",
      "em"
    ],
    [
      "l",
      "d</w>"
    ],
    [
      "go",
      "ver"
    ],
    [
      "gover",
      "n"
    ],
    [
      "spec",
      "i"
    ],
    [
      "provid",
      "es</w>"
    ],
    [
      "develop",
      "ment</w>"
    ],
    [
      "ff",
      "er"
    ],
    [
      "gr",
      "ap"
    ],
    [
      "tur",
      "es</w>"
    ],
    [
      "la",
      "w</w>"
    ],
    [
      "iz",
      "ed</w>"
    ],
    [
      "iz",
      "e</w>"
    ],
    [
      "su",
      "b"
    ],
    [
      "su",
      "p"
    ],
    [
      "ang",
      "u"
    ],
    [
      "form",
      "ation</w>"
    ],
    [
      "is",
      "m</w>"
    ],
    [
      "per",
      "i"
    ],
    [
      "od",
      "e</w>"
    ],
    [
      "od",
      "s</w>"
    ],
    [
      "us",
      "e</w>"
    ],
    [
      "gh",
      "ts</w>"
    ],
    [
      "tic",
      "al</w>"
    ],
    [
      "con",
      "n"
    ],
    [
      "conn",
      "ec"
    ],
    [
      "ex",
      "am"
    ],
    [
      "ch",
      "em"
    ],
    [
      "es",
      "s</w>"
    ],
    [
      "un",
      "i"
    ],
    [
      "ur",
      "es</w>"
    ],
    [
      "om",
      "etr"
    ],
    [
      "ac",
      "ro"
    ],
    [
      "ac",
      "t</w>"
    ],
    [
      "ac",
      "e</w>"
    ],
    [
      "em",
      "ents</w>"
    ],
    [
      "of",
      "f"
    ],
    [
      "st",
      "ri"
    ],
    [
      "st",
      "ing</w>"
    ],
    [
      "st",
      "s</w>"
    ],
    [
      "re",
      "la"
    ],
    [
      "re",
      "qu"
    ],
    [
      "re",
      "li"
    ],
    [
      "re",
      "d</w>"
    ],
    [
      "or",
      "i"
    ],
    [
      "en",
      "tr"
    ],
    [
      "er",
      "ing</w>"
    ],
    [
      "in",
      "formation</w>"
    ],
    [
      "x",
      "</w>"
    ],
    [
      "C",
      "on"
    ],
    [
      "w",
      "are</w>"
    ],
    [
      "m",
      "at"
    ],
    [
      "m",
      "in"
    ],
    [
      "m",
      "s</w>"
    ],
    [
      "m",
      "i"
    ],
    [
      "d",
      "om"
    ],
    [
      "f",
      "o"
    ],
    [
      "s",
      "erv"
    ],
    [
      "s",
      "um"
    ],
    [
      "s",
      "t</w>"
    ],
    [
      "s",
      "s</w>"
    ],
    [
      "n",
      "umb"
    ],
    [
      "e",
      "ach</w>"
    ],
    [
      "e",
      "st"
    ],
    [
      "e",
      "t</w>"
    ],
    [
      "c",
      "re"
    ],
    [
      "c",
      "l"
    ],
    [
      "l",
      "angu"
    ],
    [
      "l",
      "o"
    ],
    [
      "r",
      "ates</w>"
    ],
    [
      "u",
      "p"
    ],
    [
      "========",
      "========"
    ],
    [
      "op",
      "h"
    ],
    [
      "1",
      "0</w>"
    ],
    [
      "l",
      "os"
    ],
    [
      "rela",
      "tion"
    ],
    [
      "relation",
      "shi"
    ],
    [
      "acro",
      "ss</w>"
    ],
    [
      "exam",
      "ines</w>"
    ],
    [
      "ryp",
      "tion</w>"
    ],
    [
      "havi",
      "or</w>"
    ],
    [
      "dg",
      "e</w>"
    ],
    [
      "mem",
      "ory</w>"
    ],
    [
      "enab",
      "l"
    ],
    [
      "lear",
      "ning</w>"
    ],
    [
      "dat",
      "a</w>"
    ],
    [
      "ine",
      "ar</w>"
    ],
    [
      "esc",
      "ri"
    ],
    [
      "natur",
      "al</w>"
    ],
    [
      "prop",
      "os"
    ],
    [
      "val",
      "u"
    ],
    [
      "proces",
      "ses</w>"
    ],
    [
      "be",
      "havior</w>"
    ],
    [
      "ain",
      "s</w>"
    ],
    [
      "po",
      "si"
    ],
    [
      "all",
      "</w>"
    ],
    [
      "inf",
      "lu"
    ],
    [
      "it",
      "e</w>"
    ],
    [
      "vol",
      "u"
    ],
    [
      "ces",
      "s</w>"
    ],
    [
      "sh",
      "ap"
    ],
    [
      "und",
      "am"
    ],
    [
      "me",
      "as"
    ],
    [
      "se",
      "qu"
    ],
    [
      "iz",
      "ation</w>"
    ],
    [
      "op",
      "ul"
    ],
    [
      "ul",
      "es</w>"
    ],
    [
      "oc",
      "cur"
    ],
    [
      "qu",
      "anti"
    ],
    [
      "ap",
      "p"
    ],
    [
      "si",
      "s</w>"
    ],
    [
      "con",
      "di"
    ],
    [
      "ch",
      "ar"
    ],
    [
      "pl",
      "y</w>"
    ],
    [
      "pl",
      "e</w>"
    ],
    [
      "as",
      "e</w>"
    ],
    [
      "es",
      "t</w>"
    ],
    [
      "di",
      "ffer"
    ],
    [
      "tr",
      "a"
    ],
    [
      "li",
      "ght</w>"
    ],
    [
      "ac",
      "tions</w>"
    ],
    [
      "el",
      "i"
    ],
    [
      "em",
      "</w>"
    ],
    [
      "st",
      "u"
    ],
    [
      "re",
      "as"
    ],
    [
      "re",
      "a"
    ],
    [
      "al",
      "y"
    ],
    [
      "en",
      "g"
    ],
    [
      "er",
      "i"
    ],
    [
      "th",
      "an</w>"
    ],
    [
      "ti",
      "vi"
    ],
    [
      "on",
      "g</w>"
    ],
    [
      "an",
      "aly"
    ],
    [
      "an",
      "s</w>"
    ],
    [
      "C",
      "ol"
    ],
    [
      "C",
      "h"
    ],
    [
      "k",
      "ing</w>"
    ],
    [
      "p",
      "opul"
    ],
    [
      "g",
      "ra"
    ],
    [
      "g",
      "re"
    ],
    [
      "g",
      "l"
    ],
    [
      "v",
      "ers</w>"
    ],
    [
      "v",
      "er</w>"
    ],
    [
      "o",
      "us"
    ],
    [
      "o",
      "t"
    ],
    [
      "m",
      "et"
    ],
    [
      "d",
      "ec"
    ],
    [
      "s",
      "ocial</w>"
    ],
    [
      "s",
      "am"
    ],
    [
      "e",
      "i"
    ],
    [
      "c",
      "ap"
    ],
    [
      "c",
      "al"
    ],
    [
      "c",
      "e"
    ],
    [
      "l",
      "ate</w>"
    ],
    [
      "l",
      "og"
    ],
    [
      "l",
      "ab"
    ],
    [
      "r",
      "an"
    ],
    [
      "t",
      "ation</w>"
    ],
    [
      "t",
      "al</w>"
    ],
    [
      "t",
      "en"
    ],
    [
      "t",
      "in"
    ],
    [
      "a",
      "tional</w>"
    ],
    [
      "a",
      "u"
    ],
    [
      "sy",
      "ch"
    ],
    [
      "1",
      "3</w>"
    ],
    [
      "1",
      "6</w>"
    ],
    [
      "1",
      "5</w>"
    ],
    [
      "1",
      "4</w>"
    ],
    [
      "1",
      "2</w>"
    ],
    [
      "1",
      "1</w>"
    ],
    [
      "tivi",
      "ty</w>"
    ],
    [
      "stu",
      "dies</w>"
    ],
    [
      "char",
      "ac"
    ],
    [
      "meas",
      "ures</w>"
    ],
    [
      "undam",
      "ental</w>"
    ],
    [
      "volu",
      "tion</w>"
    ],
    [
      "escri",
      "b"
    ],
    [
      "enabl",
      "ing</w>"
    ],
    [
      "langu",
      "age</w>"
    ],
    [
      "est",
      "ab"
    ],
    [
      "estab",
      "li"
    ],
    [
      "establi",
      "sh"
    ],
    [
      "establish",
      "ed</w>"
    ],
    [
      "ori",
      "th"
    ],
    [
      "reli",
      "able</w>"
    ],
    [
      "chem",
      "ical</w>"
    ],
    [
      "sup",
      "ply</w>"
    ],
    [
      "invol",
      "ve</w>"
    ],
    [
      "oft",
      "ware</w>"
    ],
    [
      "marke",
      "ts</w>"
    ],
    [
      "know",
      "le"
    ],
    [
      "knowle",
      "dge</w>"
    ],
    [
      "no",
      "t</w>"
    ],
    [
      "pow",
      "er</w>"
    ],
    [
      "inte",
      "gr"
    ],
    [
      "thes",
      "e</w>"
    ],
    [
      "econ",
      "om"
    ],
    [
      "ni",
      "tive</w>"
    ],
    [
      "func",
      "tions</w>"
    ],
    [
      "func",
      "tion</w>"
    ],
    [
      "ge",
      "ometr"
    ],
    [
      "row",
      "th</w>"
    ],
    [
      "ach",
      "ine</w>"
    ],
    [
      "mor",
      "e</w>"
    ],
    [
      "compu",
      "ter</w>"
    ],
    [
      "par",
      "tic"
    ],
    [
      "provid",
      "e</w>"
    ],
    [
      "ff",
      "ici"
    ],
    [
      "bu",
      "t</w>"
    ],
    [
      "co",
      "un"
    ],
    [
      "ha",
      "ve</w>"
    ],
    [
      "all",
      "ow"
    ],
    [
      "ke",
      "y</w>"
    ],
    [
      "tur",
      "e</w>"
    ],
    [
      "it",
      "ed</w>"
    ],
    [
      "ob",
      "j"
    ],
    [
      "obj",
      "ec"
    ],
    [
      "inc",
      "i"
    ],
    [
      "il",
      "</w>"
    ],
    [
      "ne",
      "ur"
    ],
    [
      "ne",
      "t</w>"
    ],
    [
      "system",
      "</w>"
    ],
    [
      "se",
      "ar"
    ],
    [
      "sear",
      "ch</w>"
    ],
    [
      "og",
      "nitive</w>"
    ],
    [
      "the",
      "y</w>"
    ],
    [
      "the",
      "or"
    ],
    [
      "wi",
      "th"
    ],
    [
      "ent",
      "ur"
    ],
    [
      "per",
      "form"
    ],
    [
      "rou",
      "tes</w>"
    ],
    [
      "rou",
      "p</w>"
    ],
    [
      "sy",
      "n"
    ],
    [
      "enc",
      "y</w>"
    ],
    [
      "sp",
      "ace</w>"
    ],
    [
      "sp",
      "on"
    ],
    [
      "pl",
      "es</w>"
    ],
    [
      "pl",
      "an"
    ],
    [
      "un",
      "d</w>"
    ],
    [
      "di",
      "s"
    ],
    [
      "pro",
      "per"
    ],
    [
      "li",
      "tical</w>"
    ],
    [
      "li",
      "f"
    ],
    [
      "ac",
      "cess</w>"
    ],
    [
      "el",
      "y</w>"
    ],
    [
      "re",
      "spon"
    ],
    [
      "ar",
      "ch"
    ],
    [
      "ar",
      "d"
    ],
    [
      "ro",
      "p"
    ],
    [
      "al",
      "ity</w>"
    ],
    [
      "al",
      "g"
    ],
    [
      "en",
      "e"
    ],
    [
      "er",
      "n</w>"
    ],
    [
      "an",
      "other</w>"
    ],
    [
      "in",
      "ite</w>"
    ],
    [
      "U",
      "n"
    ],
    [
      ":",
      "</w>"
    ],
    [
      "j",
      "us"
    ],
    [
      "D",
      "e"
    ],
    [
      "b",
      "er"
    ],
    [
      "b",
      "on"
    ],
    [
      "y",
      "th"
    ],
    [
      "P",
      "ro"
    ],
    [
      "p",
      "sych"
    ],
    [
      "p",
      "or"
    ],
    [
      "p",
      "s</w>"
    ],
    [
      "g",
      "rowth</w>"
    ],
    [
      "g",
      "i"
    ],
    [
      "v",
      "ed</w>"
    ],
    [
      "v",
      "e"
    ],
    [
      "A",
      "l"
    ],
    [
      "o",
      "ver</w>"
    ],
    [
      "m",
      "ag"
    ],
    [
      "m",
      "ing</w>"
    ],
    [
      "m",
      "e</w>"
    ],
    [
      "d",
      "escrib"
    ],
    [
      "d",
      "ur"
    ],
    [
      "f",
      "ic</w>"
    ],
    [
      "s",
      "ens"
    ],
    [
      "s",
      "our"
    ],
    [
      "s",
      "ec"
    ],
    [
      "s",
      "a"
    ],
    [
      "i",
      "d</w>"
    ],
    [
      "c",
      "entur"
    ],
    [
      "c",
      "ode</w>"
    ],
    [
      "c",
      "ar"
    ],
    [
      "c",
      "or"
    ],
    [
      "l",
      "inear</w>"
    ],
    [
      "u",
      "m</w>"
    ],
    [
      "t",
      "ers</w>"
    ],
    [
      "a",
      "tive</w>"
    ],
    [
      "a",
      "d</w>"
    ],
    [
      "los",
      "oph"
    ],
    [
      "them",
      "a"
    ],
    [
      "hi",
      "losoph"
    ],
    [
      "ec",
      "h"
    ],
    [
      "W",
      "or"
    ],
    [
      "ech",
      "an"
    ],
    [
      "centur",
      "y</w>"
    ],
    [
      "describ",
      "es</w>"
    ],
    [
      "psych",
      "ology</w>"
    ],
    [
      "bon",
      "ds</w>"
    ],
    [
      "alg",
      "orith"
    ],
    [
      "respon",
      "ses</w>"
    ],
    [
      "proper",
      "ties</w>"
    ],
    [
      "with",
      "out</w>"
    ],
    [
      "econom",
      "ic</w>"
    ],
    [
      "tin",
      "u"
    ],
    [
      "sam",
      "e</w>"
    ],
    [
      "met",
      "als</w>"
    ],
    [
      "gra",
      "m</w>"
    ],
    [
      "analy",
      "sis</w>"
    ],
    [
      "propos",
      "ed</w>"
    ],
    [
      "relationshi",
      "ps</w>"
    ],
    [
      "numb",
      "ers</w>"
    ],
    [
      "fo",
      "und"
    ],
    [
      "dom",
      "es"
    ],
    [
      "mat",
      "eri"
    ],
    [
      "entr",
      "al</w>"
    ],
    [
      "stri",
      "bu"
    ],
    [
      "grap",
      "h</w>"
    ],
    [
      "speci",
      "fic</w>"
    ],
    [
      "individu",
      "als</w>"
    ],
    [
      "individu",
      "al</w>"
    ],
    [
      "compl",
      "ex"
    ],
    [
      "tro",
      "l"
    ],
    [
      "tec",
      "h"
    ],
    [
      "inte",
      "g"
    ],
    [
      "atom",
      "ic</w>"
    ],
    [
      "prob",
      "ability</w>"
    ],
    [
      "prob",
      "l"
    ],
    [
      "tern",
      "s</w>"
    ],
    [
      "inclu",
      "ding</w>"
    ],
    [
      "fac",
      "t"
    ],
    [
      "dem",
      "oc"
    ],
    [
      "pr",
      "inci"
    ],
    [
      "pr",
      "ices</w>"
    ],
    [
      "arg",
      "um"
    ],
    [
      "comm",
      "un"
    ],
    [
      "commun",
      "ication</w>"
    ],
    [
      "struc",
      "tures</w>"
    ],
    [
      "transform",
      "ations</w>"
    ],
    [
      "ma",
      "thema"
    ],
    [
      "prop",
      "ag"
    ],
    [
      "col",
      "l"
    ],
    [
      "proces",
      "s</w>"
    ],
    [
      "bo",
      "und"
    ],
    [
      "bound",
      "ar"
    ],
    [
      "boundar",
      "ies</w>"
    ],
    [
      "develop",
      "ed</w>"
    ],
    [
      "bu",
      "il"
    ],
    [
      "stor",
      "s</w>"
    ],
    [
      "produc",
      "ers</w>"
    ],
    [
      "electr",
      "on</w>"
    ],
    [
      "ob",
      "serv"
    ],
    [
      "inter",
      "v"
    ],
    [
      "wh",
      "en</w>"
    ],
    [
      "wh",
      "ic"
    ],
    [
      "whic",
      "h</w>"
    ],
    [
      "str",
      "and</w>"
    ],
    [
      "pu",
      "t</w>"
    ],
    [
      "ne",
      "w</w>"
    ],
    [
      "ph",
      "en"
    ],
    [
      "phen",
      "om"
    ],
    [
      "phenom",
      "en"
    ],
    [
      "phenomen",
      "a</w>"
    ],
    [
      "se",
      "t</w>"
    ],
    [
      "wor",
      "l"
    ],
    [
      "os",
      "e</w>"
    ],
    [
      "su",
      "ch</w>"
    ],
    [
      "ra",
      "ys</w>"
    ],
    [
      "ver",
      "y</w>"
    ],
    [
      "le",
      "ad"
    ],
    [
      "ou",
      "t"
    ],
    [
      "wi",
      "de</w>"
    ],
    [
      "ent",
      "ed</w>"
    ],
    [
      "ir",
      "st</w>"
    ],
    [
      "ir",
      "e</w>"
    ],
    [
      "sy",
      "m"
    ],
    [
      "enc",
      "ryption</w>"
    ],
    [
      "enc",
      "ed</w>"
    ],
    [
      "ad",
      "d"
    ],
    [
      "hi",
      "gh"
    ],
    [
      "op",
      "er"
    ],
    [
      "com",
      "p"
    ],
    [
      "sp",
      "h"
    ],
    [
      "us",
      "ed</w>"
    ],
    [
      "oc",
      "e"
    ],
    [
      "ap",
      "pl"
    ],
    [
      "si",
      "ons</w>"
    ],
    [
      "tic",
      "e</w>"
    ],
    [
      "con",
      "trol"
    ],
    [
      "con",
      "sum"
    ],
    [
      "con",
      "ver"
    ],
    [
      "ex",
      "peri"
    ],
    [
      "ex",
      "change</w>"
    ],
    [
      "vi",
      "r"
    ],
    [
      "vir",
      "on"
    ],
    [
      "ab",
      "out</w>"
    ],
    [
      "ab",
      "les</w>"
    ],
    [
      "as",
      "ks</w>"
    ],
    [
      "as",
      "t</w>"
    ],
    [
      "as",
      "s</w>"
    ],
    [
      "es",
      "ti"
    ],
    [
      "es",
      "p"
    ],
    [
      "di",
      "stribu"
    ],
    [
      "pro",
      "tec"
    ],
    [
      "ol",
      "ec"
    ],
    [
      "olec",
      "ules</w>"
    ],
    [
      "tr",
      "i"
    ],
    [
      "ac",
      "k</w>"
    ],
    [
      "ac",
      "tion</w>"
    ],
    [
      "ac",
      "c"
    ],
    [
      "at",
      "terns</w>"
    ],
    [
      "ic",
      "e</w>"
    ],
    [
      "re",
      "pres"
    ],
    [
      "re",
      "duc"
    ],
    [
      "re",
      "m"
    ],
    [
      "ro",
      "und</w>"
    ],
    [
      "ro",
      "ad"
    ],
    [
      "or",
      "ity</w>"
    ],
    [
      "or",
      "d"
    ],
    [
      "en",
      "viron"
    ],
    [
      "en",
      "s</w>"
    ],
    [
      "en",
      "d"
    ],
    [
      "th",
      "ree</w>"
    ],
    [
      "th",
      "er"
    ],
    [
      "ti",
      "ves</w>"
    ],
    [
      "ti",
      "f"
    ],
    [
      "an",
      "t"
    ],
    [
      "in",
      "d"
    ],
    [
      "in",
      "s"
    ],
    [
      "in",
      "n"
    ],
    [
      "R",
      "e"
    ],
    [
      "W",
      "ar</w>"
    ],
    [
      "Q",
      "u"
    ],
    [
      "E",
      "ar"
    ],
    [
      "D",
      "N"
    ],
    [
      "w",
      "as</w>"
    ],
    [
      "b",
      "as"
    ],
    [
      "b",
      "</w>"
    ],
    [
      "k",
      "ed</w>"
    ],
    [
      "p",
      "atterns</w>"
    ],
    [
      "p",
      "ass"
    ],
    [
      "p",
      "ol"
    ],
    [
      "g",
      "n"
    ],
    [
      "v",
      "ari"
    ],
    [
      "o",
      "ver"
    ],
    [
      "m",
      "olecules</w>"
    ],
    [
      "m",
      "echan"
    ],
    [
      "m",
      "achine</w>"
    ],
    [
      "m",
      "ul"
    ],
    [
      "m",
      "on"
    ],
    [
      "d",
      "ou"
    ],
    [
      "d",
      "oc"
    ],
    [
      "f",
      "undamental</w>"
    ],
    [
      "f",
      "er"
    ],
    [
      "h",
      "y"
    ],
    [
      "s",
      "oftware</w>"
    ],
    [
      "s",
      "cal"
    ],
    [
      "s",
      "econ"
    ],
    [
      "s",
      "ci"
    ],
    [
      "s",
      "on</w>"
    ],
    [
      "s",
      "ur"
    ],
    [
      "s",
      "em"
    ],
    [
      "s",
      "ed</w>"
    ],
    [
      "s",
      "ing</w>"
    ],
    [
      "e",
      "ffici"
    ],
    [
      "e",
      "p</w>"
    ],
    [
      "e",
      "ar"
    ],
    [
      "i",
      "ons</w>"
    ],
    [
      "i",
      "de"
    ],
    [
      "i",
      "d"
    ],
    [
      "c",
      "an"
    ],
    [
      "l",
      "ess</w>"
    ],
    [
      "t",
      "asks</w>"
    ],
    [
      "a",
      "round</w>"
    ],
    [
      "N",
      "e"
    ],
    [
      "hilosoph",
      "y</w>"
    ],
    [
      "can",
      "not</w>"
    ],
    [
      "id",
      "enti"
    ],
    [
      "sur",
      "fac"
    ],
    [
      "sci",
      "ence</w>"
    ],
    [
      "secon",
      "d</w>"
    ],
    [
      "doc",
      "um"
    ],
    [
      "dou",
      "ble</w>"
    ],
    [
      "mul",
      "ti"
    ],
    [
      "multi",
      "ple</w>"
    ],
    [
      "pol",
      "ic"
    ],
    [
      "polic",
      "y</w>"
    ],
    [
      "DN",
      "A</w>"
    ],
    [
      "Ear",
      "th</w>"
    ],
    [
      "Re",
      "volution</w>"
    ],
    [
      "environ",
      "ment</w>"
    ],
    [
      "distribu",
      "tion</w>"
    ],
    [
      "experi",
      "ence</w>"
    ],
    [
      "sph",
      "ere</w>"
    ],
    [
      "add",
      "res"
    ],
    [
      "lead",
      "ing</w>"
    ],
    [
      "worl",
      "d"
    ],
    [
      "world",
      "wide</w>"
    ],
    [
      "interv",
      "en"
    ],
    [
      "interven",
      "tion</w>"
    ],
    [
      "coll",
      "ec"
    ],
    [
      "princi",
      "ples</w>"
    ],
    [
      "tech",
      "n"
    ],
    [
      "domes",
      "tic</w>"
    ],
    [
      "tinu",
      "ous</w>"
    ],
    [
      "sec",
      "ur"
    ],
    [
      "sour",
      "ce</w>"
    ],
    [
      "dur",
      "ing</w>"
    ],
    [
      "mag",
      "ne"
    ],
    [
      "magne",
      "tic</w>"
    ],
    [
      "yth",
      "ology</w>"
    ],
    [
      "jus",
      "tice</w>"
    ],
    [
      "Un",
      "ited</w>"
    ],
    [
      "lif",
      "e</w>"
    ],
    [
      "syn",
      "thes"
    ],
    [
      "perform",
      "ance</w>"
    ],
    [
      "theor",
      "em</w>"
    ],
    [
      "objec",
      "ts</w>"
    ],
    [
      "allow",
      "s</w>"
    ],
    [
      "partic",
      "les</w>"
    ],
    [
      "au",
      "th"
    ],
    [
      "auth",
      "ority</w>"
    ],
    [
      "log",
      "ic</w>"
    ],
    [
      "ce",
      "p"
    ],
    [
      "gl",
      "ob"
    ],
    [
      "gre",
      "ater</w>"
    ],
    [
      "popul",
      "ation</w>"
    ],
    [
      "Col",
      "d</w>"
    ],
    [
      "eng",
      "ine"
    ],
    [
      "engine",
      "ering</w>"
    ],
    [
      "reas",
      "on"
    ],
    [
      "reason",
      "ing</w>"
    ],
    [
      "tra",
      "its</w>"
    ],
    [
      "differ",
      "ential</w>"
    ],
    [
      "differ",
      "ent</w>"
    ],
    [
      "condi",
      "tions</w>"
    ],
    [
      "condi",
      "tion"
    ],
    [
      "app",
      "li"
    ],
    [
      "app",
      "ing</w>"
    ],
    [
      "quanti",
      "ties</w>"
    ],
    [
      "occur",
      "s</w>"
    ],
    [
      "shap",
      "e</w>"
    ],
    [
      "influ",
      "enced</w>"
    ],
    [
      "influ",
      "ence</w>"
    ],
    [
      "lo",
      "ve</w>"
    ],
    [
      "cl",
      "ass"
    ],
    [
      "cre",
      "ating</w>"
    ],
    [
      "cre",
      "ated</w>"
    ],
    [
      "numb",
      "er</w>"
    ],
    [
      "fo",
      "od</w>"
    ],
    [
      "min",
      "d</w>"
    ],
    [
      "connec",
      "ted</w>"
    ],
    [
      "grap",
      "h"
    ],
    [
      "govern",
      "ment</w>"
    ],
    [
      "ev",
      "ent</w>"
    ],
    [
      "sol",
      "ving</w>"
    ],
    [
      "oft",
      "en</w>"
    ],
    [
      "direc",
      "tion</w>"
    ],
    [
      "direc",
      "t"
    ],
    [
      "direct",
      "ly</w>"
    ],
    [
      "model",
      "s</w>"
    ],
    [
      "model",
      "</w>"
    ],
    [
      "marke",
      "t</w>"
    ],
    [
      "cul",
      "us</w>"
    ],
    [
      "gener",
      "ate</w>"
    ],
    [
      "pow",
      "ers</w>"
    ],
    [
      "wa",
      "ves</w>"
    ],
    [
      "enab",
      "les</w>"
    ],
    [
      "tern",
      "al</w>"
    ],
    [
      "inclu",
      "de</w>"
    ],
    [
      "tu",
      "m</w>"
    ],
    [
      "ni",
      "on</w>"
    ],
    [
      "dat",
      "ab"
    ],
    [
      "datab",
      "ases</w>"
    ],
    [
      "dem",
      "and</w>"
    ],
    [
      "pri",
      "me</w>"
    ],
    [
      "In",
      "d"
    ],
    [
      "organ",
      "iz"
    ],
    [
      "arg",
      "e</w>"
    ],
    [
      "transform",
      "ed</w>"
    ],
    [
      "natur",
      "e</w>"
    ],
    [
      "fl",
      "ow"
    ],
    [
      "fi",
      "ve</w>"
    ],
    [
      "stan",
      "ces</w>"
    ],
    [
      "stan",
      "d"
    ],
    [
      "stand",
      "ar"
    ],
    [
      "standar",
      "d</w>"
    ],
    [
      "ach",
      "ed</w>"
    ],
    [
      "man",
      "ag"
    ],
    [
      "manag",
      "ement</w>"
    ],
    [
      "man",
      "y</w>"
    ],
    [
      "mor",
      "al</w>"
    ],
    [
      "go",
      "ods</w>"
    ],
    [
      "compu",
      "ting</w>"
    ],
    [
      "te",
      "sting</w>"
    ],
    [
      "networ",
      "k</w>"
    ],
    [
      "mo",
      "tion</w>"
    ],
    [
      "mo",
      "v"
    ],
    [
      "mod",
      "ern</w>"
    ],
    [
      "our",
      "</w>"
    ],
    [
      "bo",
      "dies</w>"
    ],
    [
      "expl",
      "ains</w>"
    ],
    [
      "ili",
      "t"
    ],
    [
      "olog",
      "ical</w>"
    ],
    [
      "po",
      "litical</w>"
    ],
    [
      "tim",
      "ization</w>"
    ],
    [
      "tim",
      "ul"
    ],
    [
      "stor",
      "age</w>"
    ],
    [
      "stor",
      "es</w>"
    ],
    [
      "produc",
      "ing</w>"
    ],
    [
      "produc",
      "t</w>"
    ],
    [
      "produc",
      "e</w>"
    ],
    [
      "inf",
      "inite</w>"
    ],
    [
      "electr",
      "ons</w>"
    ],
    [
      "electr",
      "ic</w>"
    ],
    [
      "electr",
      "on"
    ],
    [
      "ta",
      "in"
    ],
    [
      "tur",
      "al</w>"
    ],
    [
      "equ",
      "als</w>"
    ],
    [
      "inter",
      "n"
    ],
    [
      "wh",
      "e"
    ],
    [
      "vel",
      "</w>"
    ],
    [
      "pu",
      "ts</w>"
    ],
    [
      "il",
      "l"
    ],
    [
      "ne",
      "u"
    ],
    [
      "sh",
      "are</w>"
    ],
    [
      "sh",
      "ow"
    ],
    [
      "ph",
      "as"
    ],
    [
      "la",
      "sting</w>"
    ],
    [
      "system",
      "a"
    ],
    [
      "im",
      "m"
    ],
    [
      "imm",
      "un"
    ],
    [
      "me",
      "di"
    ],
    [
      "me",
      "th"
    ],
    [
      "meth",
      "ods</w>"
    ],
    [
      "me",
      "an"
    ],
    [
      "mean",
      "ing</w>"
    ],
    [
      "wor",
      "ld</w>"
    ],
    [
      "rough",
      "ly</w>"
    ],
    [
      "ra",
      "tic</w>"
    ],
    [
      "ra",
      "in</w>"
    ],
    [
      "ra",
      "di"
    ],
    [
      "ver",
      "se</w>"
    ],
    [
      "is",
      "ms</w>"
    ],
    [
      "is",
      "ol"
    ],
    [
      "per",
      "spec"
    ],
    [
      "od",
      "es</w>"
    ],
    [
      "am",
      "s</w>"
    ],
    [
      "hi",
      "er"
    ],
    [
      "hier",
      "arch"
    ],
    [
      "et",
      "ing</w>"
    ],
    [
      "sp",
      "an"
    ],
    [
      "span",
      "ning</w>"
    ],
    [
      "sp",
      "e"
    ],
    [
      "ul",
      "d</w>"
    ],
    [
      "us",
      "t</w>"
    ],
    [
      "oc",
      "rates</w>"
    ],
    [
      "uc",
      "le"
    ],
    [
      "de",
      "struc"
    ],
    [
      "de",
      "ter"
    ],
    [
      "de",
      "p"
    ],
    [
      "de",
      "f"
    ],
    [
      "ap",
      "pro"
    ],
    [
      "si",
      "stors</w>"
    ],
    [
      "si",
      "ble</w>"
    ],
    [
      "si",
      "z"
    ],
    [
      "tic",
      "ally</w>"
    ],
    [
      "con",
      "tain</w>"
    ],
    [
      "con",
      "stan"
    ],
    [
      "con",
      "duc"
    ],
    [
      "con",
      "si"
    ],
    [
      "con",
      "c"
    ],
    [
      "ri",
      "vers</w>"
    ],
    [
      "ri",
      "tain</w>"
    ],
    [
      "ri",
      "ght</w>"
    ],
    [
      "ri",
      "ers</w>"
    ],
    [
      "ri",
      "st"
    ],
    [
      "ex",
      "pres"
    ],
    [
      "ex",
      "per"
    ],
    [
      "ex",
      "p"
    ],
    [
      "vi",
      "et</w>"
    ],
    [
      "vi",
      "sion</w>"
    ],
    [
      "pl",
      "ates</w>"
    ],
    [
      "as",
      "h</w>"
    ],
    [
      "es",
      "e</w>"
    ],
    [
      "for",
      "c"
    ],
    [
      "pro",
      "gram</w>"
    ],
    [
      "ol",
      "ic</w>"
    ],
    [
      "ol",
      "s</w>"
    ],
    [
      "om",
      "an</w>"
    ],
    [
      "li",
      "z"
    ],
    [
      "li",
      "g"
    ],
    [
      "li",
      "m"
    ],
    [
      "ac",
      "tivity</w>"
    ],
    [
      "el",
      "</w>"
    ],
    [
      "ec",
      "t"
    ],
    [
      "to",
      "tal</w>"
    ],
    [
      "em",
      "phas"
    ],
    [
      "em",
      "s</w>"
    ],
    [
      "em",
      "o"
    ],
    [
      "st",
      "er</w>"
    ],
    [
      "ic",
      "ity</w>"
    ],
    [
      "ic",
      "ations</w>"
    ],
    [
      "ic",
      "on"
    ],
    [
      "re",
      "ached</w>"
    ],
    [
      "re",
      "ve"
    ],
    [
      "re",
      "search</w>"
    ],
    [
      "re",
      "e"
    ],
    [
      "re",
      "l"
    ],
    [
      "ar",
      "ra"
    ],
    [
      "ar",
      "is"
    ],
    [
      "al",
      "ism</w>"
    ],
    [
      "al",
      "i"
    ],
    [
      "or",
      "ation</w>"
    ],
    [
      "or",
      "ing</w>"
    ],
    [
      "er",
      "ve</w>"
    ],
    [
      "er",
      "ed</w>"
    ],
    [
      "th",
      "ics</w>"
    ],
    [
      "th",
      "s</w>"
    ],
    [
      "ti",
      "z"
    ],
    [
      "ti",
      "s"
    ],
    [
      "tis",
      "tics</w>"
    ],
    [
      "on",
      "ly</w>"
    ],
    [
      "an",
      "tum</w>"
    ],
    [
      "an",
      "t</w>"
    ],
    [
      "in",
      "ary</w>"
    ],
    [
      "in",
      "ed</w>"
    ],
    [
      "in",
      "d</w>"
    ],
    [
      "R",
      "oman</w>"
    ],
    [
      "R",
      "a"
    ],
    [
      "M",
      "od"
    ],
    [
      "B",
      "ritain</w>"
    ],
    [
      "B",
      "e"
    ],
    [
      "U",
      "nion</w>"
    ],
    [
      "O",
      "per"
    ],
    [
      "O",
      "</w>"
    ],
    [
      "1",
      "4"
    ],
    [
      "1",
      "8"
    ],
    [
      "E",
      "x"
    ],
    [
      "E",
      "u"
    ],
    [
      "Eu",
      "rop"
    ],
    [
      "j",
      "u"
    ],
    [
      "'",
      "</w>"
    ],
    [
      "D",
      "P</w>"
    ],
    [
      "D",
      "ec"
    ],
    [
      "x",
      "im"
    ],
    [
      "I",
      "P</w>"
    ],
    [
      "I",
      "</w>"
    ],
    [
      "C",
      "P</w>"
    ],
    [
      "C",
      "al"
    ],
    [
      "w",
      "o</w>"
    ],
    [
      "b",
      "olic</w>"
    ],
    [
      "b",
      "ar"
    ],
    [
      "b",
      "or"
    ],
    [
      "b",
      "an"
    ],
    [
      "b",
      "l"
    ],
    [
      "y",
      "ing</w>"
    ],
    [
      "y",
      "c"
    ],
    [
      "yc",
      "le</w>"
    ],
    [
      "k",
      "es</w>"
    ],
    [
      "p",
      "li"
    ],
    [
      "g",
      "roup</w>"
    ],
    [
      "v",
      "en</w>"
    ],
    [
      "v",
      "ap"
    ],
    [
      "A",
      "r"
    ],
    [
      "o",
      "viet</w>"
    ],
    [
      "o",
      "y"
    ],
    [
      "m",
      "al</w>"
    ],
    [
      "m",
      "er"
    ],
    [
      "d",
      "el"
    ],
    [
      "d",
      "ic"
    ],
    [
      "d",
      "d"
    ],
    [
      "d",
      "r"
    ],
    [
      "f",
      "irst</w>"
    ],
    [
      "f",
      "oc"
    ],
    [
      "f",
      "</w>"
    ],
    [
      "h",
      "eli"
    ],
    [
      "h",
      "and"
    ],
    [
      "h",
      "as</w>"
    ],
    [
      "h",
      "o"
    ],
    [
      "h",
      "e"
    ],
    [
      "T",
      "CP</w>"
    ],
    [
      "T",
      "ran"
    ],
    [
      "T",
      "P</w>"
    ],
    [
      "s",
      "timul"
    ],
    [
      "s",
      "ors</w>"
    ],
    [
      "s",
      "o</w>"
    ],
    [
      "n",
      "ucle"
    ],
    [
      "n",
      "odes</w>"
    ],
    [
      "n",
      "s</w>"
    ],
    [
      "e",
      "very</w>"
    ],
    [
      "e",
      "y</w>"
    ],
    [
      "e",
      "d"
    ],
    [
      "i",
      "ghts</w>"
    ],
    [
      "i",
      "ly</w>"
    ],
    [
      "i",
      "t</w>"
    ],
    [
      "c",
      "entral</w>"
    ],
    [
      "c",
      "ognitive</w>"
    ],
    [
      "c",
      "er"
    ],
    [
      "S",
      "oviet</w>"
    ],
    [
      "S",
      "ocrates</w>"
    ],
    [
      "S",
      "ocial</w>"
    ],
    [
      "S",
      "t"
    ],
    [
      "l",
      "or"
    ],
    [
      "r",
      "ang"
    ],
    [
      "u",
      "stri"
    ],
    [
      "u",
      "t"
    ],
    [
      "t",
      "wo</w>"
    ],
    [
      "t",
      "ari"
    ],
    [
      "t",
      "yp"
    ],
    [
      "t",
      "el"
    ],
    [
      "t",
      "em"
    ],
    [
      "a",
      "in</w>"
    ],
    [
      "a",
      "v"
    ],
    [
      "================",
      "================"
    ],
    [
      "Wor",
      "ld</w>"
    ],
    [
      "enc",
      "es</w>"
    ],
    [
      "C",
      "om"
    ],
    [
      "av",
      "a"
    ],
    [
      "ava",
      "il"
    ],
    [
      "avail",
      "able</w>"
    ],
    [
      "tel",
      "lig"
    ],
    [
      "tellig",
      "ence</w>"
    ],
    [
      "typ",
      "ic"
    ],
    [
      "typic",
      "ally</w>"
    ],
    [
      "ustri",
      "al</w>"
    ],
    [
      "rang",
      "es</w>"
    ],
    [
      "St",
      "ates</w>"
    ],
    [
      "cer",
      "tain</w>"
    ],
    [
      "stimul",
      "us</w>"
    ],
    [
      "Tran",
      "s"
    ],
    [
      "hand",
      "les</w>"
    ],
    [
      "heli",
      "x</w>"
    ],
    [
      "foc",
      "uses</w>"
    ],
    [
      "dr",
      "am"
    ],
    [
      "dram",
      "a"
    ],
    [
      "drama",
      "tically</w>"
    ],
    [
      "mer",
      "ic"
    ],
    [
      "meric",
      "as</w>"
    ],
    [
      "vap",
      "or</w>"
    ],
    [
      "ban",
      "ks</w>"
    ],
    [
      "bor",
      "row"
    ],
    [
      "bar",
      "riers</w>"
    ],
    [
      "Cal",
      "culus</w>"
    ],
    [
      "Europ",
      "e</w>"
    ],
    [
      "18",
      "th</w>"
    ],
    [
      "Be",
      "havi"
    ],
    [
      "Behavi",
      "or"
    ],
    [
      "Behavior",
      "al</w>"
    ],
    [
      "Mod",
      "ern</w>"
    ],
    [
      "ree",
      "k</w>"
    ],
    [
      "reve",
      "al"
    ],
    [
      "reveal",
      "ing</w>"
    ],
    [
      "icon",
      "duc"
    ],
    [
      "iconduc",
      "t"
    ],
    [
      "iconduct",
      "or</w>"
    ],
    [
      "emo",
      "tion</w>"
    ],
    [
      "ect",
      "ors</w>"
    ],
    [
      "lim",
      "its</w>"
    ],
    [
      "liz",
      "ations</w>"
    ],
    [
      "forc",
      "ement</w>"
    ],
    [
      "exper",
      "im"
    ],
    [
      "expres",
      "sed</w>"
    ],
    [
      "rist",
      "ot"
    ],
    [
      "ristot",
      "le</w>"
    ],
    [
      "conc",
      "lu"
    ],
    [
      "conclu",
      "sions</w>"
    ],
    [
      "constan",
      "t</w>"
    ],
    [
      "siz",
      "es</w>"
    ],
    [
      "appro",
      "xim"
    ],
    [
      "dep",
      "end"
    ],
    [
      "deter",
      "m"
    ],
    [
      "destruc",
      "tion</w>"
    ],
    [
      "spe",
      "ed</w>"
    ],
    [
      "hierarch",
      "ical</w>"
    ],
    [
      "perspec",
      "tive</w>"
    ],
    [
      "isol",
      "ation</w>"
    ],
    [
      "radi",
      "o</w>"
    ],
    [
      "immun",
      "ity</w>"
    ],
    [
      "systema",
      "tic</w>"
    ],
    [
      "show",
      "ed</w>"
    ],
    [
      "whe",
      "ther</w>"
    ],
    [
      "intern",
      "al</w>"
    ],
    [
      "tain",
      "ty</w>"
    ],
    [
      "electron",
      "ics</w>"
    ],
    [
      "mov",
      "ement</w>"
    ],
    [
      "flow",
      "s</w>"
    ],
    [
      "organiz",
      "es</w>"
    ],
    [
      "Ind",
      "ustrial</w>"
    ],
    [
      "graph",
      "y</w>"
    ],
    [
      "class",
      "ical</w>"
    ],
    [
      "appli",
      "es</w>"
    ],
    [
      "condition",
      "ing</w>"
    ],
    [
      "glob",
      "al</w>"
    ],
    [
      "synthes",
      "ized</w>"
    ],
    [
      "techn",
      "olog"
    ],
    [
      "technolog",
      "ies</w>"
    ],
    [
      "addres",
      "s</w>"
    ],
    [
      "surfac",
      "es</w>"
    ],
    [
      "Ne",
      "ur"
    ],
    [
      "ide",
      "as</w>"
    ],
    [
      "ear",
      "s</w>"
    ],
    [
      "effici",
      "ent</w>"
    ],
    [
      "sem",
      "an"
    ],
    [
      "seman",
      "tic</w>"
    ],
    [
      "hy",
      "per"
    ],
    [
      "mon",
      "ey</w>"
    ],
    [
      "mechan",
      "ics</w>"
    ],
    [
      "vari",
      "ables</w>"
    ],
    [
      "vari",
      "able</w>"
    ],
    [
      "gn",
      "als</w>"
    ],
    [
      "pass",
      "es</w>"
    ],
    [
      "bas",
      "is</w>"
    ],
    [
      "bas",
      "ed</w>"
    ],
    [
      "Qu",
      "antum</w>"
    ],
    [
      "inn",
      "ate</w>"
    ],
    [
      "inn",
      "er</w>"
    ],
    [
      "ins",
      "er"
    ],
    [
      "inser",
      "tions</w>"
    ],
    [
      "tif",
      "ici"
    ],
    [
      "tifici",
      "al</w>"
    ],
    [
      "road",
      "er</w>"
    ],
    [
      "road",
      "s</w>"
    ],
    [
      "rem",
      "ents</w>"
    ],
    [
      "reduc",
      "e</w>"
    ],
    [
      "repres",
      "ent"
    ],
    [
      "repres",
      "ent</w>"
    ],
    [
      "acc",
      "um"
    ],
    [
      "accum",
      "ul"
    ],
    [
      "accumul",
      "ation</w>"
    ],
    [
      "acc",
      "el"
    ],
    [
      "accel",
      "er"
    ],
    [
      "protec",
      "ts</w>"
    ],
    [
      "esp",
      "e"
    ],
    [
      "espe",
      "are</w>"
    ],
    [
      "esti",
      "al</w>"
    ],
    [
      "esti",
      "g"
    ],
    [
      "estig",
      "ates</w>"
    ],
    [
      "consum",
      "ers</w>"
    ],
    [
      "control",
      "</w>"
    ],
    [
      "appl",
      "ications</w>"
    ],
    [
      "appl",
      "ication</w>"
    ],
    [
      "oce",
      "ans</w>"
    ],
    [
      "oper",
      "ations</w>"
    ],
    [
      "high",
      "</w>"
    ],
    [
      "sym",
      "bolic</w>"
    ],
    [
      "out",
      "put</w>"
    ],
    [
      "observ",
      "able</w>"
    ],
    [
      "observ",
      "ed</w>"
    ],
    [
      "buil",
      "ding</w>"
    ],
    [
      "propag",
      "ation</w>"
    ],
    [
      "mathema",
      "tical</w>"
    ],
    [
      "mathema",
      "tics</w>"
    ],
    [
      "argum",
      "ents</w>"
    ],
    [
      "democ",
      "r"
    ],
    [
      "democr",
      "ac"
    ],
    [
      "democrac",
      "y</w>"
    ],
    [
      "probl",
      "ems</w>"
    ],
    [
      "probl",
      "em</w>"
    ],
    [
      "integ",
      "ers</w>"
    ],
    [
      "complex",
      "ity</w>"
    ],
    [
      "complex",
      "</w>"
    ],
    [
      "materi",
      "als</w>"
    ],
    [
      "materi",
      "al</w>"
    ],
    [
      "algorith",
      "ms</w>"
    ],
    [
      "algorith",
      "m</w>"
    ],
    [
      "cor",
      "por"
    ],
    [
      "car",
      "b"
    ],
    [
      "carb",
      "on</w>"
    ],
    [
      "sa",
      "w</w>"
    ],
    [
      "sour",
      "ces</w>"
    ],
    [
      "sens",
      "ory</w>"
    ],
    [
      "ber",
      "g</w>"
    ],
    [
      "De",
      "velop"
    ],
    [
      "ene",
      "tic</w>"
    ],
    [
      "ene",
      "w"
    ],
    [
      "enew",
      "able</w>"
    ],
    [
      "rop",
      "y</w>"
    ],
    [
      "ard",
      "less</w>"
    ],
    [
      "ard",
      "ware</w>"
    ],
    [
      "dis",
      "co"
    ],
    [
      "plan",
      "ts</w>"
    ],
    [
      "perform",
      "ing</w>"
    ],
    [
      "theor",
      "ies</w>"
    ],
    [
      "neur",
      "ons</w>"
    ],
    [
      "neur",
      "al</w>"
    ],
    [
      "coun",
      "tr"
    ],
    [
      "coun",
      "t"
    ],
    [
      "count",
      "ab"
    ],
    [
      "countab",
      "ly</w>"
    ],
    [
      "geometr",
      "ic</w>"
    ],
    [
      "geometr",
      "y</w>"
    ],
    [
      "integr",
      "al</w>"
    ],
    [
      "charac",
      "ters</w>"
    ],
    [
      "charac",
      "ter</w>"
    ],
    [
      "ran",
      "e</w>"
    ],
    [
      "lab",
      "or</w>"
    ],
    [
      "lab",
      "el"
    ],
    [
      "label",
      "ed</w>"
    ],
    [
      "ce",
      "e"
    ],
    [
      "cee",
      "ds</w>"
    ],
    [
      "cap",
      "ture</w>"
    ],
    [
      "ei",
      "ght</w>"
    ],
    [
      "ei",
      "g"
    ],
    [
      "dec",
      "ryption</w>"
    ],
    [
      "dec",
      "i"
    ],
    [
      "ous",
      "ly</w>"
    ],
    [
      "Col",
      "um"
    ],
    [
      "analy",
      "z"
    ],
    [
      "eri",
      "v"
    ],
    [
      "eriv",
      "ative</w>"
    ],
    [
      "eng",
      "ths</w>"
    ],
    [
      "rea",
      "m</w>"
    ],
    [
      "reas",
      "ing</w>"
    ],
    [
      "quanti",
      "ty</w>"
    ],
    [
      "occur",
      "</w>"
    ],
    [
      "sequ",
      "ent</w>"
    ],
    [
      "shap",
      "es</w>"
    ],
    [
      "posi",
      "tive</w>"
    ],
    [
      "posi",
      "tion</w>"
    ],
    [
      "posi",
      "t"
    ],
    [
      "valu",
      "es</w>"
    ],
    [
      "valu",
      "e</w>"
    ],
    [
      "propos",
      "ing</w>"
    ],
    [
      "relationshi",
      "p</w>"
    ],
    [
      "up",
      "on</w>"
    ],
    [
      "up",
      "d"
    ],
    [
      "langu",
      "ages</w>"
    ],
    [
      "cl",
      "ou"
    ],
    [
      "est",
      "ment</w>"
    ],
    [
      "serv",
      "ices</w>"
    ],
    [
      "mi",
      "to"
    ],
    [
      "mi",
      "t</w>"
    ],
    [
      "mat",
      "ter</w>"
    ],
    [
      "requ",
      "ire</w>"
    ],
    [
      "requ",
      "ency</w>"
    ],
    [
      "requ",
      "i"
    ],
    [
      "requi",
      "rements</w>"
    ],
    [
      "off",
      "ering</w>"
    ],
    [
      "off",
      "ers</w>"
    ],
    [
      "off",
      "er</w>"
    ],
    [
      "ometr",
      "y</w>"
    ],
    [
      "uni",
      "ties</w>"
    ],
    [
      "chem",
      "as</w>"
    ],
    [
      "peri",
      "od</w>"
    ],
    [
      "sup",
      "pli"
    ],
    [
      "sub",
      "sequent</w>"
    ],
    [
      "speci",
      "al"
    ],
    [
      "govern",
      "ance</w>"
    ],
    [
      "ryp",
      "to"
    ],
    [
      "rypto",
      "graphy</w>"
    ],
    [
      "ev",
      "ements</w>"
    ],
    [
      "sol",
      "ved</w>"
    ],
    [
      "sol",
      "ar</w>"
    ],
    [
      "pa",
      "ir"
    ],
    [
      "pair",
      "s</w>"
    ],
    [
      "pre",
      "dic"
    ],
    [
      "pre",
      "ci"
    ],
    [
      "inv",
      "estment</w>"
    ],
    [
      "inv",
      "estigates</w>"
    ],
    [
      "inv",
      "ented</w>"
    ],
    [
      "and",
      "ed</w>"
    ],
    [
      "model",
      "ing</w>"
    ],
    [
      "know",
      "n</w>"
    ],
    [
      "tro",
      "magnetic</w>"
    ],
    [
      "cul",
      "tural</w>"
    ],
    [
      "cul",
      "tures</w>"
    ],
    [
      "no",
      "vel</w>"
    ],
    [
      "no",
      "tation</w>"
    ],
    [
      "dg",
      "es</w>"
    ],
    [
      "mem",
      "b"
    ],
    [
      "memb",
      "rane</w>"
    ],
    [
      "gener",
      "ations</w>"
    ],
    [
      "wa",
      "ys</w>"
    ],
    [
      "wa",
      "ve</w>"
    ],
    [
      "19",
      "9"
    ],
    [
      "199",
      "1</w>"
    ],
    [
      "19",
      "4"
    ],
    [
      "19",
      "8"
    ],
    [
      "ari",
      "th"
    ],
    [
      "arith",
      "me"
    ],
    [
      "arithme",
      "tic</w>"
    ],
    [
      "atom",
      "s</w>"
    ],
    [
      "lear",
      "n</w>"
    ],
    [
      "inclu",
      "d"
    ],
    [
      "explor",
      "ation</w>"
    ],
    [
      "explor",
      "ing</w>"
    ],
    [
      "explor",
      "es</w>"
    ],
    [
      "shi",
      "p</w>"
    ],
    [
      "fac",
      "ilit"
    ],
    [
      "dem",
      "on"
    ],
    [
      "demon",
      "str"
    ],
    [
      "demonstr",
      "ated</w>"
    ],
    [
      "ge",
      "b"
    ],
    [
      "geb",
      "r"
    ],
    [
      "gebr",
      "a</w>"
    ],
    [
      "pri",
      "mar"
    ],
    [
      "primar",
      "ily</w>"
    ],
    [
      "bi",
      "ological</w>"
    ],
    [
      "bi",
      "as</w>"
    ],
    [
      "In",
      "ter"
    ],
    [
      "Inter",
      "net</w>"
    ],
    [
      "organ",
      "isms</w>"
    ],
    [
      "organ",
      "ize</w>"
    ],
    [
      "arg",
      "u"
    ],
    [
      "esc",
      "ar"
    ],
    [
      "escar",
      "tes</w>"
    ],
    [
      "comm",
      "unities</w>"
    ],
    [
      "comm",
      "er"
    ],
    [
      "commer",
      "ce</w>"
    ],
    [
      "transform",
      "ing</w>"
    ],
    [
      "natur",
      "ally</w>"
    ],
    [
      "fl",
      "ex"
    ],
    [
      "flex",
      "i"
    ],
    [
      "fl",
      "ec"
    ],
    [
      "fi",
      "g"
    ],
    [
      "fig",
      "ur"
    ],
    [
      "ma",
      "ke</w>"
    ],
    [
      "erv",
      "ous</w>"
    ],
    [
      "hum",
      "ans</w>"
    ],
    [
      "mor",
      "tal</w>"
    ],
    [
      "val",
      "id</w>"
    ],
    [
      "val",
      "r"
    ],
    [
      "go",
      "od</w>"
    ],
    [
      "proces",
      "sors</w>"
    ],
    [
      "cell",
      "</w>"
    ],
    [
      "our",
      "ces</w>"
    ],
    [
      "par",
      "sing</w>"
    ],
    [
      "unc",
      "er"
    ],
    [
      "uncer",
      "tainty</w>"
    ],
    [
      "chang",
      "ing</w>"
    ],
    [
      "chang",
      "es</w>"
    ],
    [
      "be",
      "ing</w>"
    ],
    [
      "be",
      "g"
    ],
    [
      "bo",
      "th</w>"
    ],
    [
      "bo",
      "ts</w>"
    ],
    [
      "ass",
      "oci"
    ],
    [
      "ass",
      "er"
    ],
    [
      "oci",
      "e"
    ],
    [
      "ain",
      "ting</w>"
    ],
    [
      "ain",
      "ed</w>"
    ],
    [
      "ain",
      "ing</w>"
    ],
    [
      "ff",
      "ec"
    ],
    [
      "ci",
      "ent</w>"
    ],
    [
      "ci",
      "vi"
    ],
    [
      "civi",
      "lizations</w>"
    ],
    [
      "co",
      "ur"
    ],
    [
      "ha",
      "k"
    ],
    [
      "hak",
      "espeare</w>"
    ],
    [
      "po",
      "t"
    ],
    [
      "all",
      "ow</w>"
    ],
    [
      "stor",
      "ies</w>"
    ],
    [
      "produc",
      "tion</w>"
    ],
    [
      "ke",
      "t</w>"
    ],
    [
      "inf",
      "ec"
    ],
    [
      "inf",
      "an"
    ],
    [
      "infan",
      "c"
    ],
    [
      "infanc",
      "y</w>"
    ],
    [
      "inf",
      "r"
    ],
    [
      "infr",
      "ar"
    ],
    [
      "infrar",
      "ed</w>"
    ],
    [
      "ell",
      "</w>"
    ],
    [
      "electr",
      "icity</w>"
    ],
    [
      "electr",
      "ical</w>"
    ],
    [
      "ta",
      "tional</w>"
    ],
    [
      "equ",
      "ality</w>"
    ],
    [
      "equ",
      "ation</w>"
    ],
    [
      "we",
      "ights</w>"
    ],
    [
      "inter",
      "est</w>"
    ],
    [
      "res",
      "ources</w>"
    ],
    [
      "res",
      "ul"
    ],
    [
      "trans",
      "fer"
    ],
    [
      "trans",
      "late</w>"
    ],
    [
      "trans",
      "m"
    ],
    [
      "elec",
      "tion</w>"
    ],
    [
      "inc",
      "reasing</w>"
    ],
    [
      "inc",
      "re"
    ],
    [
      "incre",
      "ases</w>"
    ],
    [
      "inc",
      "t</w>"
    ],
    [
      "il",
      "k</w>"
    ],
    [
      "ne",
      "ts</w>"
    ],
    [
      "sh",
      "ar"
    ],
    [
      "und",
      "er</w>"
    ],
    [
      "und",
      "s</w>"
    ],
    [
      "la",
      "y"
    ],
    [
      "lay",
      "ers</w>"
    ],
    [
      "tran",
      "sistors</w>"
    ],
    [
      "tran",
      "sp"
    ],
    [
      "transp",
      "or"
    ],
    [
      "im",
      "ag"
    ],
    [
      "im",
      "pl"
    ],
    [
      "im",
      "pro"
    ],
    [
      "impro",
      "ve</w>"
    ],
    [
      "im",
      "al</w>"
    ],
    [
      "me",
      "tr"
    ],
    [
      "metr",
      "ic</w>"
    ],
    [
      "through",
      "out</w>"
    ],
    [
      "vid",
      "ence</w>"
    ],
    [
      "se",
      "ven</w>"
    ],
    [
      "se",
      "ases</w>"
    ],
    [
      "se",
      "ts</w>"
    ],
    [
      "wor",
      "k"
    ],
    [
      "stem",
      "ology</w>"
    ],
    [
      "iz",
      "ing</w>"
    ],
    [
      "iz",
      "on"
    ],
    [
      "su",
      "per"
    ],
    [
      "su",
      "g"
    ],
    [
      "ang",
      "les</w>"
    ],
    [
      "form",
      "al</w>"
    ],
    [
      "form",
      "s</w>"
    ],
    [
      "ra",
      "ther</w>"
    ],
    [
      "ra",
      "w</w>"
    ],
    [
      "ver",
      "tic"
    ],
    [
      "vertic",
      "es</w>"
    ],
    [
      "ver",
      "g"
    ],
    [
      "verg",
      "ent</w>"
    ],
    [
      "le",
      "as"
    ],
    [
      "leas",
      "ing</w>"
    ],
    [
      "is",
      "su"
    ],
    [
      "is",
      "t</w>"
    ],
    [
      "is",
      "h"
    ],
    [
      "duc",
      "tive</w>"
    ],
    [
      "ou",
      "ghts</w>"
    ],
    [
      "ent",
      "ropy</w>"
    ],
    [
      "ent",
      "ly</w>"
    ],
    [
      "ent",
      "ation</w>"
    ],
    [
      "per",
      "son</w>"
    ],
    [
      "od",
      "y</w>"
    ],
    [
      "ir",
      "tu"
    ],
    [
      "ir",
      "able</w>"
    ],
    [
      "ir",
      "d</w>"
    ],
    [
      "ir",
      "c"
    ],
    [
      "irc",
      "u"
    ],
    [
      "ircu",
      "its</w>"
    ],
    [
      "sy",
      "l"
    ],
    [
      "enc",
      "our"
    ],
    [
      "ad",
      "ratic</w>"
    ],
    [
      "ad",
      "ap"
    ],
    [
      "ad",
      "v"
    ],
    [
      "adv",
      "ant"
    ],
    [
      "am",
      "ong</w>"
    ],
    [
      "am",
      "ics</w>"
    ],
    [
      "am",
      "et"
    ],
    [
      "am",
      "es</w>"
    ],
    [
      "hi",
      "evements</w>"
    ],
    [
      "hi",
      "s"
    ],
    [
      "um",
      "e</w>"
    ],
    [
      "op",
      "posit"
    ],
    [
      "op",
      "timization</w>"
    ],
    [
      "com",
      "b"
    ],
    [
      "sp",
      "in"
    ],
    [
      "ul",
      "ar</w>"
    ],
    [
      "oc",
      "ke</w>"
    ],
    [
      "uc",
      "li"
    ],
    [
      "ucli",
      "de"
    ],
    [
      "uclide",
      "an</w>"
    ],
    [
      "de",
      "als</w>"
    ],
    [
      "de",
      "pl"
    ],
    [
      "de",
      "b"
    ],
    [
      "de",
      "v"
    ],
    [
      "qu",
      "es"
    ],
    [
      "ques",
      "tions</w>"
    ],
    [
      "ag",
      "re"
    ],
    [
      "ap",
      "par"
    ],
    [
      "si",
      "gnals</w>"
    ],
    [
      "si",
      "ve</w>"
    ],
    [
      "si",
      "on"
    ],
    [
      "si",
      "l"
    ],
    [
      "con",
      "cep"
    ],
    [
      "con",
      "tinuous</w>"
    ],
    [
      "ri",
      "ghts</w>"
    ],
    [
      "ex",
      "ceeds</w>"
    ],
    [
      "ex",
      "ternal</w>"
    ],
    [
      "ex",
      "ten"
    ],
    [
      "ex",
      "ical</w>"
    ],
    [
      "ex",
      "t</w>"
    ],
    [
      "ex",
      "</w>"
    ],
    [
      "ch",
      "lor"
    ],
    [
      "ch",
      "an"
    ],
    [
      "vi",
      "sed</w>"
    ],
    [
      "vi",
      "a</w>"
    ],
    [
      "vi",
      "g"
    ],
    [
      "vi",
      "e"
    ],
    [
      "pl",
      "us</w>"
    ],
    [
      "pl",
      "ication</w>"
    ],
    [
      "pl",
      "a"
    ],
    [
      "es",
      "irable</w>"
    ],
    [
      "un",
      "t"
    ],
    [
      "unt",
      "ary</w>"
    ],
    [
      "for",
      "ces</w>"
    ],
    [
      "for",
      "ce</w>"
    ],
    [
      "for",
      "e</w>"
    ],
    [
      "di",
      "seases</w>"
    ],
    [
      "di",
      "vision</w>"
    ],
    [
      "di",
      "stances</w>"
    ],
    [
      "di",
      "tional</w>"
    ],
    [
      "di",
      "ly</w>"
    ],
    [
      "di",
      "st"
    ],
    [
      "dist",
      "inct</w>"
    ],
    [
      "di",
      "v"
    ],
    [
      "div",
      "ine</w>"
    ],
    [
      "pro",
      "gr"
    ],
    [
      "ol",
      "ds</w>"
    ],
    [
      "tr",
      "ains</w>"
    ],
    [
      "tr",
      "act</w>"
    ],
    [
      "tr",
      "ad"
    ],
    [
      "om",
      "e</w>"
    ],
    [
      "li",
      "ving</w>"
    ],
    [
      "li",
      "t</w>"
    ],
    [
      "li",
      "k"
    ],
    [
      "ac",
      "hievements</w>"
    ],
    [
      "ac",
      "tive</w>"
    ],
    [
      "el",
      "estial</w>"
    ],
    [
      "el",
      "ements</w>"
    ],
    [
      "to",
      "ols</w>"
    ],
    [
      "to",
      "col"
    ],
    [
      "em",
      "er"
    ],
    [
      "emer",
      "g"
    ],
    [
      "em",
      "b"
    ],
    [
      "em",
      "p"
    ],
    [
      "st",
      "ep</w>"
    ],
    [
      "st",
      "ability</w>"
    ],
    [
      "st",
      "ages</w>"
    ],
    [
      "st",
      "a"
    ],
    [
      "sta",
      "tistics</w>"
    ],
    [
      "ic",
      "t</w>"
    ],
    [
      "re",
      "active</w>"
    ],
    [
      "re",
      "plication</w>"
    ],
    [
      "re",
      "leasing</w>"
    ],
    [
      "re",
      "flec"
    ],
    [
      "re",
      "late</w>"
    ],
    [
      "re",
      "g"
    ],
    [
      "reg",
      "ardless</w>"
    ],
    [
      "ar",
      "ming</w>"
    ],
    [
      "ar",
      "y"
    ],
    [
      "ary",
      "o"
    ],
    [
      "aryo",
      "tic</w>"
    ],
    [
      "ar",
      "r"
    ],
    [
      "arr",
      "ation</w>"
    ],
    [
      "ro",
      "bots</w>"
    ],
    [
      "ro",
      "man"
    ],
    [
      "ro",
      "w</w>"
    ],
    [
      "ro",
      "und"
    ],
    [
      "ro",
      "y"
    ],
    [
      "al",
      "ways</w>"
    ],
    [
      "al",
      "so</w>"
    ],
    [
      "al",
      "ong</w>"
    ],
    [
      "al",
      "ized</w>"
    ],
    [
      "or",
      "izon"
    ],
    [
      "or",
      "mal</w>"
    ],
    [
      "or",
      "ies</w>"
    ],
    [
      "en",
      "able</w>"
    ],
    [
      "er",
      "o</w>"
    ],
    [
      "er",
      "n"
    ],
    [
      "th",
      "oughts</w>"
    ],
    [
      "th",
      "ose</w>"
    ],
    [
      "th",
      "is</w>"
    ],
    [
      "th",
      "en</w>"
    ],
    [
      "th",
      "en"
    ],
    [
      "th",
      "in"
    ],
    [
      "ti",
      "tu"
    ],
    [
      "ti",
      "al</w>"
    ],
    [
      "on",
      "nets</w>"
    ],
    [
      "on",
      "om"
    ],
    [
      "on",
      "es</w>"
    ],
    [
      "on",
      "d</w>"
    ],
    [
      "an",
      "ity</w>"
    ],
    [
      "an",
      "y</w>"
    ],
    [
      "an",
      "e"
    ],
    [
      "in",
      "forcement</w>"
    ],
    [
      "in",
      "telligence</w>"
    ],
    [
      "in",
      "puts</w>"
    ],
    [
      "in",
      "ked</w>"
    ],
    [
      "in",
      "put</w>"
    ],
    [
      "/",
      "</w>"
    ],
    [
      ")",
      "</w>"
    ],
    [
      "(",
      "</w>"
    ],
    [
      "J",
      "ap"
    ],
    [
      "5",
      "th</w>"
    ],
    [
      "R",
      "o"
    ],
    [
      "Ro",
      "ad</w>"
    ],
    [
      "W",
      "at"
    ],
    [
      "W",
      "h"
    ],
    [
      "Wh",
      "en</w>"
    ],
    [
      "K",
      "ant</w>"
    ],
    [
      "V",
      "irtu"
    ],
    [
      "L",
      "ocke</w>"
    ],
    [
      "L",
      "e"
    ],
    [
      "L",
      "</w>"
    ],
    [
      "0",
      "s</w>"
    ],
    [
      "B",
      "C"
    ],
    [
      "BC",
      "E"
    ],
    [
      "BCE",
      "</w>"
    ],
    [
      "Q",
      "L</w>"
    ],
    [
      "X",
      "</w>"
    ],
    [
      "O",
      "r"
    ],
    [
      "1",
      "7"
    ],
    [
      "E",
      "uclidean</w>"
    ],
    [
      "E",
      "ach</w>"
    ],
    [
      "E",
      "ri"
    ],
    [
      "E",
      "l"
    ],
    [
      "z",
      "ero</w>"
    ],
    [
      "F",
      "ree</w>"
    ],
    [
      "H",
      "ash</w>"
    ],
    [
      "H",
      "e"
    ],
    [
      "D",
      "escartes</w>"
    ],
    [
      "D",
      "at"
    ],
    [
      "D",
      "i"
    ],
    [
      "C",
      "ognitive</w>"
    ],
    [
      "G",
      "reek</w>"
    ],
    [
      "G",
      "DP</w>"
    ],
    [
      "G",
      "roup</w>"
    ],
    [
      "G",
      "e"
    ],
    [
      "w",
      "ar"
    ],
    [
      "w",
      "e</w>"
    ],
    [
      "w",
      "s</w>"
    ],
    [
      "w",
      "o"
    ],
    [
      "wo",
      "uld</w>"
    ],
    [
      "b",
      "ody</w>"
    ],
    [
      "b",
      "roader</w>"
    ],
    [
      "b",
      "rain</w>"
    ],
    [
      "b",
      "ack</w>"
    ],
    [
      "b",
      "rea"
    ],
    [
      "b",
      "row"
    ],
    [
      "b",
      "ec"
    ],
    [
      "b",
      "s</w>"
    ],
    [
      "y",
      "ears</w>"
    ],
    [
      "k",
      "aryotic</w>"
    ],
    [
      "k",
      "ens</w>"
    ],
    [
      "k",
      "u"
    ],
    [
      "P",
      "ri"
    ],
    [
      "P",
      "o"
    ],
    [
      "p",
      "ainting</w>"
    ],
    [
      "p",
      "hilosophy</w>"
    ],
    [
      "p",
      "os"
    ],
    [
      "p",
      "e"
    ],
    [
      "p",
      "i"
    ],
    [
      "pi",
      "stemology</w>"
    ],
    [
      "g",
      "u"
    ],
    [
      "v",
      "ast</w>"
    ],
    [
      "A",
      "ristotle</w>"
    ],
    [
      "A",
      "mericas</w>"
    ],
    [
      "A",
      "I</w>"
    ],
    [
      "o",
      "sphere</w>"
    ],
    [
      "o",
      "es</w>"
    ],
    [
      "o",
      "x"
    ],
    [
      "m",
      "ill"
    ],
    [
      "m",
      "apping</w>"
    ],
    [
      "m",
      "ythology</w>"
    ],
    [
      "m",
      "ade</w>"
    ],
    [
      "m",
      "ary</w>"
    ],
    [
      "m",
      "ents</w>"
    ],
    [
      "m",
      "a</w>"
    ],
    [
      "m",
      "om"
    ],
    [
      "m",
      "p"
    ],
    [
      "d",
      "erivative</w>"
    ],
    [
      "d",
      "ri"
    ],
    [
      "f",
      "arming</w>"
    ],
    [
      "f",
      "requency</w>"
    ],
    [
      "f",
      "our</w>"
    ],
    [
      "f",
      "ication</w>"
    ],
    [
      "f",
      "ies</w>"
    ],
    [
      "f",
      "ol"
    ],
    [
      "f",
      "in"
    ],
    [
      "f",
      "e"
    ],
    [
      "f",
      "r"
    ],
    [
      "f",
      "a"
    ],
    [
      "fa",
      "ster</w>"
    ],
    [
      "h",
      "orizon"
    ],
    [
      "h",
      "olds</w>"
    ],
    [
      "h",
      "ardware</w>"
    ],
    [
      "h",
      "ys"
    ],
    [
      "h",
      "er"
    ],
    [
      "T",
      "</w>"
    ],
    [
      "s",
      "election</w>"
    ],
    [
      "s",
      "ocie"
    ],
    [
      "s",
      "chemas</w>"
    ],
    [
      "s",
      "et"
    ],
    [
      "s",
      "el"
    ],
    [
      "s",
      "or"
    ],
    [
      "s",
      "w"
    ],
    [
      "n",
      "arration</w>"
    ],
    [
      "n",
      "ervous</w>"
    ],
    [
      "n",
      "ess</w>"
    ],
    [
      "n",
      "o</w>"
    ],
    [
      "n",
      "a"
    ],
    [
      "na",
      "vig"
    ],
    [
      "e",
      "vidence</w>"
    ],
    [
      "e",
      "thics</w>"
    ],
    [
      "e",
      "valu"
    ],
    [
      "e",
      "duc"
    ],
    [
      "e",
      "an</w>"
    ],
    [
      "e",
      "di"
    ],
    [
      "e",
      "f"
    ],
    [
      "i",
      "de</w>"
    ],
    [
      "i",
      "ties</w>"
    ],
    [
      "i",
      "p"
    ],
    [
      "i",
      "g"
    ],
    [
      "c",
      "elestial</w>"
    ],
    [
      "c",
      "ircuits</w>"
    ],
    [
      "c",
      "ycle</w>"
    ],
    [
      "c",
      "os"
    ],
    [
      "c",
      "a"
    ],
    [
      "S",
      "QL</w>"
    ],
    [
      "S",
      "ilk</w>"
    ],
    [
      "S",
      "hakespeare</w>"
    ],
    [
      "S",
      "y"
    ],
    [
      "S",
      "</w>"
    ],
    [
      "l",
      "arge</w>"
    ],
    [
      "l",
      "ow</w>"
    ],
    [
      "l",
      "oc"
    ],
    [
      "l",
      "ed</w>"
    ],
    [
      "l",
      "at"
    ],
    [
      "l",
      "s</w>"
    ],
    [
      "l",
      "l"
    ],
    [
      "r",
      "ules</w>"
    ],
    [
      "r",
      "ap"
    ],
    [
      "r",
      "un"
    ],
    [
      "r",
      "ing</w>"
    ],
    [
      "t",
      "ane"
    ],
    [
      "t",
      "ext</w>"
    ],
    [
      "t",
      "ables</w>"
    ],
    [
      "t",
      "ree</w>"
    ],
    [
      "t",
      "on</w>"
    ],
    [
      "a",
      "f"
    ],
    [
      "6",
      "9</w>"
    ],
    [
      "3",
      "9</w>"
    ],
    [
      "4",
      "0</w>"
    ],
    [
      "5",
      "4</w>"
    ],
    [
      "1",
      "8</w>"
    ],
    [
      "-",
      "-</w>"
    ],
    [
      "-",
      "--</w>"
    ],
    [
      "S",
      "ci"
    ],
    [
      "Com",
      "pu"
    ],
    [
      "Compu",
      "ter</w>"
    ],
    [
      "================================",
      "================"
    ],
    [
      "================================================",
      "========"
    ],
    [
      "========================================================",
      "===="
    ],
    [
      "============================================================",
      "</w>"
    ],
    [
      "st",
      "ory</w>"
    ],
    [
      "L",
      "i"
    ],
    [
      "P",
      "hilosophy</w>"
    ],
    [
      "Li",
      "ber"
    ],
    [
      "Liber",
      "tari"
    ],
    [
      "Libertari",
      "ans</w>"
    ],
    [
      "Sci",
      "enti"
    ],
    [
      "Scienti",
      "fic</w>"
    ],
    [
      "af",
      "ter</w>"
    ],
    [
      "af",
      "ter"
    ],
    [
      "after",
      "ma"
    ],
    [
      "afterma",
      "th</w>"
    ],
    [
      "tane",
      "ously</w>"
    ],
    [
      "tane",
      "ous</w>"
    ],
    [
      "run",
      "ning</w>"
    ],
    [
      "run",
      "s</w>"
    ],
    [
      "rap",
      "id</w>"
    ],
    [
      "rap",
      "h</w>"
    ],
    [
      "ll",
      "ages</w>"
    ],
    [
      "ll",
      "</w>"
    ],
    [
      "lat",
      "tice</w>"
    ],
    [
      "lat",
      "o</w>"
    ],
    [
      "loc",
      "om"
    ],
    [
      "locom",
      "o"
    ],
    [
      "locomo",
      "tives</w>"
    ],
    [
      "loc",
      "al</w>"
    ],
    [
      "Sy",
      "stem"
    ],
    [
      "System",
      "s</w>"
    ],
    [
      "Sy",
      "m"
    ],
    [
      "Sym",
      "metric</w>"
    ],
    [
      "ca",
      "using</w>"
    ],
    [
      "ca",
      "us"
    ],
    [
      "caus",
      "al</w>"
    ],
    [
      "cos",
      "mo"
    ],
    [
      "cosmo",
      "s</w>"
    ],
    [
      "cos",
      "ine</w>"
    ],
    [
      "ig",
      "n</w>"
    ],
    [
      "ig",
      "en"
    ],
    [
      "igen",
      "values</w>"
    ],
    [
      "ip",
      "ate</w>"
    ],
    [
      "ip",
      "ul"
    ],
    [
      "ipul",
      "ates</w>"
    ],
    [
      "ef",
      "ul"
    ],
    [
      "eful",
      "</w>"
    ],
    [
      "ef",
      "s</w>"
    ],
    [
      "edi",
      "ence</w>"
    ],
    [
      "edi",
      "ter"
    ],
    [
      "editer",
      "ran"
    ],
    [
      "editerran",
      "ean</w>"
    ],
    [
      "educ",
      "ation</w>"
    ],
    [
      "educ",
      "ts</w>"
    ],
    [
      "evalu",
      "ated</w>"
    ],
    [
      "evalu",
      "ate</w>"
    ],
    [
      "navig",
      "ate</w>"
    ],
    [
      "navig",
      "at"
    ],
    [
      "navigat",
      "ors</w>"
    ],
    [
      "sw",
      "apping</w>"
    ],
    [
      "sw",
      "er</w>"
    ],
    [
      "sor",
      "bs</w>"
    ],
    [
      "sor",
      "ted</w>"
    ],
    [
      "sel",
      "f</w>"
    ],
    [
      "sel",
      "ves</w>"
    ],
    [
      "set",
      "tin"
    ],
    [
      "settin",
      "g"
    ],
    [
      "setting",
      "s</w>"
    ],
    [
      "set",
      "t"
    ],
    [
      "sett",
      "led</w>"
    ],
    [
      "socie",
      "ties</w>"
    ],
    [
      "socie",
      "ty</w>"
    ],
    [
      "her",
      "oes</w>"
    ],
    [
      "her",
      "ent</w>"
    ],
    [
      "hys",
      "ics</w>"
    ],
    [
      "hys",
      "ic"
    ],
    [
      "hysic",
      "alism</w>"
    ],
    [
      "horizon",
      "tal</w>"
    ],
    [
      "horizon",
      "t"
    ],
    [
      "horizont",
      "ally</w>"
    ],
    [
      "fr",
      "ag"
    ],
    [
      "frag",
      "ments</w>"
    ],
    [
      "fr",
      "ic"
    ],
    [
      "fric",
      "a</w>"
    ],
    [
      "fe",
      "w</w>"
    ],
    [
      "fe",
      "ed</w>"
    ],
    [
      "fin",
      "ding</w>"
    ],
    [
      "fin",
      "al</w>"
    ],
    [
      "fol",
      "low</w>"
    ],
    [
      "fol",
      "k"
    ],
    [
      "folk",
      "lor"
    ],
    [
      "folklor",
      "e</w>"
    ],
    [
      "dri",
      "ving</w>"
    ],
    [
      "dri",
      "a</w>"
    ],
    [
      "mp",
      "ire</w>"
    ],
    [
      "mp",
      "ting</w>"
    ],
    [
      "mom",
      "ents</w>"
    ],
    [
      "mom",
      "ent"
    ],
    [
      "moment",
      "um</w>"
    ],
    [
      "mill",
      "en"
    ],
    [
      "millen",
      "ni"
    ],
    [
      "millenni",
      "a</w>"
    ],
    [
      "mill",
      "s</w>"
    ],
    [
      "ox",
      "ide</w>"
    ],
    [
      "ox",
      "y"
    ],
    [
      "oxy",
      "g"
    ],
    [
      "oxyg",
      "en</w>"
    ],
    [
      "gu",
      "ese</w>"
    ],
    [
      "gu",
      "ar"
    ],
    [
      "guar",
      "an"
    ],
    [
      "guaran",
      "te"
    ],
    [
      "guarante",
      "e</w>"
    ],
    [
      "pe",
      "ti"
    ],
    [
      "peti",
      "tive</w>"
    ],
    [
      "pe",
      "o"
    ],
    [
      "peo",
      "ple</w>"
    ],
    [
      "pos",
      "sible</w>"
    ],
    [
      "pos",
      "ers</w>"
    ],
    [
      "Po",
      "litical</w>"
    ],
    [
      "Po",
      "etr"
    ],
    [
      "Poetr",
      "y</w>"
    ],
    [
      "Pri",
      "mary</w>"
    ],
    [
      "Pri",
      "me</w>"
    ],
    [
      "ku",
      "p</w>"
    ],
    [
      "ku",
      "</w>"
    ],
    [
      "bec",
      "om"
    ],
    [
      "becom",
      "es</w>"
    ],
    [
      "bec",
      "a"
    ],
    [
      "beca",
      "use</w>"
    ],
    [
      "brow",
      "sing</w>"
    ],
    [
      "brow",
      "s"
    ],
    [
      "brows",
      "ers</w>"
    ],
    [
      "brea",
      "ks</w>"
    ],
    [
      "brea",
      "k</w>"
    ],
    [
      "war",
      "ding</w>"
    ],
    [
      "war",
      "s</w>"
    ],
    [
      "Ge",
      "ometry</w>"
    ],
    [
      "Ge",
      "or"
    ],
    [
      "Geor",
      "g</w>"
    ],
    [
      "Di",
      "vergent</w>"
    ],
    [
      "Di",
      "ffer"
    ],
    [
      "Differ",
      "ential</w>"
    ],
    [
      "Dat",
      "ab"
    ],
    [
      "Datab",
      "ase</w>"
    ],
    [
      "Dat",
      "a</w>"
    ],
    [
      "He",
      "is"
    ],
    [
      "Heis",
      "en"
    ],
    [
      "Heisen",
      "berg</w>"
    ],
    [
      "He",
      "at</w>"
    ],
    [
      "El",
      "ements</w>"
    ],
    [
      "El",
      "ec"
    ],
    [
      "Elec",
      "tromagnetic</w>"
    ],
    [
      "Eri",
      "k</w>"
    ],
    [
      "Eri",
      "k"
    ],
    [
      "Erik",
      "son</w>"
    ],
    [
      "17",
      "th</w>"
    ],
    [
      "17",
      "8"
    ],
    [
      "178",
      "9</w>"
    ],
    [
      "Or",
      "gan"
    ],
    [
      "Organ",
      "isms</w>"
    ],
    [
      "Or",
      "d"
    ],
    [
      "Ord",
      "inary</w>"
    ],
    [
      "Le",
      "on"
    ],
    [
      "Leon",
      "ard"
    ],
    [
      "Leonard",
      "o</w>"
    ],
    [
      "Le",
      "e</w>"
    ],
    [
      "Virtu",
      "al</w>"
    ],
    [
      "Virtu",
      "e</w>"
    ],
    [
      "Wat",
      "son</w>"
    ],
    [
      "Wat",
      "t</w>"
    ],
    [
      "Jap",
      "an</w>"
    ],
    [
      "Jap",
      "an"
    ],
    [
      "Japan",
      "ese</w>"
    ],
    [
      "onom",
      "ous</w>"
    ],
    [
      "onom",
      "y</w>"
    ],
    [
      "titu",
      "tions</w>"
    ],
    [
      "titu",
      "tion</w>"
    ],
    [
      "thin",
      "king</w>"
    ],
    [
      "thin",
      "k</w>"
    ],
    [
      "then",
      "osphere</w>"
    ],
    [
      "then",
      "i"
    ],
    [
      "theni",
      "an</w>"
    ],
    [
      "ern",
      "el</w>"
    ],
    [
      "ern",
      "ers</w>"
    ],
    [
      "roy",
      "ed</w>"
    ],
    [
      "roy",
      "al</w>"
    ],
    [
      "round",
      "water</w>"
    ],
    [
      "round",
      "ed</w>"
    ],
    [
      "roman",
      "ces</w>"
    ],
    [
      "roman",
      "ce</w>"
    ],
    [
      "reflec",
      "ting</w>"
    ],
    [
      "reflec",
      "t</w>"
    ],
    [
      "emp",
      "ire</w>"
    ],
    [
      "emp",
      "ir"
    ],
    [
      "empir",
      "ici"
    ],
    [
      "empirici",
      "sts</w>"
    ],
    [
      "emb",
      "ly</w>"
    ],
    [
      "emb",
      "er</w>"
    ],
    [
      "emerg",
      "ence</w>"
    ],
    [
      "emerg",
      "ed</w>"
    ],
    [
      "tocol",
      "s</w>"
    ],
    [
      "tocol",
      "</w>"
    ],
    [
      "lik",
      "ely</w>"
    ],
    [
      "lik",
      "eli"
    ],
    [
      "likeli",
      "ho"
    ],
    [
      "likeliho",
      "od</w>"
    ],
    [
      "trad",
      "ed</w>"
    ],
    [
      "trad",
      "ing</w>"
    ],
    [
      "progr",
      "ams</w>"
    ],
    [
      "progr",
      "am"
    ],
    [
      "program",
      "ming</w>"
    ],
    [
      "pla",
      "sts</w>"
    ],
    [
      "pla",
      "ys</w>"
    ],
    [
      "vie",
      "ws</w>"
    ],
    [
      "vie",
      "w</w>"
    ],
    [
      "chan",
      "ted</w>"
    ],
    [
      "chan",
      "ts</w>"
    ],
    [
      "chlor",
      "oph"
    ],
    [
      "chloroph",
      "y"
    ],
    [
      "chlorophy",
      "ll</w>"
    ],
    [
      "chlor",
      "o"
    ],
    [
      "chloro",
      "plasts</w>"
    ],
    [
      "exten",
      "sive</w>"
    ],
    [
      "exten",
      "ds</w>"
    ],
    [
      "concep",
      "ts</w>"
    ],
    [
      "concep",
      "t</w>"
    ],
    [
      "sil",
      "k</w>"
    ],
    [
      "sil",
      "ic"
    ],
    [
      "silic",
      "on</w>"
    ],
    [
      "sion",
      "ality</w>"
    ],
    [
      "sion",
      "al</w>"
    ],
    [
      "appar",
      "ent</w>"
    ],
    [
      "appar",
      "at"
    ],
    [
      "apparat",
      "us</w>"
    ],
    [
      "agre",
      "ements</w>"
    ],
    [
      "agre",
      "ement</w>"
    ],
    [
      "dev",
      "ice</w>"
    ],
    [
      "dev",
      "ices</w>"
    ],
    [
      "deb",
      "ates</w>"
    ],
    [
      "deb",
      "t</w>"
    ],
    [
      "depl",
      "oy"
    ],
    [
      "deploy",
      "ment</w>"
    ],
    [
      "depl",
      "eting</w>"
    ],
    [
      "spin",
      "ning</w>"
    ],
    [
      "spin",
      "al</w>"
    ],
    [
      "comb",
      "ined</w>"
    ],
    [
      "comb",
      "ine</w>"
    ],
    [
      "opposit",
      "ely</w>"
    ],
    [
      "opposit",
      "e</w>"
    ],
    [
      "his",
      "tic"
    ],
    [
      "histic",
      "ated</w>"
    ],
    [
      "his",
      "m</w>"
    ],
    [
      "amet",
      "er</w>"
    ],
    [
      "amet",
      "es</w>"
    ],
    [
      "advant",
      "age</w>"
    ],
    [
      "advant",
      "ag"
    ],
    [
      "advantag",
      "e"
    ],
    [
      "advantage",
      "ous</w>"
    ],
    [
      "adap",
      "tation</w>"
    ],
    [
      "adap",
      "tive</w>"
    ],
    [
      "encour",
      "ages</w>"
    ],
    [
      "encour",
      "ag"
    ],
    [
      "encourag",
      "ing</w>"
    ],
    [
      "syl",
      "lab"
    ],
    [
      "syllab",
      "les</w>"
    ],
    [
      "syl",
      "log"
    ],
    [
      "syllog",
      "ism</w>"
    ],
    [
      "ish",
      "ment</w>"
    ],
    [
      "ish",
      "ed</w>"
    ],
    [
      "issu",
      "ing</w>"
    ],
    [
      "issu",
      "es</w>"
    ],
    [
      "sug",
      "ge"
    ],
    [
      "sugge",
      "sting</w>"
    ],
    [
      "sug",
      "ar</w>"
    ],
    [
      "super",
      "vised</w>"
    ],
    [
      "super",
      "powers</w>"
    ],
    [
      "work",
      "lo"
    ],
    [
      "worklo",
      "ad"
    ],
    [
      "workload",
      "s</w>"
    ],
    [
      "work",
      "ers</w>"
    ],
    [
      "impl",
      "ement</w>"
    ],
    [
      "impl",
      "em"
    ],
    [
      "implem",
      "entation</w>"
    ],
    [
      "imag",
      "ing</w>"
    ],
    [
      "imag",
      "er"
    ],
    [
      "imager",
      "y</w>"
    ],
    [
      "transpor",
      "tation</w>"
    ],
    [
      "transpor",
      "t</w>"
    ],
    [
      "shar",
      "ing</w>"
    ],
    [
      "shar",
      "es</w>"
    ],
    [
      "transm",
      "it"
    ],
    [
      "transmit",
      "ters</w>"
    ],
    [
      "transm",
      "is"
    ],
    [
      "transmis",
      "sion</w>"
    ],
    [
      "transfer",
      "ring</w>"
    ],
    [
      "transfer",
      "red</w>"
    ],
    [
      "resul",
      "ting</w>"
    ],
    [
      "resul",
      "t</w>"
    ],
    [
      "infec",
      "ted</w>"
    ],
    [
      "infec",
      "tions</w>"
    ],
    [
      "pot",
      "ential</w>"
    ],
    [
      "pot",
      "enti"
    ],
    [
      "potenti",
      "als</w>"
    ],
    [
      "cour",
      "age</w>"
    ],
    [
      "cour",
      "t</w>"
    ],
    [
      "ffec",
      "ts</w>"
    ],
    [
      "ffec",
      "t</w>"
    ],
    [
      "asser",
      "ting</w>"
    ],
    [
      "asser",
      "ts</w>"
    ],
    [
      "associ",
      "ated</w>"
    ],
    [
      "associ",
      "ations</w>"
    ],
    [
      "beg",
      "an</w>"
    ],
    [
      "beg",
      "in"
    ],
    [
      "begin",
      "ning</w>"
    ],
    [
      "valr",
      "ic</w>"
    ],
    [
      "valr",
      "y</w>"
    ],
    [
      "figur",
      "ation</w>"
    ],
    [
      "figur",
      "e</w>"
    ],
    [
      "flexi",
      "ble</w>"
    ],
    [
      "flexi",
      "b"
    ],
    [
      "flexib",
      "ility</w>"
    ],
    [
      "argu",
      "ed</w>"
    ],
    [
      "argu",
      "es</w>"
    ],
    [
      "facilit",
      "ated</w>"
    ],
    [
      "facilit",
      "ate</w>"
    ],
    [
      "includ",
      "ed</w>"
    ],
    [
      "includ",
      "es</w>"
    ],
    [
      "198",
      "0s</w>"
    ],
    [
      "198",
      "9</w>"
    ],
    [
      "194",
      "7</w>"
    ],
    [
      "194",
      "5</w>"
    ],
    [
      "preci",
      "sion</w>"
    ],
    [
      "preci",
      "ous</w>"
    ],
    [
      "predic",
      "tions</w>"
    ],
    [
      "predic",
      "ts</w>"
    ],
    [
      "special",
      "ization</w>"
    ],
    [
      "special",
      "ize</w>"
    ],
    [
      "suppli",
      "ed</w>"
    ],
    [
      "suppli",
      "es</w>"
    ],
    [
      "mito",
      "sis</w>"
    ],
    [
      "mito",
      "ch"
    ],
    [
      "mitoch",
      "on"
    ],
    [
      "mitochon",
      "dria</w>"
    ],
    [
      "clou",
      "ds</w>"
    ],
    [
      "clou",
      "d</w>"
    ],
    [
      "upd",
      "ate</w>"
    ],
    [
      "upd",
      "ates</w>"
    ],
    [
      "analyz",
      "ing</w>"
    ],
    [
      "analyz",
      "e</w>"
    ],
    [
      "Colum",
      "bi"
    ],
    [
      "Columbi",
      "an</w>"
    ],
    [
      "Colum",
      "bu"
    ],
    [
      "Columbu",
      "s</w>"
    ],
    [
      "deci",
      "sions</w>"
    ],
    [
      "deci",
      "sion</w>"
    ],
    [
      "eig",
      "n</w>"
    ],
    [
      "eig",
      "en"
    ],
    [
      "eigen",
      "v"
    ],
    [
      "eigenv",
      "ectors</w>"
    ],
    [
      "countr",
      "ies</w>"
    ],
    [
      "countr",
      "y</w>"
    ],
    [
      "disco",
      "vers</w>"
    ],
    [
      "disco",
      "ver"
    ],
    [
      "discover",
      "ed</w>"
    ],
    [
      "Develop",
      "mental</w>"
    ],
    [
      "Develop",
      "ment</w>"
    ],
    [
      "corpor",
      "ations</w>"
    ],
    [
      "corpor",
      "a</w>"
    ],
    [
      "acceler",
      "ated</w>"
    ],
    [
      "acceler",
      "ation</w>"
    ],
    [
      "represent",
      "ations</w>"
    ],
    [
      "represent",
      "ing</w>"
    ],
    [
      "hyper",
      "bolic</w>"
    ],
    [
      "hyper",
      "l"
    ],
    [
      "hyperl",
      "inked</w>"
    ],
    [
      "Neur",
      "ons</w>"
    ],
    [
      "Neur",
      "al</w>"
    ],
    [
      "determ",
      "ines</w>"
    ],
    [
      "determ",
      "ine</w>"
    ],
    [
      "depend",
      "ently</w>"
    ],
    [
      "depend",
      "ent</w>"
    ],
    [
      "approxim",
      "ate</w>"
    ],
    [
      "approxim",
      "at"
    ],
    [
      "approximat",
      "ely</w>"
    ],
    [
      "experim",
      "ents</w>"
    ],
    [
      "experim",
      "ent</w>"
    ],
    [
      "borrow",
      "ers</w>"
    ],
    [
      "borrow",
      "ing</w>"
    ],
    [
      "Trans",
      "actions</w>"
    ],
    [
      "Trans",
      "form</w>"
    ],
    [
      "Com",
      "p"
    ],
    [
      "Comp",
      "il"
    ],
    [
      "Compil",
      "ers</w>"
    ],
    [
      "av",
      "lo"
    ],
    [
      "avlo",
      "v"
    ],
    [
      "avlov",
      "</w>"
    ],
    [
      "tem",
      "por"
    ],
    [
      "tempor",
      "ary</w>"
    ],
    [
      "tem",
      "per"
    ],
    [
      "temper",
      "ance</w>"
    ],
    [
      "tem",
      "pl"
    ],
    [
      "templ",
      "ate</w>"
    ],
    [
      "tel",
      "esc"
    ],
    [
      "telesc",
      "op"
    ],
    [
      "telescop",
      "es</w>"
    ],
    [
      "typ",
      "e</w>"
    ],
    [
      "tari",
      "ff"
    ],
    [
      "tariff",
      "s</w>"
    ],
    [
      "tari",
      "an"
    ],
    [
      "tarian",
      "ism</w>"
    ],
    [
      "ut",
      "onomous</w>"
    ],
    [
      "ut",
      "ations</w>"
    ],
    [
      "ut",
      "e</w>"
    ],
    [
      "ustri",
      "es</w>"
    ],
    [
      "rang",
      "e</w>"
    ],
    [
      "St",
      "ream</w>"
    ],
    [
      "cer",
      "amics</w>"
    ],
    [
      "ed",
      "ented</w>"
    ],
    [
      "ed",
      "ul"
    ],
    [
      "edul",
      "ing</w>"
    ],
    [
      "ed",
      "y</w>"
    ],
    [
      "nucle",
      "us</w>"
    ],
    [
      "nucle",
      "ar</w>"
    ],
    [
      "nucle",
      "o"
    ],
    [
      "nucleo",
      "ti"
    ],
    [
      "nucleoti",
      "d"
    ],
    [
      "nucleotid",
      "es</w>"
    ],
    [
      "stimul",
      "ating</w>"
    ],
    [
      "Tran",
      "sistors</w>"
    ],
    [
      "he",
      "ating</w>"
    ],
    [
      "he",
      "at</w>"
    ],
    [
      "he",
      "al"
    ],
    [
      "heal",
      "th"
    ],
    [
      "health",
      "c"
    ],
    [
      "healthc",
      "are</w>"
    ],
    [
      "ho",
      "to"
    ],
    [
      "hoto",
      "synthes"
    ],
    [
      "hotosynthes",
      "is</w>"
    ],
    [
      "ho",
      "t</w>"
    ],
    [
      "hand",
      "le</w>"
    ],
    [
      "heli",
      "oc"
    ],
    [
      "helioc",
      "entr"
    ],
    [
      "heliocentr",
      "ic</w>"
    ],
    [
      "foc",
      "used</w>"
    ],
    [
      "dr",
      "as"
    ],
    [
      "dras",
      "il</w>"
    ],
    [
      "dd",
      "hism</w>"
    ],
    [
      "dd",
      "en</w>"
    ],
    [
      "dd",
      "le</w>"
    ],
    [
      "dic",
      "ine</w>"
    ],
    [
      "del",
      "oc"
    ],
    [
      "deloc",
      "alized</w>"
    ],
    [
      "del",
      "e"
    ],
    [
      "dele",
      "tions</w>"
    ],
    [
      "del",
      "u"
    ],
    [
      "delu",
      "sional</w>"
    ],
    [
      "mer",
      "ase</w>"
    ],
    [
      "oy",
      "ages</w>"
    ],
    [
      "oy",
      "ce</w>"
    ],
    [
      "Ar",
      "tificial</w>"
    ],
    [
      "Ar",
      "rays</w>"
    ],
    [
      "Ar",
      "ti"
    ],
    [
      "Arti",
      "sts</w>"
    ],
    [
      "vap",
      "oration</w>"
    ],
    [
      "pli",
      "fi"
    ],
    [
      "plifi",
      "ers</w>"
    ],
    [
      "bl",
[...]
